<unk>	0
<s>	0
</s>	0
▁t	-0
ng	-1
▁c	-2
▁đ	-3
▁n	-4
▁v	-5
▁l	-6
▁th	-7
▁ch	-8
▁m	-9
▁h	-10
▁b	-11
▁nh	-12
▁k	-13
▁s	-14
▁tr	-15
nh	-16
▁kh	-17
▁ng	-18
▁g	-19
▁và	-20
▁là	-21
ôi	-22
▁tôi	-23
▁r	-24
▁p	-25
ông	-26
▁d	-27
▁ph	-28
ác	-29
▁có	-30
ột	-31
▁gi	-32
▁một	-33
▁chú	-34
ời	-35
ên	-36
▁chúng	-37
iệ	-38
ững	-39
iế	-40
ới	-41
▁những	-42
▁ta	-43
ất	-44
▁củ	-45
▁của	-46
▁không	-47
ạn	-48
qu	-49
▁qu	-50
ười	-51
▁nó	-52
▁các	-53
iề	-54
ượ	-55
▁nà	-56
▁đó	-57
▁bạn	-58
▁như	-59
▁x	-60
▁người	-61
ong	-62
iều	-63
ại	-64
▁ngh	-65
▁trong	-66
▁họ	-67
▁thể	-68
ược	-69
uy	-70
▁được	-71
▁này	-72
▁đã	-73
ình	-74
ây	-75
▁với	-76
ấy	-77
ay	-78
▁cho	-79
▁ra	-80
an	-81
▁sự	-82
ần	-83
ải	-84
▁làm	-85
▁ở	-86
▁mà	-87
iên	-88
▁để	-89
▁điều	-90
▁sẽ	-91
ang	-92
▁khi	-93
▁về	-94
ằng	-95
▁cả	-96
▁ho	-97
ực	-98
ống	-99
ân	-100
anh	-101
ật	-102
iể	-103
▁thế	-104
ái	-105
ơn	-106
iết	-107
ầu	-108
ướ	-109
ai	-110
on	-111
▁nhưng	-112
▁từ	-113
ành	-114
ến	-115
inh	-116
ch	-117
▁nói	-118
ao	-119
▁nă	-120
ết	-121
▁việ	-122
▁đây	-123
▁phải	-124
▁đến	-125
uố	-126
ức	-127
ính	-128
ước	-129
▁việc	-130
▁1	-131
▁vì	-132
▁vào	-133
▁độ	-134
iện	-135
▁nghĩ	-136
ườ	-137
àn	-138
au	-139
▁đang	-140
▁gì	-141
ận	-142
ường	-143
▁rằng	-144
▁hơn	-145
âu	-146
▁lại	-147
▁nhiều	-148
▁thấy	-149
ùng	-150
▁cách	-151
ản	-152
▁tiế	-153
▁rất	-154
in	-155
ài	-156
▁khác	-157
▁đầu	-158
▁chỉ	-159
▁con	-160
ươ	-161
ậy	-162
▁học	-163
▁công	-164
ếu	-165
ọi	-166
ương	-167
ối	-168
▁thực	-169
▁trên	-170
ổi	-171
ạo	-172
▁vậy	-173
▁biết	-174
▁thứ	-175
▁đề	-176
▁nếu	-177
▁năm	-178
àng	-179
iệu	-180
▁chuy	-181
ũng	-182
▁nào	-183
ơi	-184
át	-185
uốn	-186
ung	-187
▁cái	-188
▁thành	-189
▁đi	-190
▁cũng	-191
ắt	-192
▁to	-193
ộc	-194
iến	-195
▁số	-196
▁nhà	-197
▁dụ	-198
▁nên	-199
▁bị	-200
▁lo	-201
ồi	-202
ích	-203
▁quan	-204
▁muốn	-205
ập	-206
ăn	-207
▁anh	-208
em	-209
▁kho	-210
áng	-211
eo	-212
úc	-213
uộc	-214
▁nhất	-215
ấn	-216
▁chính	-217
án	-218
▁mình	-219
ữa	-220
▁động	-221
ưở	-222
▁mọi	-223
▁giới	-224
▁tạo	-225
ưởng	-226
▁giờ	-227
ặt	-228
▁hay	-229
ởi	-230
▁lớ	-231
òn	-232
ền	-233
ỏi	-234
▁ông	-235
êu	-236
▁tại	-237
▁quy	-238
iểu	-239
ắc	-240
ưa	-241
▁thật	-242
▁hiện	-243
▁cần	-244
▁tố	-245
▁nhận	-246
ượng	-247
▁ý	-248
ặc	-249
00	-250
ứng	-251
▁sống	-252
▁còn	-253
▁tự	-254
▁2	-255
ày	-256
ện	-257
▁sau	-258
▁bởi	-259
âm	-260
▁ấy	-261
▁tất	-262
▁thì	-263
ôn	-264
▁hình	-265
▁đị	-266
▁y	-267
ìn	-268
▁đồ	-269
▁cuộc	-270
▁thu	-271
er	-272
▁lớn	-273
ẫn	-274
ọng	-275
▁theo	-276
▁cùng	-277
▁cười	-278
am	-279
ội	-280
▁bắt	-281
áo	-282
▁sinh	-283
iểm	-284
en	-285
▁câu	-286
▁cảm	-287
▁nhìn	-288
▁nhân	-289
òng	-290
▁sao	-291
▁do	-292
ánh	-293
▁cứ	-294
▁tin	-295
▁bằng	-296
ỗi	-297
▁thời	-298
▁cơ	-299
▁bản	-300
▁ngày	-301
▁trước	-302
▁qua	-303
▁lên	-304
ìm	-305
▁tới	-306
▁thay	-307
▁lu	-308
▁nước	-309
ục	-310
▁nơi	-311
▁năng	-312
▁chuyện	-313
▁tìm	-314
ảng	-315
▁đổi	-316
▁nghiệ	-317
▁toàn	-318
▁trở	-319
▁vấn	-320
ạt	-321
ảo	-322
▁tế	-323
▁dụng	-324
▁gia	-325
▁tiếng	-326
▁bộ	-327
▁nhau	-328
▁hã	-329
▁cô	-330
▁tu	-331
▁hệ	-332
ia	-333
▁phần	-334
▁tốt	-335
iệt	-336
▁kết	-337
áy	-338
▁phát	-339
ảnh	-340
▁xu	-341
▁dự	-342
▁thông	-343
▁định	-344
▁tính	-345
ấp	-346
ấu	-347
▁sử	-348
▁mạ	-349
ar	-350
▁hàng	-351
▁hành	-352
▁mới	-353
▁rồi	-354
▁tuy	-355
iển	-356
▁trường	-357
ăng	-358
▁vật	-359
▁hỏi	-360
▁tưởng	-361
▁ai	-362
▁nhiên	-363
▁di	-364
ảy	-365
áp	-366
ốc	-367
▁liệu	-368
▁hai	-369
▁lý	-370
▁mặt	-371
ách	-372
▁hãy	-373
▁đồng	-374
▁tiếp	-375
▁trình	-376
▁máy	-377
ợp	-378
▁hợp	-379
▁hoá	-380
▁vài	-381
ển	-382
▁hội	-383
ồn	-384
ắn	-385
▁gian	-386
▁trẻ	-387
▁trọng	-388
▁tay	-389
▁đều	-390
▁ảnh	-391
▁xem	-392
▁lượng	-393
iêu	-394
▁nữa	-395
im	-396
▁thức	-397
▁đối	-398
ệnh	-399
▁lần	-400
▁kinh	-401
▁vị	-402
▁bất	-403
ắng	-404
▁hiểu	-405
▁thường	-406
▁quá	-407
▁giải	-408
▁đo	-409
ạc	-410
▁ngo	-411
▁tiên	-412
▁thích	-413
▁giống	-414
▁chiế	-415
▁hoặc	-416
▁trung	-417
▁loại	-418
▁thiết	-419
ộng	-420
ễn	-421
▁điểm	-422
▁giả	-423
▁vi	-424
▁tâm	-425
ịch	-426
▁bệnh	-427
▁nghĩa	-428
úng	-429
▁cứu	-430
▁lúc	-431
▁bao	-432
▁thống	-433
▁đại	-434
▁mỗi	-435
êm	-436
▁3	-437
▁dùng	-438
▁tương	-439
ệt	-440
▁viên	-441
▁vẫn	-442
▁gọi	-443
▁nay	-444
al	-445
▁bà	-446
▁quả	-447
ọn	-448
▁hoàn	-449
▁sáng	-450
▁đưa	-451
úp	-452
▁nhỏ	-453
▁phụ	-454
▁xảy	-455
▁từng	-456
ẳng	-457
▁tổ	-458
▁đất	-459
▁nguy	-460
▁đường	-461
▁em	-462
▁nữ	-463
iền	-464
ám	-465
▁nghe	-466
▁giúp	-467
▁biệt	-468
▁lực	-469
ừng	-470
▁nghệ	-471
▁cố	-472
▁đúng	-473
▁quốc	-474
▁tác	-475
▁tình	-476
▁tuyệt	-477
▁nghiệm	-478
▁bên	-479
▁quyết	-480
or	-481
ứa	-482
▁chuyển	-483
ẩn	-484
▁dân	-485
▁chủ	-486
▁cầu	-487
▁chưa	-488
▁lời	-489
▁ăn	-490
▁truy	-491
▁cao	-492
▁khó	-493
▁chất	-494
uối	-495
▁trị	-496
▁bảo	-497
▁liên	-498
▁khoảng	-499
ầm	-500
▁tho	-501
óng	-502
▁dạ	-503
▁bây	-504
▁triển	-505
▁nghiên	-506
ão	-507
ợi	-508
ậu	-509
▁tiến	-510
▁tinh	-511
▁chiếc	-512
▁phí	-513
▁cá	-514
▁diễn	-515
▁khu	-516
▁giáo	-517
▁tập	-518
▁bé	-519
ướng	-520
▁yêu	-521
ắp	-522
▁phòng	-523
▁kế	-524
út	-525
ặp	-526
▁xuất	-527
▁gần	-528
es	-529
▁tuổi	-530
▁hết	-531
▁ngay	-532
▁loài	-533
▁giá	-534
▁biến	-535
ửa	-536
ép	-537
▁xe	-538
▁thuật	-539
▁cuối	-540
▁tượng	-541
▁so	-542
▁đơn	-543
ít	-544
▁phân	-545
▁khả	-546
▁mỹ	-547
ăm	-548
▁pháp	-549
▁giữa	-550
ưới	-551
▁bài	-552
ét	-553
▁điện	-554
▁sản	-555
el	-556
▁bình	-557
▁khí	-558
▁khoa	-559
▁truyền	-560
▁ba	-561
▁não	-562
▁thị	-563
▁bỏ	-564
▁trả	-565
▁thân	-566
▁ngoài	-567
▁đặt	-568
▁hiệu	-569
▁mất	-570
▁lấy	-571
óc	-572
▁chu	-573
▁bu	-574
▁mang	-575
▁chiến	-576
▁kể	-577
▁w	-578
▁chí	-579
▁mẹ	-580
▁tranh	-581
▁cộng	-582
is	-583
▁tiền	-584
iệm	-585
▁đáng	-586
▁đời	-587
óm	-588
▁kỳ	-589
▁a	-590
▁5	-591
▁thú	-592
et	-593
▁nghiệp	-594
ọc	-595
ạnh	-596
▁minh	-597
▁hoạt	-598
ừa	-599
▁trái	-600
▁quyền	-601
▁gh	-602
▁luôn	-603
▁tên	-604
▁sách	-605
▁trí	-606
ậm	-607
▁ít	-608
▁sức	-609
▁mạnh	-610
ẩm	-611
▁f	-612
▁tiêu	-613
▁tăng	-614
▁hướng	-615
▁tư	-616
▁xã	-617
▁chơi	-618
▁vô	-619
▁chọn	-620
▁bố	-621
▁j	-622
▁lập	-623
▁dẫn	-624
▁phương	-625
▁thử	-626
ấm	-627
▁ví	-628
▁bức	-629
▁4	-630
▁tử	-631
▁đấy	-632
▁văn	-633
▁đâu	-634
ạm	-635
▁chứng	-636
▁vụ	-637
▁tài	-638
▁đứa	-639
▁dù	-640
▁đặc	-641
uyết	-642
▁lẽ	-643
▁mô	-644
▁phi	-645
▁suy	-646
▁triệu	-647
▁xây	-648
ào	-649
▁kiến	-650
▁ứng	-651
▁âm	-652
▁khiến	-653
▁hô	-654
iếm	-655
▁gặp	-656
ic	-657
▁phố	-658
▁nguyên	-659
ầy	-660
▁mạng	-661
▁ngu	-662
▁cực	-663
▁vời	-664
▁viết	-665
▁nhóm	-666
at	-667
▁khỏi	-668
▁o	-669
▁chế	-670
▁vỗ	-671
▁cấp	-672
▁màu	-673
▁dữ	-674
▁nền	-675
▁dựng	-676
ẫu	-677
ạch	-678
ot	-679
▁chức	-680
▁rõ	-681
▁chết	-682
▁sĩ	-683
▁nhớ	-684
▁chắc	-685
▁cảnh	-686
▁20	-687
it	-688
ạp	-689
▁đạo	-690
▁cây	-691
▁chị	-692
ắm	-693
▁sát	-694
▁phẩm	-695
▁thêm	-696
▁thần	-697
ẹp	-698
▁dưới	-699
▁án	-700
▁đánh	-701
▁dịch	-702
▁xuống	-703
▁tháng	-704
▁cụ	-705
▁dễ	-706
▁xác	-707
▁quay	-708
▁phá	-709
▁ro	-710
▁càng	-711
▁báo	-712
▁quanh	-713
▁mở	-714
▁co	-715
▁giản	-716
il	-717
▁chẳng	-718
▁giác	-719
▁khá	-720
▁thậm	-721
▁hôm	-722
▁nhạc	-723
▁u	-724
as	-725
▁vọng	-726
ồng	-727
ủng	-728
▁mức	-729
▁phía	-730
▁đủ	-731
▁châu	-732
▁kì	-733
▁nhanh	-734
▁trò	-735
▁thuyết	-736
▁giảm	-737
▁vùng	-738
▁dài	-739
▁nguồn	-740
ua	-741
▁tục	-742
▁đôi	-743
▁duy	-744
▁cậu	-745
▁đàn	-746
ed	-747
▁phép	-748
▁gắng	-749
▁chút	-750
▁tham	-751
áu	-752
▁thương	-753
▁gây	-754
uốc	-755
▁an	-756
▁ngữ	-757
▁bước	-758
▁đình	-759
▁thuốc	-760
ựa	-761
▁trời	-762
▁ty	-763
▁phản	-764
▁chia	-765
▁hưởng	-766
▁19	-767
▁vực	-768
▁kiểm	-769
▁dạng	-770
▁lệ	-771
▁10	-772
▁phim	-773
ưu	-774
▁đẹp	-775
▁ri	-776
▁tồn	-777
▁vũ	-778
▁xa	-779
▁luận	-780
▁lai	-781
▁biểu	-782
êng	-783
▁vừa	-784
▁kiếm	-785
▁địa	-786
▁dục	-787
▁lợi	-788
▁bay	-789
▁thư	-790
âng	-791
▁tích	-792
▁mục	-793
▁hạn	-794
▁6	-795
▁trải	-796
▁hồi	-797
▁hộ	-798
▁trang	-799
ter	-800
▁kia	-801
▁da	-802
▁luật	-803
▁vòng	-804
▁đô	-805
▁toán	-806
▁giữ	-807
▁vệ	-808
▁in	-809
▁tỉ	-810
▁hu	-811
▁thôi	-812
ạy	-813
▁la	-814
ằm	-815
▁đoạn	-816
▁bào	-817
▁tối	-818
▁vu	-819
000	-820
ượt	-821
▁chi	-822
▁dành	-823
▁vẻ	-824
▁mã	-825
▁đoán	-826
▁đầy	-827
▁lòng	-828
▁phục	-829
▁sợ	-830
▁đứng	-831
▁giao	-832
▁nghi	-833
▁mắt	-834
us	-835
▁hầu	-836
▁thuộc	-837
▁nối	-838
▁trợ	-839
▁lịch	-840
▁thanh	-841
▁sâu	-842
▁phủ	-843
▁sai	-844
ra	-845
le	-846
iếu	-847
▁gái	-848
▁đọc	-849
ưỡ	-850
▁diện	-851
àu	-852
▁ngồi	-853
▁môi	-854
▁chương	-855
èo	-856
▁đạt	-857
▁xin	-858
iềm	-859
▁kiểu	-860
▁nam	-861
▁thái	-862
▁ngôn	-863
▁căn	-864
▁tạp	-865
▁lã	-866
▁dạy	-867
ro	-868
▁ca	-869
▁tuần	-870
▁rộng	-871
▁ơn	-872
▁mối	-873
▁riêng	-874
▁thiên	-875
▁biển	-876
▁chân	-877
▁7	-878
uốt	-879
▁trăm	-880
▁xúc	-881
▁thoại	-882
▁yếu	-883
▁lớp	-884
▁cửa	-885
▁ké	-886
▁khoẻ	-887
▁khủng	-888
▁thúc	-889
ặng	-890
▁vui	-891
▁lâu	-892
▁9	-893
▁lí	-894
▁vận	-895
▁bàn	-896
▁ánh	-897
▁viện	-898
▁đa	-899
▁chắn	-900
▁chạy	-901
▁khắp	-902
▁8	-903
▁áp	-904
▁e	-905
▁nổi	-906
ụp	-907
▁bán	-908
▁trúc	-909
▁trông	-910
▁trụ	-911
▁sở	-912
▁kỹ	-913
▁nhiệm	-914
▁chung	-915
▁i	-916
▁bác	-917
ol	-918
▁tiết	-919
ạng	-920
▁xét	-921
▁mặc	-922
▁kiện	-923
▁sư	-924
▁mẫu	-925
▁xung	-926
▁ban	-927
▁suốt	-928
▁buổi	-929
▁chịu	-930
▁thí	-931
▁mua	-932
▁tệ	-933
▁vâng	-934
▁kỷ	-935
▁cấu	-936
▁tổng	-937
▁mù	-938
ew	-939
▁lựa	-940
▁chứ	-941
▁sắc	-942
▁phút	-943
▁trưởng	-944
▁bóng	-945
▁chỗ	-946
ỏng	-947
ĩnh	-948
▁cạnh	-949
▁kẻ	-950
▁khám	-951
▁ràng	-952
▁kích	-953
ẵn	-954
▁st	-955
▁nằm	-956
oo	-957
▁nhập	-958
▁chống	-959
▁chuyên	-960
▁ấn	-961
▁100	-962
▁khăn	-963
ảm	-964
▁nạn	-965
▁tra	-966
▁doanh	-967
▁thập	-968
▁cổ	-969
▁xử	-970
ữu	-971
▁đội	-972
▁hữu	-973
▁hoa	-974
▁chuẩn	-975
ưỡng	-976
▁hiểm	-977
▁cung	-978
ếp	-979
▁gen	-980
▁sẻ	-981
▁hậu	-982
▁cuốn	-983
▁hơi	-984
▁sẵn	-985
▁phức	-986
▁toà	-987
▁xanh	-988
▁đau	-989
▁mong	-990
▁ngôi	-991
▁chữ	-992
▁dựa	-993
▁đen	-994
▁hy	-995
▁ghi	-996
▁độc	-997
▁ngành	-998
▁thiếu	-999
▁đông	-1000
and	-1001
▁thất	-1002
▁vượt	-1003
ad	-1004
▁ích	-1005
ac	-1006
▁ngạc	-1007
▁al	-1008
▁may	-1009
eb	-1010
ẩy	-1011
▁phạm	-1012
▁lắng	-1013
▁cánh	-1014
▁tức	-1015
ốn	-1016
▁sắp	-1017
▁xấu	-1018
id	-1019
▁dương	-1020
▁hoà	-1021
uôi	-1022
▁su	-1023
▁lạ	-1024
▁rob	-1025
▁hạt	-1026
▁khổ	-1027
▁nghèo	-1028
▁tim	-1029
▁trai	-1030
▁200	-1031
▁sang	-1032
▁khách	-1033
▁nhi	-1034
▁ô	-1035
ing	-1036
▁thách	-1037
▁hề	-1038
▁chụp	-1039
▁niệm	-1040
os	-1041
úi	-1042
ửi	-1043
▁tỷ	-1044
▁hạnh	-1045
uyên	-1046
▁tí	-1047
▁tái	-1048
▁15	-1049
▁trực	-1050
▁mi	-1051
▁thủ	-1052
▁cải	-1053
▁dần	-1054
▁đóng	-1055
ộn	-1056
▁nhờ	-1057
▁nhiêu	-1058
▁lưu	-1059
▁ngoại	-1060
▁nhiệt	-1061
▁thi	-1062
▁khắc	-1063
▁vẽ	-1064
▁tấm	-1065
▁dấu	-1066
▁tội	-1067
▁nỗi	-1068
▁ung	-1069
▁dung	-1070
ưng	-1071
▁xo	-1072
▁ngược	-1073
ốt	-1074
▁lỗi	-1075
▁đức	-1076
▁cha	-1077
▁hứng	-1078
▁nhiễ	-1079
▁phúc	-1080
▁quý	-1081
▁băng	-1082
▁hỗ	-1083
▁new	-1084
▁thẳng	-1085
▁ước	-1086
▁chăm	-1087
ồm	-1088
▁lạc	-1089
▁mắc	-1090
▁khán	-1091
▁đấu	-1092
om	-1093
▁chấp	-1094
▁ổ	-1095
▁cận	-1096
▁kính	-1097
▁kéo	-1098
▁nhu	-1099
▁tầm	-1100
▁30	-1101
▁hi	-1102
▁nửa	-1103
▁danh	-1104
▁thiện	-1105
▁gửi	-1106
▁đột	-1107
▁niềm	-1108
▁trạng	-1109
▁nuôi	-1110
▁hoạ	-1111
iệp	-1112
▁ẩn	-1113
▁tốc	-1114
▁tây	-1115
▁quản	-1116
▁bại	-1117
▁bầu	-1118
▁đẩy	-1119
▁chúa	-1120
▁ngủ	-1121
▁nhiễm	-1122
▁mơ	-1123
▁soát	-1124
▁robot	-1125
▁tàu	-1126
ón	-1127
▁lãnh	-1128
▁gồm	-1129
▁cử	-1130
ãi	-1131
▁bánh	-1132
▁nội	-1133
▁đừng	-1134
▁tôn	-1135
▁hại	-1136
▁khối	-1137
▁kỉ	-1138
▁đêm	-1139
▁thấp	-1140
▁chữa	-1141
▁niên	-1142
▁bạo	-1143
▁bắc	-1144
▁mật	-1145
▁quân	-1146
re	-1147
deo	-1148
▁rối	-1149
un	-1150
ặn	-1151
▁50	-1152
▁trừ	-1153
▁dòng	-1154
▁đá	-1155
▁video	-1156
▁cập	-1157
▁nông	-1158
▁lĩnh	-1159
net	-1160
▁cân	-1161
▁rừng	-1162
▁sàng	-1163
▁phóng	-1164
õi	-1165
▁gó	-1166
▁xếp	-1167
▁hoạch	-1168
▁cư	-1169
▁trách	-1170
▁tả	-1171
ri	-1172
▁thụ	-1173
▁giết	-1174
▁ted	-1175
▁tắc	-1176
▁bốn	-1177
▁lắm	-1178
▁đích	-1179
▁chiều	-1180
▁dừng	-1181
▁inter	-1182
▁vai	-1183
▁tận	-1184
▁khai	-1185
▁kĩ	-1186
▁lan	-1187
▁dây	-1188
▁đỡ	-1189
▁siêu	-1190
▁thải	-1191
▁tấn	-1192
▁ngàn	-1193
▁trắng	-1194
▁phong	-1195
▁sóc	-1196
▁giai	-1197
▁hà	-1198
▁lái	-1199
▁ma	-1200
▁dàng	-1201
ỉnh	-1202
▁tiện	-1203
ard	-1204
▁ngân	-1205
▁ngăn	-1206
▁12	-1207
▁âu	-1208
▁đợi	-1209
▁internet	-1210
▁sân	-1211
▁hồ	-1212
▁quen	-1213
▁ngờ	-1214
▁ngắn	-1215
▁chủng	-1216
▁khởi	-1217
▁bí	-1218
▁cáo	-1219
▁nhắc	-1220
ầng	-1221
▁thơ	-1222
▁tộc	-1223
▁lao	-1224
▁tù	-1225
▁chiếu	-1226
▁gấp	-1227
▁hút	-1228
▁tầng	-1229
▁xuyên	-1230
ine	-1231
▁đỏ	-1232
▁tai	-1233
▁đảm	-1234
lo	-1235
▁gắn	-1236
▁phổ	-1237
▁tín	-1238
▁ổn	-1239
èn	-1240
▁cháu	-1241
▁đổ	-1242
▁nghị	-1243
ur	-1244
▁cắt	-1245
▁sóng	-1246
ph	-1247
▁hấp	-1248
▁hát	-1249
ut	-1250
▁lá	-1251
▁màn	-1252
ork	-1253
▁đáp	-1254
òi	-1255
▁đem	-1256
▁dĩ	-1257
▁giấy	-1258
▁uống	-1259
▁luy	-1260
▁mê	-1261
ton	-1262
▁góc	-1263
▁lưới	-1264
▁mạch	-1265
▁khiển	-1266
▁nhảy	-1267
▁mar	-1268
▁chuyến	-1269
▁ảo	-1270
ah	-1271
▁luyện	-1272
▁cam	-1273
▁chờ	-1274
▁mái	-1275
ist	-1276
▁hộp	-1277
▁giây	-1278
▁chứa	-1279
▁chỉnh	-1280
▁25	-1281
▁can	-1282
▁nghiêm	-1283
▁ti	-1284
▁loạn	-1285
▁quyển	-1286
▁bọn	-1287
▁kê	-1288
▁rời	-1289
ấc	-1290
ẳn	-1291
ót	-1292
ill	-1293
▁sơ	-1294
▁buộc	-1295
▁nhật	-1296
▁thắng	-1297
▁máu	-1298
▁york	-1299
iếp	-1300
▁bang	-1301
ck	-1302
ey	-1303
▁hẳn	-1304
▁gốc	-1305
▁trao	-1306
ớm	-1307
▁đám	-1308
▁mẽ	-1309
▁buồn	-1310
▁trùng	-1311
▁phù	-1312
ẩu	-1313
▁mùa	-1314
▁khái	-1315
▁coi	-1316
ag	-1317
▁du	-1318
▁kí	-1319
▁web	-1320
▁tồi	-1321
ịp	-1322
▁tải	-1323
▁dầu	-1324
▁tránh	-1325
▁hạ	-1326
▁giàu	-1327
▁chạm	-1328
▁ký	-1329
▁à	-1330
▁mấy	-1331
▁ong	-1332
ran	-1333
▁áo	-1334
▁bày	-1335
▁huỷ	-1336
▁car	-1337
▁điên	-1338
▁18	-1339
ig	-1340
▁thoát	-1341
▁lầm	-1342
▁thảo	-1343
▁góp	-1344
▁nóng	-1345
▁miễn	-1346
▁trại	-1347
▁sửa	-1348
▁khuôn	-1349
▁phỏng	-1350
▁cỡ	-1351
▁linh	-1352
son	-1353
▁quên	-1354
▁tường	-1355
▁bề	-1356
▁nặng	-1357
▁vốn	-1358
▁giọng	-1359
▁phẫu	-1360
▁lửa	-1361
▁quỹ	-1362
▁dõi	-1363
▁ủng	-1364
▁đương	-1365
▁cũ	-1366
▁dậy	-1367
▁giỏi	-1368
▁môn	-1369
▁hảo	-1370
th	-1371
▁40	-1372
▁sớm	-1373
ềm	-1374
▁tờ	-1375
▁tuyến	-1376
na	-1377
▁tổn	-1378
ẹn	-1379
▁điển	-1380
▁hôn	-1381
▁lẫn	-1382
ọt	-1383
▁liệt	-1384
▁mắn	-1385
ab	-1386
▁mảnh	-1387
▁dưỡng	-1388
▁ok	-1389
▁giấc	-1390
▁đảo	-1391
▁tảng	-1392
▁trồng	-1393
▁mềm	-1394
▁vợ	-1395
▁trì	-1396
▁khổng	-1397
▁hoả	-1398
ie	-1399
▁quang	-1400
▁huy	-1401
▁lồ	-1402
▁phận	-1403
▁cơn	-1404
▁món	-1405
▁chóng	-1406
▁rơi	-1407
▁điệu	-1408
▁chiếm	-1409
▁chuột	-1410
▁núi	-1411
▁tô	-1412
st	-1413
▁ar	-1414
▁khoá	-1415
▁mu	-1416
▁chảy	-1417
▁đào	-1418
▁ru	-1419
ặm	-1420
▁rút	-1421
▁z	-1422
ùa	-1423
▁11	-1424
▁biên	-1425
▁hoảng	-1426
if	-1427
▁già	-1428
▁hài	-1429
▁hổ	-1430
▁đu	-1431
▁201	-1432
▁mời	-1433
▁cờ	-1434
▁vĩ	-1435
▁dường	-1436
▁san	-1437
▁đói	-1438
▁khích	-1439
▁tắt	-1440
ein	-1441
▁đỉnh	-1442
▁ống	-1443
▁tách	-1444
ex	-1445
▁ồ	-1446
▁am	-1447
▁chuỗi	-1448
ow	-1449
▁hãi	-1450
▁vàng	-1451
▁lộ	-1452
▁lạnh	-1453
▁jo	-1454
▁sh	-1455
▁mãi	-1456
▁khuẩn	-1457
▁chim	-1458
▁vững	-1459
▁kim	-1460
▁suất	-1461
▁cà	-1462
▁bữa	-1463
▁chào	-1464
▁vỡ	-1465
▁đèn	-1466
▁tốn	-1467
▁nghỉ	-1468
▁thừa	-1469
▁lặp	-1470
▁kịch	-1471
▁bè	-1472
▁quảng	-1473
▁chó	-1474
▁bảng	-1475
▁quần	-1476
▁sông	-1477
▁tiểu	-1478
▁thưởng	-1479
▁chậm	-1480
▁bi	-1481
▁goo	-1482
▁chàng	-1483
▁phiên	-1484
▁tàn	-1485
▁trận	-1486
▁hào	-1487
▁ngài	-1488
▁ghế	-1489
▁khứ	-1490
▁lương	-1491
▁chồng	-1492
▁lối	-1493
▁nghìn	-1494
▁nắm	-1495
▁vân	-1496
▁xương	-1497
gh	-1498
▁dặm	-1499
ev	-1500
um	-1501
▁cầm	-1502
▁thịt	-1503
▁nổ	-1504
▁sáu	-1505
▁tiềm	-1506
▁thai	-1507
ứt	-1508
ent	-1509
▁pr	-1510
▁diệu	-1511
▁đế	-1512
▁đẳng	-1513
▁bụ	-1514
▁hiển	-1515
▁ngừng	-1516
op	-1517
▁sạch	-1518
ord	-1519
▁60	-1520
▁chấm	-1521
ak	-1522
▁sót	-1523
▁đuổi	-1524
gle	-1525
▁vo	-1526
ủi	-1527
ip	-1528
▁sa	-1529
ãn	-1530
▁khoản	-1531
▁cu	-1532
▁bền	-1533
▁thở	-1534
▁nhé	-1535
▁thuỷ	-1536
▁kháng	-1537
▁google	-1538
▁bật	-1539
▁lục	-1540
▁khoảnh	-1541
▁gợi	-1542
▁nghề	-1543
ly	-1544
▁phối	-1545
▁tật	-1546
▁mũ	-1547
▁nỗ	-1548
▁lỗ	-1549
▁ngại	-1550
▁thước	-1551
▁ưu	-1552
▁ad	-1553
▁viễn	-1554
ựng	-1555
▁sánh	-1556
▁nguyện	-1557
ber	-1558
▁khuy	-1559
▁hắn	-1560
▁túi	-1561
▁tụ	-1562
▁cal	-1563
▁doạ	-1564
▁giám	-1565
ậc	-1566
▁80	-1567
▁bờ	-1568
▁thăm	-1569
▁thuận	-1570
▁né	-1571
▁vir	-1572
▁trầm	-1573
ul	-1574
▁dã	-1575
▁bậc	-1576
▁chặt	-1577
ris	-1578
▁kém	-1579
est	-1580
▁phê	-1581
▁lọc	-1582
▁nhẹ	-1583
▁thảm	-1584
▁thuy	-1585
▁đăng	-1586
▁họp	-1587
▁phấn	-1588
▁lũ	-1589
▁nâng	-1590
▁làng	-1591
ec	-1592
▁gió	-1593
▁xoay	-1594
▁thuyền	-1595
▁thiệu	-1596
bon	-1597
▁sốt	-1598
ìa	-1599
▁cú	-1600
▁vỏ	-1601
▁rác	-1602
▁đoàn	-1603
▁tròn	-1604
ian	-1605
▁loạt	-1606
▁đằng	-1607
▁tan	-1608
▁chặn	-1609
▁0	-1610
man	-1611
▁thang	-1612
ell	-1613
▁ghép	-1614
▁đe	-1615
▁súng	-1616
ươi	-1617
▁tán	-1618
▁thoải	-1619
eg	-1620
▁li	-1621
▁cứng	-1622
▁lược	-1623
▁xứng	-1624
▁hùng	-1625
▁thoả	-1626
one	-1627
▁gam	-1628
▁hải	-1629
▁nhựa	-1630
▁khảo	-1631
▁kiệm	-1632
▁nhuận	-1633
▁móc	-1634
▁dị	-1635
▁thù	-1636
▁đảng	-1637
▁cản	-1638
▁tuệ	-1639
▁voi	-1640
▁đựng	-1641
▁đùa	-1642
ash	-1643
▁trống	-1644
▁tị	-1645
▁ngang	-1646
ườn	-1647
▁huống	-1648
▁ác	-1649
▁sợi	-1650
▁thao	-1651
io	-1652
▁14	-1653
▁khía	-1654
ry	-1655
▁bò	-1656
▁and	-1657
▁the	-1658
▁vết	-1659
▁nhắn	-1660
▁lành	-1661
ớt	-1662
▁chán	-1663
▁16	-1664
▁căng	-1665
▁trưng	-1666
iệng	-1667
▁bơi	-1668
▁trào	-1669
ưỡi	-1670
▁70	-1671
▁mai	-1672
▁điệp	-1673
ói	-1674
▁dna	-1675
▁tuyên	-1676
iếng	-1677
▁mây	-1678
▁mại	-1679
▁miệng	-1680
▁cặp	-1681
▁đòi	-1682
istan	-1683
▁199	-1684
▁rủi	-1685
▁rẻ	-1686
▁săn	-1687
▁ngẫu	-1688
▁diệt	-1689
▁lặng	-1690
▁13	-1691
▁90	-1692
▁đập	-1693
▁nhịp	-1694
ff	-1695
az	-1696
▁hẹn	-1697
▁tri	-1698
▁chối	-1699
▁yo	-1700
▁lãng	-1701
▁mừng	-1702
▁ngoái	-1703
▁dối	-1704
orn	-1705
▁yên	-1706
co	-1707
▁br	-1708
▁cục	-1709
▁tỏ	-1710
éo	-1711
▁đam	-1712
▁phán	-1713
▁hoang	-1714
▁khẩu	-1715
ĩa	-1716
▁17	-1717
▁ox	-1718
▁bối	-1719
ick	-1720
ver	-1721
▁is	-1722
▁bảy	-1723
▁che	-1724
▁tàng	-1725
▁đống	-1726
▁vú	-1727
▁mùi	-1728
▁thờ	-1729
▁lễ	-1730
ds	-1731
ớp	-1732
▁lắp	-1733
▁tw	-1734
▁hiệp	-1735
ack	-1736
▁ám	-1737
▁hoàng	-1738
ir	-1739
▁bổ	-1740
▁ức	-1741
▁trích	-1742
sh	-1743
▁cong	-1744
▁thánh	-1745
▁trứng	-1746
▁sổ	-1747
▁trữ	-1748
▁đạp	-1749
▁vong	-1750
ke	-1751
▁nơ	-1752
▁tóc	-1753
▁hỗn	-1754
▁huấn	-1755
▁nhằm	-1756
▁thận	-1757
▁giận	-1758
hn	-1759
0000	-1760
▁bãi	-1761
▁song	-1762
enn	-1763
ess	-1764
▁ghét	-1765
▁thấu	-1766
▁sc	-1767
▁cãi	-1768
▁xâm	-1769
▁giảng	-1770
▁gương	-1771
▁rượ	-1772
▁kêu	-1773
▁rượu	-1774
era	-1775
▁bra	-1776
▁răng	-1777
▁thác	-1778
▁thuê	-1779
ob	-1780
ùi	-1781
ook	-1782
▁el	-1783
▁ly	-1784
▁thiểu	-1785
att	-1786
▁cỏ	-1787
▁im	-1788
▁táo	-1789
all	-1790
▁hè	-1791
▁hồn	-1792
▁mập	-1793
▁khấu	-1794
▁bom	-1795
▁béo	-1796
▁fac	-1797
▁nút	-1798
▁thầy	-1799
▁ngưỡng	-1800
▁sỹ	-1801
▁côn	-1802
▁đài	-1803
▁prot	-1804
▁khiếp	-1805
▁xạ	-1806
▁khỉ	-1807
èm	-1808
▁khung	-1809
▁21	-1810
▁cl	-1811
▁tá	-1812
▁thợ	-1813
▁hứa	-1814
▁mét	-1815
▁mực	-1816
▁par	-1817
▁xoá	-1818
▁ngọn	-1819
▁vườn	-1820
▁lính	-1821
ore	-1822
▁rập	-1823
▁rắc	-1824
▁tóm	-1825
▁2000	-1826
▁biện	-1827
▁xong	-1828
úa	-1829
don	-1830
▁mò	-1831
▁đĩa	-1832
▁fran	-1833
ion	-1834
▁chợ	-1835
▁cỗ	-1836
▁gã	-1837
▁túc	-1838
▁đốt	-1839
▁hiếm	-1840
▁khát	-1841
▁hiv	-1842
▁liền	-1843
pp	-1844
▁rồ	-1845
▁cột	-1846
▁lộn	-1847
▁tỉnh	-1848
▁khuyến	-1849
la	-1850
▁kẹ	-1851
▁heo	-1852
▁game	-1853
▁dày	-1854
▁mạo	-1855
▁pin	-1856
▁john	-1857
▁trôi	-1858
▁virus	-1859
▁ả	-1860
▁ron	-1861
▁chép	-1862
▁đố	-1863
▁tạm	-1864
▁miếng	-1865
ail	-1866
▁bắn	-1867
▁cám	-1868
▁tia	-1869
▁mĩ	-1870
▁thả	-1871
▁tràn	-1872
▁cường	-1873
▁198	-1874
▁har	-1875
▁lừa	-1876
▁trốn	-1877
▁thượng	-1878
▁le	-1879
▁óc	-1880
▁đón	-1881
▁lẻ	-1882
▁chris	-1883
▁af	-1884
▁bạc	-1885
▁nan	-1886
ebook	-1887
▁facebook	-1888
50	-1889
ge	-1890
▁á	-1891
▁bl	-1892
ce	-1893
▁mo	-1894
▁thạch	-1895
ãng	-1896
ne	-1897
ướt	-1898
▁va	-1899
▁đốc	-1900
▁dọc	-1901
▁phạt	-1902
▁ấm	-1903
▁mũi	-1904
▁tám	-1905
▁quán	-1906
▁đếm	-1907
ers	-1908
▁gà	-1909
▁cốt	-1910
▁nhỉ	-1911
▁nấm	-1912
▁triết	-1913
▁trăng	-1914
▁bó	-1915
▁mạc	-1916
▁gọn	-1917
▁sụp	-1918
▁gỗ	-1919
▁mộ	-1920
▁cháy	-1921
▁lưng	-1922
▁lỏng	-1923
▁than	-1924
be	-1925
ud	-1926
▁xưa	-1927
▁kiên	-1928
▁nhấn	-1929
▁phiếu	-1930
▁sp	-1931
▁nha	-1932
▁tuỳ	-1933
▁ngón	-1934
land	-1935
▁chốt	-1936
▁hằng	-1937
▁tò	-1938
▁geo	-1939
▁ồn	-1940
▁1000	-1941
▁mát	-1942
▁mèo	-1943
ỗng	-1944
▁mãn	-1945
▁hiến	-1946
▁truyện	-1947
ath	-1948
▁500	-1949
▁dinh	-1950
▁24	-1951
▁leo	-1952
▁thổ	-1953
▁hương	-1954
eet	-1955
▁bạch	-1956
▁giam	-1957
▁khóc	-1958
▁giành	-1959
▁thoảng	-1960
▁đua	-1961
ik	-1962
▁lệch	-1963
▁chừng	-1964
▁mic	-1965
▁nấu	-1966
▁tuý	-1967
ornia	-1968
▁thẩm	-1969
▁calif	-1970
iệc	-1971
▁lò	-1972
▁cẩn	-1973
▁mưa	-1974
ta	-1975
▁ép	-1976
▁đáy	-1977
▁ngầm	-1978
▁tuyển	-1979
ve	-1980
ượn	-1981
▁dâm	-1982
▁giấu	-1983
▁california	-1984
ep	-1985
▁trộn	-1986
▁bùng	-1987
▁khuyên	-1988
▁mì	-1989
▁tv	-1990
▁ôi	-1991
▁cấy	-1992
▁nhạy	-1993
▁trấn	-1994
ara	-1995
▁sữa	-1996
▁rưỡi	-1997
▁tiệc	-1998
▁huyết	-1999
▁dãy	-2000
▁hối	-2001
▁đắt	-2002
ma	-2003
▁gene	-2004
▁tĩnh	-2005
▁thuần	-2006
log	-2007
▁ngũ	-2008
▁miêu	-2009
▁quái	-2010
▁thuỵ	-2011
ẫy	-2012
▁cự	-2013
▁đà	-2014
▁nghiện	-2015
ớn	-2016
ada	-2017
▁ném	-2018
▁buôn	-2019
▁khớp	-2020
▁miền	-2021
ans	-2022
▁đắn	-2023
▁tháp	-2024
▁tiêm	-2025
▁trượt	-2026
▁nét	-2027
▁quê	-2028
▁rào	-2029
▁chai	-2030
▁tặng	-2031
▁protein	-2032
▁be	-2033
▁bụi	-2034
▁khô	-2035
▁ngã	-2036
▁bụng	-2037
▁lệnh	-2038
▁thỉnh	-2039
eth	-2040
▁bão	-2041
▁lặn	-2042
ok	-2043
pe	-2044
▁ed	-2045
▁197	-2046
▁ninh	-2047
▁thuế	-2048
▁thính	-2049
ya	-2050
▁hư	-2051
▁thọ	-2052
▁ngựa	-2053
▁sy	-2054
▁col	-2055
▁mày	-2056
▁phó	-2057
▁binh	-2058
▁mười	-2059
ina	-2060
▁gỡ	-2061
▁cấm	-2062
ico	-2063
eria	-2064
▁nga	-2065
itter	-2066
▁manh	-2067
sa	-2068
ẫm	-2069
▁thiệp	-2070
▁na	-2071
▁lon	-2072
▁vinh	-2073
▁ham	-2074
▁hoại	-2075
▁tung	-2076
▁phiền	-2077
▁giày	-2078
▁trục	-2079
oc	-2080
zil	-2081
▁uy	-2082
▁gấu	-2083
▁đậu	-2084
▁hồng	-2085
▁tiếc	-2086
▁or	-2087
▁rét	-2088
ýt	-2089
utu	-2090
▁ab	-2091
▁cụm	-2092
▁long	-2093
▁email	-2094
▁ơi	-2095
▁đớn	-2096
▁thưa	-2097
▁brazil	-2098
▁twitter	-2099
▁dò	-2100
▁ber	-2101
▁vua	-2102
▁đeo	-2103
art	-2104
ide	-2105
▁wh	-2106
▁hàn	-2107
▁blog	-2108
▁dáng	-2109
▁ngốc	-2110
▁quãng	-2111
▁ha	-2112
▁afgh	-2113
▁mệnh	-2114
▁phổi	-2115
▁vuông	-2116
▁nghịch	-2117
ùm	-2118
ụt	-2119
ênh	-2120
▁mệt	-2121
anistan	-2122
▁giường	-2123
▁cốc	-2124
▁chẩn	-2125
▁kênh	-2126
▁nhắm	-2127
▁lường	-2128
▁carbon	-2129
ama	-2130
ron	-2131
▁mờ	-2132
▁nợ	-2133
▁oh	-2134
▁dao	-2135
▁hàm	-2136
▁ken	-2137
▁lâm	-2138
▁nig	-2139
▁hạng	-2140
▁khao	-2141
▁lang	-2142
▁trạm	-2143
▁khuyết	-2144
▁ạ	-2145
▁300	-2146
▁hò	-2147
▁mon	-2148
▁hỏng	-2149
▁liều	-2150
▁nô	-2151
▁196	-2152
▁kèm	-2153
▁chín	-2154
▁khôn	-2155
ana	-2156
ett	-2157
vid	-2158
▁bếp	-2159
▁dứt	-2160
▁nhũng	-2161
ka	-2162
ox	-2163
▁lõi	-2164
▁mỏi	-2165
▁nhẫn	-2166
▁trần	-2167
ẻo	-2168
ằn	-2169
▁bận	-2170
▁ngon	-2171
▁ngập	-2172
ington	-2173
▁tuyết	-2174
▁canada	-2175
ộm	-2176
▁kín	-2177
▁bông	-2178
ướp	-2179
▁de	-2180
▁mẩu	-2181
▁mồi	-2182
▁oxy	-2183
▁lượt	-2184
▁ruồi	-2185
▁thằng	-2186
▁afghanistan	-2187
▁35	-2188
▁xí	-2189
▁pet	-2190
stein	-2191
▁adn	-2192
▁gói	-2193
▁quà	-2194
ood	-2195
▁chìm	-2196
▁dính	-2197
▁dược	-2198
▁thám	-2199
ib	-2200
▁tơ	-2201
▁bar	-2202
▁chấn	-2203
▁giơ	-2204
▁lạm	-2205
▁nảy	-2206
▁tắm	-2207
▁xóm	-2208
▁lông	-2209
▁mich	-2210
▁quét	-2211
yl	-2212
▁nở	-2213
▁rẽ	-2214
▁tân	-2215
▁lướt	-2216
▁chăng	-2217
▁london	-2218
iz	-2219
▁chà	-2220
▁log	-2221
▁dũng	-2222
▁trưa	-2223
▁10000	-2224
od	-2225
pt	-2226
ợn	-2227
ind	-2228
▁sàn	-2229
▁vây	-2230
▁at	-2231
▁dán	-2232
▁lão	-2233
▁man	-2234
▁nho	-2235
▁gián	-2236
▁thói	-2237
▁camera	-2238
ft	-2239
ere	-2240
▁bột	-2241
▁dám	-2242
▁lãm	-2243
▁lôi	-2244
▁geor	-2245
▁nàng	-2246
me	-2247
▁fl	-2248
▁cậy	-2249
▁cởi	-2250
▁bill	-2251
▁ranh	-2252
▁stev	-2253
▁thổi	-2254
ith	-2255
▁vở	-2256
▁úc	-2257
▁mẻ	-2258
▁bro	-2259
▁lùi	-2260
▁pau	-2261
▁ngoan	-2262
ler	-2263
ria	-2264
▁ga	-2265
▁làn	-2266
▁rãi	-2267
▁quát	-2268
▁micro	-2269
ca	-2270
▁bọ	-2271
▁sứ	-2272
▁400	-2273
▁ira	-2274
▁kẹt	-2275
so	-2276
ect	-2277
▁bớt	-2278
▁tha	-2279
▁thẻ	-2280
▁đâm	-2281
▁thịnh	-2282
▁en	-2283
▁khoan	-2284
ort	-2285
▁mạn	-2286
▁châm	-2287
▁david	-2288
▁ư	-2289
▁com	-2290
▁cất	-2291
▁dar	-2292
▁dọn	-2293
▁lây	-2294
▁vắc	-2295
▁đực	-2296
▁tươi	-2297
▁wash	-2298
▁thuẫn	-2299
▁thăng	-2300
▁nigeria	-2301
asa	-2302
▁dư	-2303
▁mỏ	-2304
▁lăn	-2305
▁rửa	-2306
▁ưa	-2307
▁dải	-2308
▁mâu	-2309
erson	-2310
▁ngực	-2311
▁nhện	-2312
▁xinh	-2313
▁khẳng	-2314
▁hố	-2315
▁pm	-2316
▁rũ	-2317
▁23	-2318
▁jam	-2319
▁lấp	-2320
▁pha	-2321
▁sốc	-2322
▁cướp	-2323
▁phẳng	-2324
▁ừ	-2325
▁cát	-2326
▁dan	-2327
▁dàn	-2328
▁toả	-2329
▁thua	-2330
ợt	-2331
▁kịp	-2332
▁rắn	-2333
▁chìa	-2334
▁phái	-2335
▁trắc	-2336
▁quyến	-2337
▁gõ	-2338
▁tủ	-2339
anda	-2340
▁bia	-2341
▁cúm	-2342
▁gre	-2343
▁hòn	-2344
▁hệt	-2345
▁lát	-2346
utube	-2347
▁aids	-2348
▁nhầm	-2349
▁ruột	-2350
▁đoan	-2351
▁khiếm	-2352
▁youtube	-2353
und	-2354
▁je	-2355
▁mồ	-2356
▁ốc	-2357
▁ang	-2358
▁ngắm	-2359
▁lề	-2360
▁sạn	-2361
▁thiệt	-2362
▁45	-2363
▁bơ	-2364
▁cr	-2365
▁hoài	-2366
▁nhãn	-2367
▁washington	-2368
▁km	-2369
▁mc	-2370
▁bos	-2371
▁hẹp	-2372
▁say	-2373
▁tuân	-2374
ộp	-2375
ain	-2376
▁phú	-2377
▁thô	-2378
lu	-2379
ert	-2380
ley	-2381
lin	-2382
▁bút	-2383
▁ein	-2384
▁men	-2385
▁đới	-2386
▁iraq	-2387
▁ngọt	-2388
▁franc	-2389
▁lưỡng	-2390
ica	-2391
les	-2392
▁đẻ	-2393
ford	-2394
▁dắt	-2395
▁muộn	-2396
▁sung	-2397
he	-2398
se	-2399
te	-2400
ươn	-2401
▁ne	-2402
▁no	-2403
▁pl	-2404
▁mit	-2405
▁sam	-2406
▁ser	-2407
▁tần	-2408
▁van	-2409
▁khơi	-2410
▁einstein	-2411
ốm	-2412
ite	-2413
▁gu	-2414
rael	-2415
▁israel	-2416
▁mex	-2417
▁mấu	-2418
▁đai	-2419
▁amaz	-2420
▁chúc	-2421
▁nướng	-2422
▁rễ	-2423
▁sw	-2424
▁chục	-2425
▁mảng	-2426
▁tông	-2427
▁thùng	-2428
ap	-2429
ếch	-2430
▁sl	-2431
▁000	-2432
▁cựu	-2433
▁lin	-2434
▁nat	-2435
▁phì	-2436
▁rau	-2437
▁feet	-2438
▁địch	-2439
▁75	-2440
▁99	-2441
▁đồi	-2442
▁cưới	-2443
▁iran	-2444
▁ngừa	-2445
▁đuôi	-2446
▁mexico	-2447
ba	-2448
lad	-2449
▁au	-2450
▁bo	-2451
▁bọc	-2452
▁tam	-2453
▁amazon	-2454
ger	-2455
▁22	-2456
▁her	-2457
▁mil	-2458
▁mỏng	-2459
▁nọ	-2460
▁ván	-2461
▁wal	-2462
▁cưỡng	-2463
ney	-2464
▁ni	-2465
▁lạp	-2466
▁hước	-2467
▁nắng	-2468
▁paul	-2469
▁thôn	-2470
▁thắc	-2471
▁vang	-2472
▁francis	-2473
én	-2474
▁ben	-2475
▁hầm	-2476
▁str	-2477
▁vươn	-2478
ham	-2479
per	-2480
▁of	-2481
▁app	-2482
▁cac	-2483
▁hét	-2484
▁sơn	-2485
▁tảo	-2486
▁vòi	-2487
▁đạn	-2488
▁kiệt	-2489
▁chước	-2490
▁po	-2491
▁lật	-2492
▁sắt	-2493
▁rich	-2494
▁kenya	-2495
ate	-2496
ice	-2497
vard	-2498
▁chả	-2499
▁xám	-2500
▁hung	-2501
▁hãng	-2502
▁treo	-2503
▁trân	-2504
tin	-2505
▁tôm	-2506
▁muỗi	-2507
da	-2508
ram	-2509
▁dốc	-2510
▁non	-2511
▁pro	-2512
▁nano	-2513
▁trật	-2514
ky	-2515
▁sm	-2516
▁bon	-2517
▁bám	-2518
▁phím	-2519
▁trộm	-2520
òm	-2521
▁chở	-2522
▁scot	-2523
▁vĩnh	-2524
▁vương	-2525
bi	-2526
dp	-2527
▁ki	-2528
wood	-2529
▁nhặt	-2530
ct	-2531
hi	-2532
▁150	-2533
▁gan	-2534
▁gdp	-2535
▁hãm	-2536
▁màng	-2537
▁nhiếp	-2538
▁bù	-2539
▁tê	-2540
▁lợn	-2541
▁mầm	-2542
▁nốt	-2543
▁sôi	-2544
▁vẹn	-2545
▁chua	-2546
▁hạch	-2547
▁rung	-2548
▁xăng	-2549
vi	-2550
▁dạo	-2551
▁gol	-2552
▁los	-2553
▁rad	-2554
▁tao	-2555
▁tựa	-2556
▁char	-2557
▁nasa	-2558
▁việt	-2559
▁quyên	-2560
▁bồ	-2561
▁cừ	-2562
▁he	-2563
▁bướ	-2564
▁hen	-2565
▁nhở	-2566
▁nén	-2567
▁alex	-2568
mo	-2569
ali	-2570
ose	-2571
rop	-2572
▁ốm	-2573
▁cắm	-2574
▁sil	-2575
▁khúc	-2576
▁lùng	-2577
▁angel	-2578
ss	-2579
ago	-2580
bur	-2581
▁pal	-2582
▁trú	-2583
phone	-2584
▁hang	-2585
▁tháo	-2586
ll	-2587
xit	-2588
▁er	-2589
▁on	-2590
▁bìa	-2591
▁chôn	-2592
▁gánh	-2593
▁lũng	-2594
▁cuồng	-2595
▁nhàng	-2596
▁george	-2597
den	-2598
ile	-2599
ren	-2600
▁uỷ	-2601
▁cạn	-2602
▁gạch	-2603
▁tràng	-2604
▁cacbon	-2605
▁se	-2606
▁bội	-2607
▁nát	-2608
▁ráp	-2609
▁đền	-2610
▁đợt	-2611
▁trừu	-2612
▁huynh	-2613
▁nhánh	-2614
▁syria	-2615
▁thung	-2616
by	-2617
lly	-2618
▁te	-2619
▁đan	-2620
▁thâm	-2621
▁thoái	-2622
▁tướng	-2623
▁bá	-2624
▁buýt	-2625
▁lồng	-2626
▁vịnh	-2627
▁duyệt	-2628
ễu	-2629
▁mỉ	-2630
▁un	-2631
▁bẩn	-2632
▁cai	-2633
▁đáo	-2634
▁khoái	-2635
▁lờ	-2636
▁si	-2637
ward	-2638
▁bấy	-2639
▁hyd	-2640
▁sal	-2641
▁tom	-2642
▁ven	-2643
▁đàm	-2644
▁james	-2645
▁steve	-2646
▁trừng	-2647
▁♪	-2648
▁27	-2649
▁lau	-2650
▁bong	-2651
▁bỗng	-2652
▁khói	-2653
▁thầm	-2654
▁will	-2655
▁ob	-2656
bert	-2657
▁vứt	-2658
▁xích	-2659
▁huyền	-2660
win	-2661
▁es	-2662
▁đẽ	-2663
heim	-2664
▁bắp	-2665
▁cống	-2666
▁hiếp	-2667
▁nghiệt	-2668
▁francisco	-2669
li	-2670
▁us	-2671
▁cối	-2672
▁trà	-2673
▁cuộn	-2674
▁lánh	-2675
▁mượn	-2676
▁thép	-2677
▁logic	-2678
▁richard	-2679
ov	-2680
za	-2681
ụng	-2682
edia	-2683
▁mòn	-2684
▁vải	-2685
ald	-2686
▁ag	-2687
▁dở	-2688
▁hít	-2689
▁hôi	-2690
▁mọc	-2691
▁ngừ	-2692
▁nản	-2693
▁quỷ	-2694
▁mark	-2695
ast	-2696
kin	-2697
ola	-2698
▁as	-2699
▁mổ	-2700
▁bơm	-2701
▁gối	-2702
▁nhị	-2703
▁pat	-2704
▁chăn	-2705
og	-2706
bia	-2707
iel	-2708
ish	-2709
iss	-2710
▁65	-2711
▁194	-2712
▁hưu	-2713
▁luỹ	-2714
▁nêu	-2715
▁vay	-2716
▁chợt	-2717
▁giãn	-2718
▁phông	-2719
▁boston	-2720
▁stress	-2721
▁anderson	-2722
wn	-2723
ael	-2724
ens	-2725
▁đỗ	-2726
▁quí	-2727
▁tựu	-2728
▁cent	-2729
▁khôi	-2730
▁giáng	-2731
▁obama	-2732
20	-2733
ti	-2734
▁q	-2735
▁lơ	-2736
▁chẽ	-2737
▁cừu	-2738
▁củng	-2739
▁mộng	-2740
▁thắt	-2741
▁apple	-2742
▁khiêm	-2743
▁slide	-2744
▁harvard	-2745
▁–	-2746
▁bê	-2747
▁xô	-2748
▁dẻo	-2749
▁mộc	-2750
▁súc	-2751
▁sưu	-2752
▁cổng	-2753
▁luân	-2754
▁khiêu	-2755
▁chuyền	-2756
ts	-2757
ity	-2758
▁ac	-2759
▁ii	-2760
▁pol	-2761
▁xíu	-2762
▁phun	-2763
heimer	-2764
▁triệt	-2765
30	-2766
▁lỡ	-2767
▁nụ	-2768
line	-2769
▁600	-2770
▁alz	-2771
▁dịp	-2772
▁dội	-2773
▁hụt	-2774
▁múa	-2775
▁ngớ	-2776
▁giật	-2777
▁nồng	-2778
▁100000	-2779
▁chuông	-2780
are	-2781
esh	-2782
▁26	-2783
▁eu	-2784
▁ôm	-2785
▁cắp	-2786
▁xôi	-2787
▁ngẩn	-2788
▁alzheimer	-2789
ps	-2790
▁xỉ	-2791
▁ái	-2792
▁kìa	-2793
▁lat	-2794
▁per	-2795
▁vụn	-2796
▁2009	-2797
▁green	-2798
▁phiêu	-2799
▁vượng	-2800
▁re	-2801
▁ấu	-2802
▁kẹo	-2803
▁phe	-2804
▁wik	-2805
▁đậm	-2806
▁muối	-2807
pi	-2808
ũi	-2809
▁vé	-2810
▁sah	-2811
▁lăng	-2812
▁phác	-2813
▁vạch	-2814
ale	-2815
ờng	-2816
▁36	-2817
▁vờ	-2818
▁ghê	-2819
▁hóc	-2820
icago	-2821
▁2010	-2822
▁5000	-2823
▁giọt	-2824
▁rỗng	-2825
▁angeles	-2826
▁chicago	-2827
mon	-2828
van	-2829
▁bg	-2830
▁bực	-2831
▁cay	-2832
▁cáp	-2833
▁don	-2834
▁tre	-2835
ester	-2836
▁axit	-2837
▁canh	-2838
▁ngẫm	-2839
▁star	-2840
▁radio	-2841
▁32	-2842
▁đệ	-2843
soft	-2844
▁bẫy	-2845
▁pho	-2846
▁ros	-2847
▁khẩn	-2848
▁mary	-2849
▁trán	-2850
▁times	-2851
▁darwin	-2852
▁iphone	-2853
int	-2854
▁cm	-2855
▁bóc	-2856
▁bốc	-2857
▁cài	-2858
▁gal	-2859
▁mến	-2860
▁qui	-2861
▁sch	-2862
▁bách	-2863
▁hoãn	-2864
▁rock	-2865
▁frank	-2866
bb	-2867
dy	-2868
ium	-2869
▁xà	-2870
▁gra	-2871
▁gũi	-2872
▁nạp	-2873
▁pak	-2874
▁2008	-2875
▁bướm	-2876
▁chọc	-2877
▁ngưng	-2878
▁khuynh	-2879
▁microsoft	-2880
ary	-2881
ass	-2882
ner	-2883
ust	-2884
▁go	-2885
▁vả	-2886
▁xứ	-2887
▁lận	-2888
▁nor	-2889
▁nàn	-2890
▁sáo	-2891
▁trễ	-2892
▁đạc	-2893
ander	-2894
▁king	-2895
▁mươi	-2896
▁tiễn	-2897
▁tạng	-2898
▁cương	-2899
bo	-2900
▁eth	-2901
▁hel	-2902
▁jim	-2903
▁jon	-2904
▁rèn	-2905
▁vạn	-2906
▁war	-2907
▁đuối	-2908
▁robert	-2909
aw	-2910
uth	-2911
▁my	-2912
icon	-2913
rist	-2914
▁bur	-2915
▁bấm	-2916
▁ceo	-2917
▁dis	-2918
▁lắc	-2919
▁tex	-2920
▁đốm	-2921
▁khéo	-2922
▁nhạt	-2923
▁viêm	-2924
▁điêu	-2925
▁hydro	-2926
▁paris	-2927
▁triều	-2928
▁michael	-2929
▁pakistan	-2930
ari	-2931
ino	-2932
ock	-2933
▁ip	-2934
▁xi	-2935
▁tel	-2936
▁nhấp	-2937
▁soạn	-2938
▁xuân	-2939
mas	-2940
ony	-2941
uck	-2942
▁xế	-2943
opia	-2944
▁gom	-2945
▁lúa	-2946
▁mốc	-2947
▁tím	-2948
ation	-2949
▁flor	-2950
▁móng	-2951
▁sand	-2952
▁holly	-2953
▁sướng	-2954
ld	-2955
lan	-2956
▁28	-2957
▁bẻ	-2958
▁bể	-2959
▁gr	-2960
▁rô	-2961
iano	-2962
▁dai	-2963
▁lân	-2964
▁sắm	-2965
▁2007	-2966
▁chổi	-2967
▁thấm	-2968
ida	-2969
▁op	-2970
▁ẩm	-2971
▁hận	-2972
▁độn	-2973
▁ngột	-2974
▁nhàm	-2975
▁chênh	-2976
▁ngươi	-2977
▁piano	-2978
▁texas	-2979
▁martin	-2980
pa	-2981
▁me	-2982
▁nề	-2983
▁rã	-2984
▁len	-2985
▁que	-2986
▁rìa	-2987
▁wor	-2988
▁hổng	-2989
▁jeff	-2990
▁lưỡi	-2991
▁quặc	-2992
▁xoáy	-2993
▁dỗ	-2994
▁dập	-2995
▁kem	-2996
▁leg	-2997
▁nhủ	-2998
▁phô	-2999
▁tal	-3000
▁1980	-3001
▁khen	-3002
▁phơi	-3003
▁tịch	-3004
▁online	-3005
de	-3006
ker	-3007
▁kệ	-3008
▁băn	-3009
▁dồn	-3010
▁kìm	-3011
▁nsa	-3012
▁ever	-3013
▁nhóc	-3014
▁wall	-3015
▁khoăn	-3016
av	-3017
tt	-3018
ưởi	-3019
▁ex	-3020
▁sọ	-3021
▁ug	-3022
ptop	-3023
▁195	-3024
▁fre	-3025
▁lui	-3026
▁mal	-3027
▁nhĩ	-3028
▁rạp	-3029
▁tăm	-3030
▁3000	-3031
▁mãnh	-3032
▁ngục	-3033
▁quấy	-3034
▁rặng	-3035
▁khoáng	-3036
age	-3037
ane	-3038
ửng	-3039
▁rw	-3040
▁gãy	-3041
▁gìn	-3042
▁luc	-3043
▁tru	-3044
▁1960	-3045
▁adam	-3046
▁chày	-3047
▁webs	-3048
▁xoắn	-3049
▁christ	-3050
▁laptop	-3051
▁nghiêng	-3052
▁silicon	-3053
pr	-3054
ela	-3055
inc	-3056
osh	-3057
▁ah	-3058
▁dì	-3059
▁rỉ	-3060
▁đè	-3061
amin	-3062
▁all	-3063
▁bát	-3064
▁haw	-3065
▁lab	-3066
▁lều	-3067
▁mẹo	-3068
▁vất	-3069
▁vội	-3070
▁đúc	-3071
▁chèo	-3072
▁giặt	-3073
▁ngửi	-3074
▁thuỳ	-3075
▁xách	-3076
▁xưởng	-3077
▁uganda	-3078
ach	-3079
ann	-3080
▁xé	-3081
▁ze	-3082
▁ind	-3083
▁nâu	-3084
▁xộn	-3085
▁cược	-3086
▁hưng	-3087
▁đoạt	-3088
▁đôla	-3089
▁thiêng	-3090
▁hollywood	-3091
ee	-3092
mp	-3093
uk	-3094
ota	-3095
▁cọ	-3096
▁ân	-3097
▁bóp	-3098
▁bầy	-3099
▁lam	-3100
▁mưu	-3101
▁ngụ	-3102
▁1990	-3103
▁chớp	-3104
▁hoan	-3105
▁nick	-3106
▁quận	-3107
▁tùng	-3108
▁đinh	-3109
▁luồng	-3110
▁trúng	-3111
col	-3112
▁191	-3113
▁del	-3114
▁gậy	-3115
▁jer	-3116
▁las	-3117
▁mas	-3118
▁ray	-3119
▁uốn	-3120
▁wat	-3121
▁đãi	-3122
▁stan	-3123
▁black	-3124
▁nhường	-3125
▁thomas	-3126
di	-3127
rus	-3128
▁ào	-3129
▁bồi	-3130
▁dẹp	-3131
▁gay	-3132
▁nob	-3133
eland	-3134
▁1970	-3135
▁2011	-3136
▁pháo	-3137
▁trọn	-3138
▁tống	-3139
▁điền	-3140
▁sahara	-3141
ue	-3142
xi	-3143
▁33	-3144
▁av	-3145
▁os	-3146
ates	-3147
▁250	-3148
▁bời	-3149
▁chằm	-3150
▁mill	-3151
▁mont	-3152
▁phật	-3153
ipedia	-3154
oma	-3155
rid	-3156
▁it	-3157
▁nã	-3158
▁hái	-3159
▁mad	-3160
▁sar	-3161
▁sét	-3162
▁súp	-3163
▁sếp	-3164
▁biếm	-3165
▁thắn	-3166
▁vắng	-3167
▁elect	-3168
▁peter	-3169
▁world	-3170
▁wikipedia	-3171
mi	-3172
mm	-3173
ẳm	-3174
ght	-3175
▁55	-3176
▁mớ	-3177
▁xả	-3178
itan	-3179
▁alb	-3180
▁bón	-3181
▁dịu	-3182
▁ghé	-3183
▁mac	-3184
▁rộn	-3185
▁vòm	-3186
▁đóm	-3187
▁ếch	-3188
▁thốt	-3189
▁scott	-3190
gen	-3191
ics	-3192
ins	-3193
low	-3194
uss	-3195
▁95	-3196
▁lô	-3197
▁ye	-3198
ling	-3199
▁bob	-3200
▁léo	-3201
▁lấn	-3202
▁lột	-3203
▁môt	-3204
▁sứa	-3205
▁giáp	-3206
▁golf	-3207
▁inch	-3208
▁tang	-3209
▁thạo	-3210
▁tivi	-3211
▁trêu	-3212
▁tráng	-3213
▁xướng	-3214
▁charles	-3215
▁website	-3216
ux	-3217
ởm	-3218
rew	-3219
ấng	-3220
▁85	-3221
▁ní	-3222
▁lứa	-3223
▁pen	-3224
▁vần	-3225
attan	-3226
▁2050	-3227
▁jenn	-3228
▁nuốt	-3229
▁oxyt	-3230
▁trùm	-3231
▁tước	-3232
▁buồng	-3233
▁nobel	-3234
zy	-3235
ùn	-3236
iam	-3237
ich	-3238
oth	-3239
que	-3240
▁cy	-3241
▁lê	-3242
agen	-3243
ocin	-3244
▁bốt	-3245
▁for	-3246
▁gác	-3247
▁mat	-3248
▁min	-3249
▁ngộ	-3250
▁xăm	-3251
▁ướt	-3252
oster	-3253
▁hack	-3254
▁lượn	-3255
▁scan	-3256
▁thẳm	-3257
▁tiệm	-3258
▁pound	-3259
▁khoang	-3260
▁oxytocin	-3261
do	-3262
po	-3263
ug	-3264
ies	-3265
▁fo	-3266
▁mỡ	-3267
▁air	-3268
▁bồn	-3269
▁cụt	-3270
▁ent	-3271
▁gab	-3272
▁gạt	-3273
▁mah	-3274
▁run	-3275
▁rốt	-3276
▁đầm	-3277
▁1950	-3278
▁2015	-3279
▁khép	-3280
▁nhạo	-3281
▁show	-3282
▁túng	-3283
▁chướng	-3284
pu	-3285
mer	-3286
▁bỉ	-3287
▁dê	-3288
▁eb	-3289
▁kề	-3290
ille	-3291
▁côi	-3292
▁dời	-3293
▁jul	-3294
▁lou	-3295
▁mor	-3296
▁ngô	-3297
▁tro	-3298
▁tẩy	-3299
▁vặt	-3300
▁ford	-3301
▁ghen	-3302
▁stre	-3303
▁đụng	-3304
▁chặng	-3305
▁nhiễu	-3306
▁howard	-3307
▁florida	-3308
▁manhattan	-3309
km	-3310
ụn	-3311
ami	-3312
iếc	-3313
▁hả	-3314
▁ir	-3315
▁mỳ	-3316
▁xơ	-3317
▁ủi	-3318
erek	-3319
▁bẩm	-3320
▁cóc	-3321
▁jaz	-3322
▁ngư	-3323
▁nãy	-3324
▁soi	-3325
▁som	-3326
▁ste	-3327
▁đồn	-3328
▁2006	-3329
▁2012	-3330
▁khan	-3331
▁ngợi	-3332
▁nhục	-3333
▁sùng	-3334
▁carol	-3335
▁derek	-3336
▁haiti	-3337
▁henry	-3338
▁telom	-3339
▁william	-3340
ẹo	-3341
ump	-3342
▁pe	-3343
▁uh	-3344
▁ừm	-3345
berg	-3346
oran	-3347
▁bộc	-3348
▁chì	-3349
▁dom	-3350
▁dệt	-3351
▁gộp	-3352
▁net	-3353
▁nắp	-3354
▁rùa	-3355
▁vọt	-3356
▁đom	-3357
▁bỏng	-3358
▁mông	-3359
▁ngây	-3360
▁đàng	-3361
▁khinh	-3362
▁khoán	-3363
▁thoáng	-3364
ki	-3365
ếm	-3366
car	-3367
▁29	-3368
▁fi	-3369
▁nộ	-3370
▁pi	-3371
espe	-3372
▁700	-3373
▁800	-3374
▁bal	-3375
▁bin	-3376
▁nhã	-3377
▁rạn	-3378
▁thề	-3379
▁đục	-3380
▁chéo	-3381
▁nhét	-3382
▁chinh	-3383
aa	-3384
mb	-3385
ốp	-3386
ala	-3387
oph	-3388
▁ke	-3389
▁dại	-3390
▁mel	-3391
▁mri	-3392
▁tởm	-3393
▁4000	-3394
▁chip	-3395
▁stud	-3396
▁vách	-3397
▁ương	-3398
▁latin	-3399
up	-3400
ora	-3401
▁kg	-3402
▁sk	-3403
▁ắc	-3404
ardo	-3405
lymp	-3406
ther	-3407
▁búa	-3408
▁hor	-3409
▁hâm	-3410
▁top	-3411
▁banh	-3412
▁bổng	-3413
▁chóc	-3414
▁clip	-3415
▁cảng	-3416
▁mike	-3417
▁sing	-3418
▁thèm	-3419
▁chiêm	-3420
▁smith	-3421
▁trinh	-3422
▁disney	-3423
▁electron	-3424
bs	-3425
ny	-3426
ius	-3427
use	-3428
▁dr	-3429
▁ku	-3430
alia	-3431
arth	-3432
▁bre	-3433
▁nứt	-3434
▁râu	-3435
▁tur	-3436
▁wow	-3437
▁2005	-3438
▁chùm	-3439
▁láng	-3440
▁ngắt	-3441
▁nhốt	-3442
▁suối	-3443
▁khoai	-3444
▁south	-3445
▁entrop	-3446
gg	-3447
õm	-3448
ủa	-3449
zan	-3450
▁38	-3451
▁ao	-3452
▁rổ	-3453
▁sô	-3454
▁xá	-3455
▁120	-3456
▁big	-3457
▁cua	-3458
▁mos	-3459
▁nộp	-3460
▁tua	-3461
amine	-3462
▁diễu	-3463
▁hông	-3464
▁jack	-3465
▁lego	-3466
▁nháy	-3467
▁hoành	-3468
▁olymp	-3469
▁thiền	-3470
ou	-3471
ẽn	-3472
ial	-3473
itt	-3474
▁gl	-3475
▁nạ	-3476
rian	-3477
▁cat	-3478
▁lầy	-3479
▁rực	-3480
▁xen	-3481
▁beat	-3482
▁chay	-3483
▁phot	-3484
▁phốt	-3485
▁trèo	-3486
▁trội	-3487
▁chuối	-3488
▁khoác	-3489
▁khăng	-3490
▁nghiền	-3491
▁stanford	-3492
ât	-3493
acc	-3494
ace	-3495
▁fr	-3496
▁oz	-3497
ison	-3498
▁cán	-3499
▁lag	-3500
▁nếp	-3501
▁quạ	-3502
▁đun	-3503
▁đệm	-3504
ville	-3505
▁2004	-3506
▁chốn	-3507
▁jord	-3508
▁phil	-3509
▁test	-3510
▁yeah	-3511
▁koran	-3512
▁nghẽn	-3513
▁choáng	-3514
we	-3515
ze	-3516
unt	-3517
via	-3518
▁37	-3519
▁cn	-3520
▁tú	-3521
▁bùn	-3522
▁bới	-3523
▁dơi	-3524
▁hal	-3525
▁kil	-3526
▁nhô	-3527
▁tuỷ	-3528
▁tít	-3529
▁vặn	-3530
▁coca	-3531
▁tweet	-3532
▁rwanda	-3533
▁studio	-3534
to	-3535
eyn	-3536
kel	-3537
rey	-3538
õng	-3539
▁ep	-3540
▁hở	-3541
aine	-3542
esia	-3543
▁kar	-3544
▁khe	-3545
▁lar	-3546
▁mặn	-3547
▁piz	-3548
▁pop	-3549
▁ran	-3550
▁rệt	-3551
▁sim	-3552
▁ter	-3553
▁toa	-3554
▁vẫy	-3555
▁đòn	-3556
beria	-3557
▁chọi	-3558
▁leon	-3559
▁nhồi	-3560
▁sườn	-3561
▁vành	-3562
▁watt	-3563
▁50000	-3564
▁gates	-3565
▁street	-3566
ga	-3567
ani	-3568
▁kb	-3569
▁sn	-3570
aker	-3571
ster	-3572
▁dop	-3573
▁hẻo	-3574
▁kẹp	-3575
▁lén	-3576
▁bênh	-3577
▁nhấc	-3578
▁nhọn	-3579
▁đính	-3580
ladesh	-3581
▁20000	-3582
▁khuất	-3583
▁lagos	-3584
▁louis	-3585
▁albert	-3586
▁oxford	-3587
▁bangladesh	-3588
fe	-3589
▁ơ	-3590
cul	-3591
ero	-3592
igh	-3593
rah	-3594
uel	-3595
▁34	-3596
▁mt	-3597
▁rỡ	-3598
ence	-3599
thur	-3600
▁bol	-3601
▁bot	-3602
▁fer	-3603
▁kat	-3604
▁mer	-3605
▁nit	-3606
▁oxi	-3607
▁rio	-3608
▁rỗi	-3609
▁váy	-3610
▁2001	-3611
▁bron	-3612
▁jose	-3613
▁kiềm	-3614
▁phàn	-3615
▁poly	-3616
▁quạt	-3617
▁indon	-3618
▁palest	-3619
ịt	-3620
der	-3621
▁ap	-3622
▁bh	-3623
▁ib	-3624
▁we	-3625
eton	-3626
▁gai	-3627
▁háo	-3628
▁lót	-3629
▁lạy	-3630
▁mau	-3631
▁pan	-3632
▁pms	-3633
▁quỵ	-3634
▁reo	-3635
▁sấu	-3636
▁who	-3637
▁đắm	-3638
iopia	-3639
▁2003	-3640
▁bush	-3641
▁camb	-3642
▁atlan	-3643
▁pizza	-3644
▁telomere	-3645
ez	-3646
go	-3647
ima	-3648
olf	-3649
▁00	-3650
▁46	-3651
▁48	-3652
▁lọ	-3653
▁om	-3654
ower	-3655
▁cẩu	-3656
▁dưa	-3657
▁gào	-3658
▁nhí	-3659
▁tes	-3660
▁vàn	-3661
▁vùi	-3662
▁đôn	-3663
▁đứt	-3664
▁2014	-3665
▁carl	-3666
▁cuba	-3667
▁dâng	-3668
▁gien	-3669
▁shak	-3670
▁thơm	-3671
▁laser	-3672
▁titan	-3673
▁arthur	-3674
▁trương	-3675
▁dopamine	-3676
▁indonesia	-3677
ẹt	-3678
ato	-3679
▁bế	-3680
▁lh	-3681
coln	-3682
▁fox	-3683
▁han	-3684
▁méo	-3685
▁nến	-3686
▁sun	-3687
▁tụi	-3688
▁alph	-3689
▁cành	-3690
▁dang	-3691
▁gore	-3692
▁ngơi	-3693
▁patr	-3694
▁phớt	-3695
▁tưới	-3696
▁arist	-3697
▁bronx	-3698
▁gabby	-3699
▁georg	-3700
▁ngoạn	-3701
▁nguời	-3702
▁phiến	-3703
▁steph	-3704
▁andrew	-3705
▁lincoln	-3706
esa	-3707
isa	-3708
une	-3709
▁31	-3710
▁hé	-3711
▁ic	-3712
▁vã	-3713
▁êm	-3714
▁ớt	-3715
otle	-3716
▁cắn	-3717
▁hức	-3718
▁usd	-3719
▁vit	-3720
athan	-3721
▁gieo	-3722
▁khâu	-3723
▁nguỵ	-3724
▁whit	-3725
▁brook	-3726
▁brown	-3727
▁ghana	-3728
▁khiết	-3729
▁khùng	-3730
▁trump	-3731
▁ethiopia	-3732
▁aristotle	-3733
▁ờ	-3734
asi	-3735
ena	-3736
gin	-3737
itz	-3738
▁gk	-3739
▁rò	-3740
▁xì	-3741
▁ôn	-3742
burg	-3743
evin	-3744
▁125	-3745
▁amy	-3746
▁bit	-3747
▁bọt	-3748
▁hon	-3749
▁keo	-3750
▁lay	-3751
▁mỉm	-3752
▁nín	-3753
▁red	-3754
▁đắp	-3755
▁chật	-3756
▁diều	-3757
▁enzy	-3758
▁hans	-3759
▁hill	-3760
▁muôn	-3761
▁sửng	-3762
▁kiêng	-3763
▁nhược	-3764
▁thiêu	-3765
▁johnson	-3766
▁shakespe	-3767
▁alexander	-3768
..	-3769
ks	-3770
tô	-3771
yn	-3772
ũa	-3773
con	-3774
ượm	-3775
ềng	-3776
▁44	-3777
▁72	-3778
▁kẽ	-3779
▁nl	-3780
▁tớ	-3781
▁vỉ	-3782
▁ỏi	-3783
▁gập	-3784
▁led	-3785
▁lãi	-3786
▁lậu	-3787
▁nón	-3788
▁phế	-3789
▁sne	-3790
▁tản	-3791
▁vẩn	-3792
▁xáo	-3793
▁xấp	-3794
ridge	-3795
right	-3796
▁hiếu	-3797
▁hăng	-3798
▁nhào	-3799
▁okay	-3800
▁thẹn	-3801
▁vượn	-3802
▁west	-3803
▁giềng	-3804
▁liêng	-3805
▁nguội	-3806
▁berlin	-3807
▁newton	-3808
▁steven	-3809
▁carolina	-3810
ko	-3811
old	-3812
ure	-3813
▁gg	-3814
▁mk	-3815
▁tạ	-3816
wich	-3817
▁cằn	-3818
▁glu	-3819
▁mác	-3820
▁nôn	-3821
▁rải	-3822
▁ten	-3823
▁tụt	-3824
▁ôtô	-3825
aland	-3826
▁blah	-3827
▁buồm	-3828
▁cola	-3829
▁khoe	-3830
▁logo	-3831
▁lượm	-3832
▁lửng	-3833
▁miss	-3834
▁penn	-3835
▁pete	-3836
▁rong	-3837
▁trơn	-3838
▁album	-3839
▁stasi	-3840
▁sương	-3841
▁jordan	-3842
▁nation	-3843
▁entropy	-3844
▁sneaker	-3845
▁shakespeare	-3846
cy	-3847
ha	-3848
ub	-3849
ụi	-3850
bal	-3851
bie	-3852
del	-3853
eop	-3854
har	-3855
val	-3856
▁47	-3857
▁eo	-3858
▁ấp	-3859
well	-3860
▁gạo	-3861
▁gầy	-3862
▁lib	-3863
▁loa	-3864
▁org	-3865
▁toạ	-3866
▁trớ	-3867
▁đạm	-3868
orden	-3869
▁emma	-3870
▁feyn	-3871
▁fort	-3872
▁gand	-3873
▁trọt	-3874
▁tụng	-3875
▁hawai	-3876
▁phồng	-3877
▁palestine	-3878
fi	-3879
uc	-3880
va	-3881
cel	-3882
dam	-3883
dor	-3884
imb	-3885
nes	-3886
ona	-3887
cose	-3888
ifer	-3889
▁130	-3890
▁190	-3891
▁bẩy	-3892
▁coc	-3893
▁dồi	-3894
▁fda	-3895
▁hân	-3896
▁mag	-3897
▁nếm	-3898
▁rem	-3899
▁thỏ	-3900
▁trá	-3901
inton	-3902
▁2020	-3903
▁alan	-3904
▁chốc	-3905
▁conn	-3906
▁khốn	-3907
▁quầy	-3908
▁quẩn	-3909
▁sảnh	-3910
▁thắp	-3911
▁uber	-3912
▁30000	-3913
▁alpha	-3914
▁phiện	-3915
▁virút	-3916
▁edward	-3917
▁philip	-3918
▁feynman	-3919
▁zealand	-3920
kg	-3921
my	-3922
ru	-3923
box	-3924
eda	-3925
lah	-3926
lyn	-3927
ost	-3928
▁dỡ	-3929
▁kn	-3930
ilet	-3931
phia	-3932
utan	-3933
▁báu	-3934
▁cửu	-3935
▁est	-3936
▁hoi	-3937
▁jac	-3938
▁mao	-3939
▁mem	-3940
▁mọt	-3941
▁sụt	-3942
▁tem	-3943
▁vỉa	-3944
▁vịt	-3945
▁wil	-3946
abeth	-3947
▁2013	-3948
▁bali	-3949
▁báng	-3950
▁homo	-3951
▁họng	-3952
▁daniel	-3953
▁hawaii	-3954
▁joseph	-3955
▁scotland	-3956
aig	-3957
ene	-3958
kyo	-3959
ome	-3960
ura	-3961
uri	-3962
vel	-3963
▁42	-3964
▁js	-3965
▁ve	-3966
iban	-3967
king	-3968
▁192	-3969
▁bến	-3970
▁căm	-3971
▁eng	-3972
▁gps	-3973
▁gắt	-3974
▁gớm	-3975
▁gục	-3976
▁hao	-3977
▁lít	-3978
▁ngự	-3979
▁nóc	-3980
▁sen	-3981
▁tạc	-3982
▁cưng	-3983
▁jazz	-3984
▁josh	-3985
▁lách	-3986
▁mánh	-3987
▁ngủi	-3988
▁tenn	-3989
▁thét	-3990
▁tony	-3991
▁đấng	-3992
▁brian	-3993
▁grand	-3994
▁vướng	-3995
▁lester	-3996
▁glucose	-3997
▁olympic	-3998
ja	-3999
rd	-4000
▁ủ	-4001
ake	-4002
edy	-4003
fel	-4004
ệch	-4005
▁97	-4006
▁cd	-4007
▁ss	-4008
▁vớ	-4009
etro	-4010
llar	-4011
oria	-4012
unds	-4013
▁des	-4014
▁kep	-4015
▁lẩn	-4016
▁ram	-4017
▁rap	-4018
▁thỉ	-4019
▁tát	-4020
▁ynh	-4021
▁đắc	-4022
▁1999	-4023
▁huýt	-4024
▁ipod	-4025
▁liêu	-4026
▁matt	-4027
▁ngạo	-4028
▁ngọc	-4029
▁nhăn	-4030
▁phôi	-4031
▁rome	-4032
▁rồng	-4033
▁taxi	-4034
▁táng	-4035
▁calor	-4036
▁charl	-4037
▁kevin	-4038
▁moore	-4039
▁phích	-4040
▁tokyo	-4041
▁dollar	-4042
▁kepler	-4043
▁singap	-4044
zz	-4045
ase	-4046
gra	-4047
way	-4048
▁cộ	-4049
▁cớ	-4050
▁ge	-4051
▁arg	-4052
▁bab	-4053
▁dra	-4054
▁dâu	-4055
▁far	-4056
▁kèn	-4057
▁nai	-4058
▁sky	-4059
▁đậy	-4060
cules	-4061
▁brad	-4062
▁gall	-4063
▁gold	-4064
▁lười	-4065
▁mand	-4066
▁phẫn	-4067
▁snow	-4068
▁suýt	-4069
▁thạc	-4070
▁thỉu	-4071
kinson	-4072
▁chiêu	-4073
▁colum	-4074
▁congo	-4075
▁opera	-4076
▁thiếp	-4077
▁georgia	-4078
▁hercules	-4079
▁cambridge	-4080
▁singapore	-4081
ant	-4082
ern	-4083
ism	-4084
ươc	-4085
ylon	-4086
▁bưu	-4087
▁dri	-4088
▁giế	-4089
▁kos	-4090
▁kép	-4091
▁lọt	-4092
▁mur	-4093
▁nồi	-4094
▁nực	-4095
▁sel	-4096
▁sút	-4097
▁ver	-4098
▁xay	-4099
▁xít	-4100
▁xốp	-4101
elson	-4102
▁1500	-4103
▁1900	-4104
▁2016	-4105
▁abed	-4106
▁eliz	-4107
▁giầy	-4108
▁ngứa	-4109
▁nhai	-4110
▁nhát	-4111
▁orig	-4112
▁rụng	-4113
▁sưởi	-4114
▁vacc	-4115
▁vựng	-4116
▁đắng	-4117
▁đọng	-4118
▁earth	-4119
▁power	-4120
▁rover	-4121
▁khuếch	-4122
▁luther	-4123
▁toilet	-4124
▁virgin	-4125
▁patrick	-4126
▁taliban	-4127
▁leonardo	-4128
▁elizabeth	-4129
▁parkinson	-4130
cm	-4131
nt	-4132
êt	-4133
cra	-4134
end	-4135
ese	-4136
eti	-4137
ily	-4138
ory	-4139
ows	-4140
▁86	-4141
▁sờ	-4142
▁xẻ	-4143
aska	-4144
ella	-4145
▁bus	-4146
▁bịt	-4147
▁cày	-4148
▁cưa	-4149
▁gro	-4150
▁gán	-4151
▁hid	-4152
▁mài	-4153
▁mỉa	-4154
▁nôi	-4155
▁phả	-4156
▁son	-4157
keley	-4158
▁2030	-4159
▁6000	-4160
▁bung	-4161
▁khốc	-4162
▁kiêu	-4163
▁ngáp	-4164
▁port	-4165
▁wolf	-4166
▁yale	-4167
▁cyrus	-4168
▁giếng	-4169
▁indus	-4170
▁laden	-4171
▁north	-4172
▁plato	-4173
▁bhutan	-4174
▁choàng	-4175
▁gandhi	-4176
▁norden	-4177
osterone	-4178
▁origami	-4179
▁stephen	-4180
▁berkeley	-4181
▁national	-4182
▁christoph	-4183
▁testosterone	-4184
oh	-4185
din	-4186
own	-4187
str	-4188
▁ak	-4189
▁bì	-4190
▁sr	-4191
ican	-4192
lock	-4193
▁ash	-4194
▁bôi	-4195
▁hán	-4196
▁meg	-4197
▁thà	-4198
▁tor	-4199
▁trệ	-4200
▁val	-4201
▁vầy	-4202
▁xót	-4203
▁đùi	-4204
▁ưng	-4205
zania	-4206
▁2002	-4207
▁dưng	-4208
▁eric	-4209
▁euro	-4210
▁gram	-4211
▁jane	-4212
▁jean	-4213
▁ngào	-4214
▁nico	-4215
▁nuối	-4216
▁quật	-4217
▁rành	-4218
▁then	-4219
▁thoa	-4220
▁thốn	-4221
▁trói	-4222
▁tuộc	-4223
▁well	-4224
▁xông	-4225
▁điếu	-4226
entina	-4227
▁khiếu	-4228
▁princ	-4229
▁200000	-4230
▁nelson	-4231
▁clinton	-4232
▁snowden	-4233
▁vitamin	-4234
▁sandwich	-4235
▁greenland	-4236
ax	-4237
▁ê	-4238
for	-4239
idi	-4240
las	-4241
ush	-4242
▁52	-4243
▁bú	-4244
▁mg	-4245
▁mr	-4246
▁tẻ	-4247
alem	-4248
asha	-4249
▁cúi	-4250
▁fan	-4251
▁fem	-4252
▁lội	-4253
▁pra	-4254
▁sạc	-4255
▁sập	-4256
ather	-4257
jamin	-4258
▁arch	-4259
▁bàng	-4260
▁chui	-4261
▁giun	-4262
▁link	-4263
▁thầu	-4264
▁time	-4265
▁vict	-4266
▁buông	-4267
▁click	-4268
▁tuông	-4269
▁monter	-4270
▁cocaine	-4271
▁iceland	-4272
▁benjamin	-4273
cc	-4274
ih	-4275
si	-4276
wa	-4277
elt	-4278
ita	-4279
row	-4280
▁43	-4281
▁54	-4282
▁98	-4283
▁ol	-4284
▁rm	-4285
erra	-4286
▁cạo	-4287
▁den	-4288
▁hèn	-4289
▁lụt	-4290
▁pic	-4291
▁sus	-4292
▁sói	-4293
▁tột	-4294
▁xài	-4295
▁đốn	-4296
attle	-4297
ladel	-4298
▁coll	-4299
▁foot	-4300
▁hiên	-4301
▁khứu	-4302
▁kiều	-4303
▁milo	-4304
▁mola	-4305
usalem	-4306
▁chile	-4307
▁chiết	-4308
▁craig	-4309
▁delhi	-4310
▁drive	-4311
▁phanh	-4312
▁quáng	-4313
▁super	-4314
▁virut	-4315
▁michig	-4316
▁wright	-4317
▁beatbox	-4318
▁mandela	-4319
▁seattle	-4320
ladelphia	-4321
▁tanzania	-4322
▁jerusalem	-4323
▁philadelphia	-4324
ix	-4325
jo	-4326
py	-4327
yd	-4328
ợc	-4329
agh	-4330
ati	-4331
aza	-4332
ggs	-4333
jan	-4334
lix	-4335
nis	-4336
ovo	-4337
yte	-4338
▁68	-4339
▁91	-4340
▁id	-4341
▁ms	-4342
▁rộ	-4343
▁ts	-4344
▁ur	-4345
▁vá	-4346
ardy	-4347
atar	-4348
bble	-4349
ings	-4350
kins	-4351
▁art	-4352
▁bừa	-4353
▁cmu	-4354
▁dào	-4355
▁fri	-4356
▁gặm	-4357
▁lak	-4358
▁nhú	-4359
▁nấc	-4360
▁sud	-4361
▁von	-4362
▁woo	-4363
▁xoa	-4364
▁đấm	-4365
geria	-4366
▁acid	-4367
▁chắt	-4368
▁fred	-4369
▁futu	-4370
▁just	-4371
▁meth	-4372
▁news	-4373
▁nhôm	-4374
▁nhộn	-4375
▁nhức	-4376
▁trỗi	-4377
▁điểu	-4378
ennial	-4379
▁40000	-4380
▁colom	-4381
▁hidro	-4382
▁house	-4383
▁quăng	-4384
▁simon	-4385
▁alaska	-4386
▁nguyền	-4387
▁proton	-4388
▁atlanta	-4389
▁hungary	-4390
▁liberia	-4391
▁michigan	-4392
▁monterey	-4393
▁virginia	-4394
▁argentina	-4395
▁princeton	-4396
▁christopher	-4397
hh	-4398
ẻm	-4399
fur	-4400
ira	-4401
iti	-4402
neg	-4403
ves	-4404
yan	-4405
▁tk	-4406
▁xở	-4407
flix	-4408
ines	-4409
ment	-4410
mone	-4411
vers	-4412
▁187	-4413
▁193	-4414
▁350	-4415
▁bén	-4416
▁bịa	-4417
▁cpu	-4418
▁cơm	-4419
▁gar	-4420
▁hẻm	-4421
▁kle	-4422
▁moz	-4423
▁nhổ	-4424
▁nặc	-4425
▁oli	-4426
▁pri	-4427
▁roy	-4428
▁rậm	-4429
▁she	-4430
▁soc	-4431
▁vãn	-4432
▁xảo	-4433
▁xịt	-4434
▁ăng	-4435
lobal	-4436
▁1997	-4437
▁kenn	-4438
▁kiếp	-4439
▁mart	-4440
▁măng	-4441
▁ngợp	-4442
▁nhầy	-4443
▁nike	-4444
▁nitơ	-4445
▁seti	-4446
▁viền	-4447
▁văng	-4448
▁xuẩn	-4449
▁biếng	-4450
▁chuck	-4451
▁ethan	-4452
▁thủng	-4453
▁donald	-4454
▁kosovo	-4455
▁michel	-4456
▁nathan	-4457
▁hormone	-4458
▁netflix	-4459
bc	-4460
fo	-4461
sp	-4462
ys	-4463
ark	-4464
bot	-4465
ecd	-4466
eta	-4467
lor	-4468
sch	-4469
uno	-4470
vis	-4471
ỳnh	-4472
▁53	-4473
▁64	-4474
▁bj	-4475
▁bệ	-4476
▁et	-4477
▁ig	-4478
▁ky	-4479
▁xy	-4480
▁út	-4481
ight	-4482
ippi	-4483
itia	-4484
ones	-4485
penh	-4486
read	-4487
▁bas	-4488
▁cas	-4489
▁cor	-4490
▁còi	-4491
▁cội	-4492
▁dấy	-4493
▁gel	-4494
▁jes	-4495
▁joe	-4496
▁kur	-4497
▁lif	-4498
▁mus	-4499
▁sên	-4500
▁tuỵ	-4501
▁đũa	-4502
▁đặn	-4503
ansas	-4504
▁1998	-4505
▁amer	-4506
▁buff	-4507
▁bướu	-4508
▁cafe	-4509
▁cape	-4510
▁chòm	-4511
▁chạp	-4512
▁corn	-4513
▁giàn	-4514
▁lung	-4515
▁lúng	-4516
▁nang	-4517
▁ngầu	-4518
▁ngặt	-4519
▁nhọc	-4520
▁oecd	-4521
▁teen	-4522
▁thoi	-4523
▁tiệt	-4524
▁chiên	-4525
▁huỳnh	-4526
▁khuya	-4527
▁robin	-4528
▁thừng	-4529
▁triễn	-4530
▁hacker	-4531
▁connect	-4532
▁natasha	-4533
▁somalia	-4534
▁brooklyn	-4535
▁jefferson	-4536
ms	-4537
àm	-4538
ớc	-4539
air	-4540
ais	-4541
mad	-4542
oto	-4543
▁78	-4544
▁84	-4545
▁bã	-4546
▁cp	-4547
▁dm	-4548
▁jh	-4549
▁ju	-4550
▁lg	-4551
▁mị	-4552
▁uc	-4553
▁up	-4554
▁wi	-4555
▁đả	-4556
elly	-4557
oton	-4558
phic	-4559
pper	-4560
ters	-4561
▁als	-4562
▁arn	-4563
▁bel	-4564
▁cap	-4565
▁dem	-4566
▁him	-4567
▁lùn	-4568
▁lốc	-4569
▁neo	-4570
▁pep	-4571
▁phu	-4572
▁quỳ	-4573
▁ris	-4574
▁row	-4575
▁râm	-4576
▁sỏi	-4577
▁sụn	-4578
▁vắt	-4579
▁xắn	-4580
▁zam	-4581
athon	-4582
rispr	-4583
rogen	-4584
▁1930	-4585
▁buck	-4586
▁chẵn	-4587
▁doug	-4588
▁dẳng	-4589
▁giục	-4590
▁khoé	-4591
▁like	-4592
▁ngòi	-4593
▁quấn	-4594
▁russ	-4595
▁thảy	-4596
▁trăn	-4597
▁xuôi	-4598
lahoma	-4599
▁cairo	-4600
▁larry	-4601
▁maria	-4602
▁chuộng	-4603
▁copenh	-4604
▁crispr	-4605
▁nguyệt	-4606
▁watson	-4607
▁everest	-4608
▁kennedy	-4609
▁mississ	-4610
▁collagen	-4611
▁oklahoma	-4612
▁copenhagen	-4613
▁millennial	-4614
kh	-4615
cha	-4616
hen	-4617
ini	-4618
iri	-4619
ise	-4620
ool	-4621
tsd	-4622
ude	-4623
▁41	-4624
▁96	-4625
▁ay	-4626
▁gò	-4627
▁sộ	-4628
▁vv	-4629
▁xê	-4630
chia	-4631
ibia	-4632
loid	-4633
▁202	-4634
▁cào	-4635
▁day	-4636
▁dĩa	-4637
▁hec	-4638
▁hit	-4639
▁ins	-4640
▁kal	-4641
▁lew	-4642
▁mcg	-4643
▁mob	-4644
▁nầy	-4645
▁rọi	-4646
▁rớt	-4647
▁vít	-4648
▁you	-4649
▁đỗi	-4650
abama	-4651
point	-4652
ustin	-4653
▁1994	-4654
▁brit	-4655
▁city	-4656
▁cort	-4657
▁doaa	-4658
▁găng	-4659
▁jobs	-4660
▁mail	-4661
▁micr	-4662
▁nhấm	-4663
▁park	-4664
▁post	-4665
▁rãnh	-4666
▁thêu	-4667
▁vũng	-4668
▁wind	-4669
▁xưng	-4670
lywood	-4671
▁60000	-4672
▁allen	-4673
▁broad	-4674
▁bruno	-4675
▁chích	-4676
▁ebola	-4677
▁higgs	-4678
▁nhuộm	-4679
▁nhúng	-4680
▁trans	-4681
▁joshua	-4682
▁turing	-4683
▁alabama	-4684
▁montana	-4685
▁vaccine	-4686
▁colombia	-4687
▁columbia	-4688
▁mississippi	-4689
kt	-4690
lt	-4691
ado	-4692
fus	-4693
ild	-4694
▁dp	-4695
▁lp	-4696
▁lố	-4697
▁má	-4698
▁rh	-4699
▁át	-4700
buck	-4701
mart	-4702
rine	-4703
zler	-4704
▁cáu	-4705
▁cẩm	-4706
▁ibm	-4707
▁khử	-4708
▁lee	-4709
▁loé	-4710
▁max	-4711
▁mis	-4712
▁ngà	-4713
▁náo	-4714
▁nới	-4715
▁pot	-4716
▁sir	-4717
▁sẹo	-4718
▁tòi	-4719
▁yến	-4720
vania	-4721
▁8000	-4722
▁bịch	-4723
▁comp	-4724
▁dave	-4725
▁lith	-4726
▁ngâm	-4727
▁peru	-4728
▁ròng	-4729
▁serg	-4730
▁sher	-4731
▁zimb	-4732
▁đươc	-4733
▁color	-4734
▁femin	-4735
▁freud	-4736
▁giang	-4737
▁khống	-4738
▁linux	-4739
▁penic	-4740
▁sarah	-4741
▁water	-4742
▁chuồng	-4743
▁enzyme	-4744
▁futura	-4745
▁nhượng	-4746
▁sierra	-4747
▁zambia	-4748
▁amyloid	-4749
▁babylon	-4750
▁charlie	-4751
▁domitia	-4752
▁namibia	-4753
▁windows	-4754
▁starbuck	-4755
▁victoria	-4756
▁powerpoint	-4757
dd	-4758
ém	-4759
aba	-4760
ads	-4761
day	-4762
gar	-4763
ons	-4764
syl	-4765
tal	-4766
ten	-4767
tha	-4768
uit	-4769
▁57	-4770
▁82	-4771
▁nè	-4772
▁pc	-4773
▁py	-4774
▁rg	-4775
▁tứ	-4776
▁wo	-4777
▁đự	-4778
erom	-4779
etta	-4780
ollo	-4781
tech	-4782
▁180	-4783
▁186	-4784
▁ann	-4785
▁aud	-4786
▁cọc	-4787
▁fbi	-4788
▁hmm	-4789
▁lẫm	-4790
▁met	-4791
▁ngả	-4792
▁rec	-4793
▁rẫy	-4794
▁tas	-4795
▁trù	-4796
▁vôi	-4797
ptcha	-4798
▁2500	-4799
▁airb	-4800
▁bass	-4801
▁bành	-4802
▁chải	-4803
▁ghim	-4804
▁heal	-4805
▁hind	-4806
▁khoả	-4807
▁laze	-4808
▁miệt	-4809
▁nhằn	-4810
▁nành	-4811
▁troy	-4812
▁trút	-4813
▁vuốt	-4814
▁duyên	-4815
▁emily	-4816
▁everg	-4817
▁jones	-4818
▁keith	-4819
▁mcdon	-4820
▁ngoặt	-4821
▁ngách	-4822
▁sudan	-4823
▁white	-4824
sterdam	-4825
▁havard	-4826
▁khoanh	-4827
▁pherom	-4828
▁poster	-4829
▁yorker	-4830
▁ireland	-4831
▁teszler	-4832
▁whitopia	-4833
▁amsterdam	-4834
cl	-4835
hr	-4836
pl	-4837
êc	-4838
ìu	-4839
ơc	-4840
ợm	-4841
ame	-4842
bor	-4843
ier	-4844
lem	-4845
ont	-4846
rom	-4847
uce	-4848
▁56	-4849
▁74	-4850
▁93	-4851
▁dv	-4852
▁gw	-4853
▁iq	-4854
▁jc	-4855
▁kỵ	-4856
▁sò	-4857
agan	-4858
asma	-4859
chus	-4860
etti	-4861
rina	-4862
thal	-4863
▁140	-4864
▁204	-4865
▁cõi	-4866
▁dub	-4867
▁god	-4868
▁jas	-4869
▁roi	-4870
▁sat	-4871
▁sáp	-4872
▁ush	-4873
▁vol	-4874
▁vấp	-4875
▁vệt	-4876
▁xâu	-4877
▁xãy	-4878
▁1800	-4879
▁1975	-4880
▁1995	-4881
▁chén	-4882
▁gaza	-4883
▁giễu	-4884
▁hero	-4885
▁neur	-4886
▁nham	-4887
▁nhõm	-4888
▁ohio	-4889
▁ptsd	-4890
▁ther	-4891
▁thuở	-4892
▁yoga	-4893
otonin	-4894
puchia	-4895
▁25000	-4896
▁chệch	-4897
▁hecta	-4898
▁isiri	-4899
▁jerry	-4900
▁jesus	-4901
▁mường	-4902
▁latinh	-4903
▁zimbab	-4904
sylvania	-4905
▁caltech	-4906
▁wolfram	-4907
▁colorado	-4908
▁feminist	-4909
▁campuchia	-4910
▁serotonin	-4911
fa	-4912
fr	-4913
ji	-4914
ỡn	-4915
bar	-4916
bin	-4917
chn	-4918
cou	-4919
han	-4920
ink	-4921
och	-4922
ond	-4923
raz	-4924
ttm	-4925
ươu	-4926
▁01	-4927
▁05	-4928
▁58	-4929
▁az	-4930
▁dh	-4931
▁fg	-4932
▁lở	-4933
▁lự	-4934
▁qa	-4935
▁rl	-4936
▁đê	-4937
abad	-4938
atin	-4939
eron	-4940
isol	-4941
ning	-4942
▁160	-4943
▁bùm	-4944
▁bịp	-4945
▁câm	-4946
▁cật	-4947
▁dấn	-4948
▁gas	-4949
▁giỏ	-4950
▁gật	-4951
▁jud	-4952
▁lẫy	-4953
▁mid	-4954
▁nấp	-4955
▁one	-4956
▁sin	-4957
▁syl	-4958
▁sắn	-4959
▁thê	-4960
▁tkm	-4961
▁win	-4962
▁zip	-4963
▁đẫm	-4964
illin	-4965
▁1945	-4966
▁1984	-4967
▁1993	-4968
▁chèn	-4969
▁cúng	-4970
▁cưỡi	-4971
▁gàng	-4972
▁heli	-4973
▁jeop	-4974
▁kông	-4975
▁lanh	-4976
▁line	-4977
▁lộng	-4978
▁nhại	-4979
▁nung	-4980
▁nấng	-4981
▁roos	-4982
▁suôn	-4983
▁thản	-4984
▁tttm	-4985
▁võng	-4986
▁whoa	-4987
▁zero	-4988
▁đuợc	-4989
etroit	-4990
hammad	-4991
▁graff	-4992
▁harry	-4993
▁matth	-4994
▁qaeda	-4995
▁samar	-4996
▁thình	-4997
graphic	-4998
▁global	-4999
▁kansas	-5000
▁market	-5001
▁mendel	-5002
▁nghênh	-5003
▁nhoáng	-5004
▁thuyên	-5005
▁detroit	-5006
▁isirika	-5007
▁walmart	-5008
▁calories	-5009
▁everglad	-5010
▁jeopardy	-5011
▁marathon	-5012
▁muhammad	-5013
▁zimbabwe	-5014
▁starbucks	-5015
▁penicillin	-5016
▁pennsylvania	-5017
sc	-5018
tr	-5019
tz	-5020
ken	-5021
key	-5022
lex	-5023
ops	-5024
sen	-5025
xon	-5026
yon	-5027
▁67	-5028
▁ka	-5029
▁ks	-5030
▁kị	-5031
▁nu	-5032
▁ny	-5033
▁pu	-5034
▁sd	-5035
▁vr	-5036
▁ầm	-5037
eera	-5038
ield	-5039
ites	-5040
▁900	-5041
▁asp	-5042
▁ath	-5043
▁bíp	-5044
▁bần	-5045
▁cỗi	-5046
▁dạn	-5047
▁dẫu	-5048
▁gót	-5049
▁hằn	-5050
▁imp	-5051
▁les	-5052
▁lgb	-5053
▁lhc	-5054
▁mội	-5055
▁ngõ	-5056
▁pur	-5057
▁reb	-5058
▁rìu	-5059
▁sục	-5060
▁tah	-5061
▁tar	-5062
▁xào	-5063
allas	-5064
ineph	-5065
▁7000	-5066
▁bern	-5067
▁chói	-5068
▁giời	-5069
▁gran	-5070
▁home	-5071
▁hooc	-5072
▁hood	-5073
▁hoạn	-5074
▁hươu	-5075
▁inst	-5076
▁ngần	-5077
▁pand	-5078
▁phao	-5079
▁uran	-5080
▁vinc	-5081
▁điềm	-5082
▁đựơc	-5083
couver	-5084
sachus	-5085
▁12000	-5086
▁billy	-5087
▁chang	-5088
▁danny	-5089
▁games	-5090
▁grace	-5091
▁hyper	-5092
▁leone	-5093
▁lewis	-5094
▁ngước	-5095
▁qatar	-5096
▁state	-5097
▁viếng	-5098
▁apollo	-5099
▁dallas	-5100
▁gallon	-5101
▁mozart	-5102
▁plasma	-5103
▁warren	-5104
▁blogger	-5105
▁ethanol	-5106
▁justine	-5107
▁katrina	-5108
▁lithium	-5109
▁matthew	-5110
▁pandora	-5111
inephrine	-5112
▁cortisol	-5113
▁estrogen	-5114
▁graffiti	-5115
▁massachus	-5116
▁vancouver	-5117
▁geographic	-5118
10	-5119
gi	-5120
nb	-5121
éc	-5122
...	-5123
ait	-5124
arr	-5125
chi	-5126
com	-5127
hol	-5128
imo	-5129
ire	-5130
len	-5131
oom	-5132
ote	-5133
tan	-5134
ẩng	-5135
▁02	-5136
▁39	-5137
▁lữ	-5138
▁nr	-5139
▁rà	-5140
▁vò	-5141
alin	-5142
dson	-5143
ette	-5144
etts	-5145
ides	-5146
iflu	-5147
inda	-5148
mbai	-5149
rich	-5150
robi	-5151
▁...	-5152
▁ace	-5153
▁cad	-5154
▁cup	-5155
▁dãn	-5156
▁gầm	-5157
▁hop	-5158
▁khờ	-5159
▁law	-5160
▁lầu	-5161
▁lụi	-5162
▁mol	-5163
▁nạt	-5164
▁pao	-5165
▁phỉ	-5166
▁rẩy	-5167
▁sol	-5168
▁sởi	-5169
▁toy	-5170
▁uhm	-5171
▁uni	-5172
▁vóc	-5173
▁ướp	-5174
abyte	-5175
ahidi	-5176
evelt	-5177
raham	-5178
▁camp	-5179
▁cook	-5180
▁diêm	-5181
▁down	-5182
▁hoóc	-5183
▁jers	-5184
▁jess	-5185
▁lgbt	-5186
▁live	-5187
▁ngửa	-5188
▁rick	-5189
▁rảnh	-5190
▁tedx	-5191
▁thối	-5192
▁trặc	-5193
▁viol	-5194
▁andro	-5195
▁cohen	-5196
▁gamma	-5197
▁kelly	-5198
▁libya	-5199
▁media	-5200
▁ngẩng	-5201
▁pepsi	-5202
▁300000	-5203
▁health	-5204
▁justin	-5205
▁lakota	-5206
▁mumbai	-5207
▁pounds	-5208
▁sylvia	-5209
▁tennis	-5210
▁abraham	-5211
▁jazeera	-5212
▁nairobi	-5213
▁neander	-5214
▁rosetta	-5215
▁tamiflu	-5216
▁ushahidi	-5217
▁roosevelt	-5218
▁everglades	-5219
▁neanderthal	-5220
fl	-5221
úm	-5222
alo	-5223
aya	-5224
ble	-5225
eed	-5226
ega	-5227
loc	-5228
nic	-5229
ope	-5230
ray	-5231
rch	-5232
rie	-5233
tic	-5234
ươm	-5235
▁71	-5236
▁gm	-5237
▁rệ	-5238
▁sb	-5239
▁tt	-5240
▁uk	-5241
▁vể	-5242
egon	-5243
ever	-5244
gers	-5245
icut	-5246
ider	-5247
ihad	-5248
mann	-5249
nest	-5250
orna	-5251
uten	-5252
▁asl	-5253
▁bow	-5254
▁bầm	-5255
▁cru	-5256
▁cặn	-5257
▁deb	-5258
▁dvd	-5259
▁dốt	-5260
▁fed	-5261
▁ger	-5262
▁hot	-5263
▁héo	-5264
▁kén	-5265
▁lev	-5266
▁lyn	-5267
▁lẽo	-5268
▁mot	-5269
▁nep	-5270
▁nhẽ	-5271
▁ooh	-5272
▁rạc	-5273
▁sex	-5274
▁stu	-5275
▁sul	-5276
▁trỏ	-5277
▁vác	-5278
▁vạt	-5279
berry	-5280
inger	-5281
leans	-5282
negie	-5283
ucker	-5284
▁1920	-5285
▁1983	-5286
▁1989	-5287
▁1991	-5288
▁band	-5289
▁bell	-5290
▁beta	-5291
▁calo	-5292
▁chóp	-5293
▁copy	-5294
▁dick	-5295
▁ebay	-5296
▁good	-5297
▁ivan	-5298
▁joel	-5299
▁luẩn	-5300
▁neil	-5301
▁rand	-5302
▁ross	-5303
▁rách	-5304
▁vụng	-5305
▁15000	-5306
▁bruce	-5307
▁chanh	-5308
▁chửng	-5309
▁fried	-5310
▁gener	-5311
▁jason	-5312
▁jihad	-5313
▁khánh	-5314
▁mario	-5315
▁marsh	-5316
▁mount	-5317
▁nhãng	-5318
▁skype	-5319
▁spock	-5320
▁250000	-5321
▁airbnb	-5322
▁jersey	-5323
▁nicole	-5324
▁samuel	-5325
▁captcha	-5326
▁lucifer	-5327
▁orleans	-5328
▁carnegie	-5329
▁marketing	-5330
▁connecticut	-5331
hd	-5332
ku	-5333
rr	-5334
ụa	-5335
ban	-5336
cal	-5337
ech	-5338
gan	-5339
hov	-5340
iro	-5341
mar	-5342
men	-5343
nia	-5344
obo	-5345
tim	-5346
vin	-5347
▁76	-5348
▁94	-5349
▁bự	-5350
▁gù	-5351
▁gỉ	-5352
▁nể	-5353
▁pa	-5354
▁rơ	-5355
▁sỡ	-5356
▁té	-5357
▁tễ	-5358
▁ảm	-5359
▁ập	-5360
▁ắp	-5361
bury	-5362
chol	-5363
ileo	-5364
ilon	-5365
osph	-5366
ulin	-5367
▁188	-5368
▁360	-5369
▁450	-5370
▁act	-5371
▁bil	-5372
▁bor	-5373
▁búp	-5374
▁cau	-5375
▁chổ	-5376
▁cnn	-5377
▁cùa	-5378
▁củi	-5379
▁dặn	-5380
▁dừa	-5381
▁edi	-5382
▁ell	-5383
▁gởi	-5384
▁had	-5385
▁hót	-5386
▁mcc	-5387
▁mép	-5388
▁nhì	-5389
▁nin	-5390
▁rna	-5391
▁răn	-5392
▁sải	-5393
▁wir	-5394
▁xao	-5395
▁xua	-5396
bbage	-5397
field	-5398
terol	-5399
▁1973	-5400
▁aust	-5401
▁blue	-5402
▁chém	-5403
▁drey	-5404
▁high	-5405
▁hous	-5406
▁ipad	-5407
▁kath	-5408
▁maya	-5409
▁mách	-5410
▁nauy	-5411
▁ngóc	-5412
▁ngạt	-5413
▁nháp	-5414
▁rain	-5415
▁rưởi	-5416
▁rạng	-5417
▁sapi	-5418
▁sara	-5419
▁siết	-5420
▁stew	-5421
▁thòi	-5422
▁váng	-5423
▁vồng	-5424
▁adren	-5425
▁audio	-5426
▁chằng	-5427
▁coper	-5428
▁geoff	-5429
▁great	-5430
▁guine	-5431
▁himal	-5432
▁nhuần	-5433
▁paulo	-5434
▁stein	-5435
▁venus	-5436
▁young	-5437
▁150000	-5438
▁choles	-5439
▁harlem	-5440
▁hormon	-5441
▁oregon	-5442
▁tedtal	-5443
▁babbage	-5444
▁galileo	-5445
▁insulin	-5446
▁siberia	-5447
▁titanic	-5448
▁cholesterol	-5449
▁massachusetts	-5450
ns	-5451
vo	-5452
aly	-5453
ata	-5454
cer	-5455
cus	-5456
etz	-5457
med	-5458
oko	-5459
ott	-5460
rat	-5461
she	-5462
urn	-5463
uro	-5464
▁49	-5465
▁62	-5466
▁63	-5467
▁77	-5468
▁87	-5469
▁aw	-5470
▁by	-5471
▁dc	-5472
▁dè	-5473
▁ec	-5474
▁kr	-5475
▁lư	-5476
▁mí	-5477
▁rợ	-5478
▁tể	-5479
▁xl	-5480
ager	-5481
ator	-5482
cher	-5483
dney	-5484
egal	-5485
ical	-5486
irin	-5487
olis	-5488
omen	-5489
omet	-5490
ropa	-5491
ston	-5492
▁ach	-5493
▁bir	-5494
▁cro	-5495
▁dun	-5496
▁dằn	-5497
▁fin	-5498
▁ful	-5499
▁goá	-5500
▁gôn	-5501
▁gốm	-5502
▁kay	-5503
▁kha	-5504
▁lem	-5505
▁lip	-5506
▁lol	-5507
▁mck	-5508
▁mịn	-5509
▁ngơ	-5510
▁níu	-5511
▁oak	-5512
▁pac	-5513
▁rom	-5514
▁rót	-5515
▁rệp	-5516
▁sci	-5517
▁séc	-5518
▁sảy	-5519
▁sọc	-5520
▁túp	-5521
▁tấu	-5522
▁vợt	-5523
craft	-5524
mania	-5525
▁1940	-5526
▁1987	-5527
▁arab	-5528
▁card	-5529
▁chĩa	-5530
▁diox	-5531
▁duỗi	-5532
▁giấm	-5533
▁gord	-5534
▁hiền	-5535
▁khít	-5536
▁loan	-5537
▁lõng	-5538
▁ngất	-5539
▁phàm	-5540
▁rạch	-5541
▁shar	-5542
▁thâu	-5543
▁trek	-5544
▁tráo	-5545
▁trồi	-5546
▁trụi	-5547
▁tuột	-5548
▁điếc	-5549
▁đong	-5550
razine	-5551
ussani	-5552
▁andre	-5553
▁disco	-5554
▁flash	-5555
▁jacqu	-5556
▁khoát	-5557
▁loãng	-5558
▁nepal	-5559
▁nơron	-5560
▁phình	-5561
▁quẳng	-5562
▁roger	-5563
▁santa	-5564
▁saudi	-5565
▁tesla	-5566
▁brexit	-5567
▁darfur	-5568
▁europa	-5569
▁heroin	-5570
▁island	-5571
▁photon	-5572
▁somali	-5573
atherine	-5574
▁cameron	-5575
▁dreyfus	-5576
▁england	-5577
▁hillary	-5578
▁rosling	-5579
▁atrazine	-5580
▁mcdonald	-5581
xy	-5582
aho	-5583
bus	-5584
ery	-5585
ifi	-5586
ign	-5587
ois	-5588
oop	-5589
sta	-5590
ugh	-5591
ven	-5592
▁51	-5593
▁66	-5594
▁ct	-5595
▁ln	-5596
▁mm	-5597
▁sỉ	-5598
▁úp	-5599
arch	-5600
chel	-5601
egas	-5602
iana	-5603
itar	-5604
itch	-5605
more	-5606
owan	-5607
vian	-5608
▁185	-5609
▁boy	-5610
▁bạt	-5611
▁bục	-5612
▁cồn	-5613
▁der	-5614
▁dur	-5615
▁fax	-5616
▁giê	-5617
▁hun	-5618
▁ill	-5619
▁int	-5620
▁ion	-5621
▁kam	-5622
▁lim	-5623
▁lạt	-5624
▁mút	-5625
▁nao	-5626
▁ngó	-5627
▁nhả	-5628
▁nuc	-5629
▁out	-5630
▁ren	-5631
▁rèm	-5632
▁rụi	-5633
▁sệt	-5634
▁sủa	-5635
▁tặc	-5636
▁tỉa	-5637
▁vis	-5638
aurus	-5639
awatt	-5640
burgh	-5641
inder	-5642
pines	-5643
press	-5644
rence	-5645
▁1968	-5646
▁1985	-5647
▁1988	-5648
▁1992	-5649
▁adhd	-5650
▁anth	-5651
▁bert	-5652
▁biêt	-5653
▁cast	-5654
▁cham	-5655
▁chen	-5656
▁chíp	-5657
▁deep	-5658
▁evan	-5659
▁foxo	-5660
▁giòn	-5661
▁giỡn	-5662
▁hãnh	-5663
▁kara	-5664
▁kong	-5665
▁liễu	-5666
▁math	-5667
▁miên	-5668
▁nhún	-5669
▁quất	-5670
▁spot	-5671
▁sành	-5672
▁thềm	-5673
▁trâu	-5674
▁tuôn	-5675
▁viêc	-5676
▁wood	-5677
▁word	-5678
▁alice	-5679
▁baker	-5680
▁chern	-5681
▁colle	-5682
▁enzym	-5683
▁idaho	-5684
▁julie	-5685
▁milim	-5686
▁nilon	-5687
▁omega	-5688
▁oscar	-5689
▁rương	-5690
▁salad	-5691
▁shock	-5692
▁teddy	-5693
▁400000	-5694
▁barack	-5695
▁burger	-5696
▁canyon	-5697
▁edison	-5698
▁guinea	-5699
▁hudson	-5700
▁jennie	-5701
▁neuron	-5702
▁norman	-5703
▁school	-5704
▁series	-5705
▁toyota	-5706
▁android	-5707
▁fortune	-5708
▁hawking	-5709
▁stewart	-5710
▁american	-5711
▁giussani	-5712
▁jennifer	-5713
▁epinephrine	-5714
ni	-5715
sw	-5716
sy	-5717
anc	-5718
ays	-5719
die	-5720
ean	-5721
een	-5722
eus	-5723
get	-5724
gon	-5725
iet	-5726
let	-5727
mes	-5728
min	-5729
mit	-5730
mud	-5731
môn	-5732
uaz	-5733
▁09	-5734
▁73	-5735
▁88	-5736
▁bm	-5737
▁bạ	-5738
▁dế	-5739
▁fm	-5740
▁mú	-5741
▁ow	-5742
▁sj	-5743
▁ub	-5744
▁ut	-5745
▁yu	-5746
▁đh	-5747
ream	-5748
ryst	-5749
ylan	-5750
▁189	-5751
▁bùa	-5752
▁cằm	-5753
▁dor	-5754
▁dạt	-5755
▁dẫm	-5756
▁esk	-5757
▁gor	-5758
▁gáy	-5759
▁gân	-5760
▁gặt	-5761
▁hùm	-5762
▁hắt	-5763
▁jay	-5764
▁lhq	-5765
▁lig	-5766
▁lõm	-5767
▁lốp	-5768
▁med	-5769
▁mụn	-5770
▁nhỡ	-5771
▁nhử	-5772
▁nic	-5773
▁nần	-5774
▁por	-5775
▁rao	-5776
▁rep	-5777
▁rán	-5778
▁rơm	-5779
▁sad	-5780
▁são	-5781
▁teo	-5782
▁tol	-5783
▁trọ	-5784
▁tằm	-5785
▁vói	-5786
▁vẹt	-5787
▁xói	-5788
▁ươi	-5789
agram	-5790
souri	-5791
▁1100	-5792
▁1986	-5793
▁2017	-5794
▁9000	-5795
▁anas	-5796
▁balk	-5797
▁cháo	-5798
▁chít	-5799
▁chót	-5800
▁chậu	-5801
▁chồn	-5802
▁còng	-5803
▁dean	-5804
▁ecua	-5805
▁kent	-5806
▁mars	-5807
▁meme	-5808
▁ngấm	-5809
▁nhảm	-5810
▁noah	-5811
▁phai	-5812
▁play	-5813
▁rùng	-5814
▁sook	-5815
▁ster	-5816
▁sưng	-5817
▁sững	-5818
▁thun	-5819
▁tour	-5820
▁wiki	-5821
▁đười	-5822
▁ailen	-5823
▁carro	-5824
▁dylan	-5825
▁flint	-5826
▁holoc	-5827
▁jacob	-5828
▁kyoto	-5829
▁nghẹt	-5830
▁trũng	-5831
▁tunis	-5832
▁wired	-5833
▁barbie	-5834
▁bassem	-5835
▁church	-5836
▁galois	-5837
▁guitar	-5838
▁hitler	-5839
▁hoodie	-5840
▁hubble	-5841
▁proust	-5842
▁socola	-5843
▁taylor	-5844
▁venice	-5845
▁walter	-5846
▁mcgowan	-5847
▁tenness	-5848
▁theresa	-5849
▁lawrence	-5850
▁maryland	-5851
▁microrna	-5852
▁missouri	-5853
▁williams	-5854
▁lesterland	-5855
ef	-5856
ho	-5857
nc	-5858
sm	-5859
ôm	-5860
adi	-5861
aga	-5862
any	-5863
cin	-5864
ego	-5865
ete	-5866
ibo	-5867
lam	-5868
oid	-5869
ral	-5870
rir	-5871
rit	-5872
ros	-5873
tes	-5874
uma	-5875
▁59	-5876
▁79	-5877
▁dl	-5878
▁hũ	-5879
▁hủ	-5880
▁iv	-5881
▁ls	-5882
▁tg	-5883
▁tà	-5884
▁ạt	-5885
alog	-5886
anie	-5887
atma	-5888
etty	-5889
illa	-5890
tanh	-5891
▁999	-5892
▁but	-5893
▁bộn	-5894
▁cen	-5895
▁cia	-5896
▁fai	-5897
▁gãi	-5898
▁gợn	-5899
▁hol	-5900
▁hời	-5901
▁lụa	-5902
▁nev	-5903
▁pit	-5904
▁reg	-5905
▁rầm	-5906
▁rầy	-5907
▁rợn	-5908
▁rủa	-5909
▁sio	-5910
▁spr	-5911
▁tod	-5912
▁túm	-5913
▁xén	-5914
▁xỉn	-5915
▁đần	-5916
chell	-5917
hoven	-5918
▁1918	-5919
▁1996	-5920
▁cait	-5921
▁cher	-5922
▁coke	-5923
▁cont	-5924
▁dodo	-5925
▁file	-5926
▁gara	-5927
▁gwen	-5928
▁hoán	-5929
▁lord	-5930
▁mắng	-5931
▁nhím	-5932
▁nhòm	-5933
▁nhối	-5934
▁niêm	-5935
▁noel	-5936
▁nòng	-5937
▁phồn	-5938
▁pier	-5939
▁pisa	-5940
▁rica	-5941
▁shir	-5942
▁siri	-5943
▁stir	-5944
▁sừng	-5945
▁thục	-5946
▁thụt	-5947
▁zara	-5948
timore	-5949
▁80000	-5950
▁beach	-5951
▁benki	-5952
▁carib	-5953
▁chuồn	-5954
▁darpa	-5955
▁donna	-5956
▁khuấy	-5957
▁lucas	-5958
▁phiếm	-5959
▁phách	-5960
▁quyện	-5961
▁rosie	-5962
▁ruộng	-5963
▁sahar	-5964
▁spagh	-5965
▁stock	-5966
▁suyễn	-5967
▁vegas	-5968
▁arnold	-5969
▁bertie	-5970
▁carter	-5971
▁johnny	-5972
▁nghếch	-5973
▁nichol	-5974
▁queens	-5975
▁robots	-5976
▁sergio	-5977
▁tahrir	-5978
▁trướng	-5979
▁mahatma	-5980
▁senegal	-5981
▁atlantic	-5982
▁discover	-5983
▁franklin	-5984
▁mountain	-5985
▁portland	-5986
▁baltimore	-5987
▁spaghetti	-5988
▁tennessee	-5989
▁philippines	-5990
du	-5991
gu	-5992
rt	-5993
sf	-5994
tu	-5995
ôc	-5996
ĩu	-5997
ễm	-5998
ỏm	-5999
ỡi	-6000
▁í	-6001
act	-6002
aha	-6003
ats	-6004
ava	-6005
bao	-6006
bol	-6007
cam	-6008
che	-6009
dur	-6010
eem	-6011
ezu	-6012
iff	-6013
ili	-6014
uch	-6015
una	-6016
vey	-6017
ơng	-6018
▁92	-6019
▁jd	-6020
▁nk	-6021
▁vơ	-6022
▁xổ	-6023
acci	-6024
ague	-6025
asht	-6026
asso	-6027
aust	-6028
bbit	-6029
coma	-6030
emen	-6031
icer	-6032
issa	-6033
nett	-6034
othy	-6035
oxet	-6036
rane	-6037
untu	-6038
▁105	-6039
▁arm	-6040
▁blu	-6041
▁clo	-6042
▁dec	-6043
▁eve	-6044
▁gul	-6045
▁hốc	-6046
▁kíp	-6047
▁leb	-6048
▁lot	-6049
▁lồi	-6050
▁mầu	-6051
▁mậu	-6052
▁neg	-6053
▁nòi	-6054
▁núm	-6055
▁nại	-6056
▁nặn	-6057
▁nọc	-6058
▁pip	-6059
▁quệ	-6060
▁rev	-6061
▁saf	-6062
▁seb	-6063
▁sán	-6064
▁sấm	-6065
▁trơ	-6066
▁vel	-6067
▁vớt	-6068
▁yah	-6069
ellul	-6070
etown	-6071
ilton	-6072
iness	-6073
izona	-6074
osome	-6075
ronto	-6076
▁1979	-6077
▁bank	-6078
▁barb	-6079
▁beet	-6080
▁bina	-6081
▁bing	-6082
▁erik	-6083
▁hall	-6084
▁hipp	-6085
▁hong	-6086
▁khuỷ	-6087
▁liếm	-6088
▁lình	-6089
▁mach	-6090
▁mượt	-6091
▁nhịn	-6092
▁nách	-6093
▁roll	-6094
▁rượt	-6095
▁sufi	-6096
▁talk	-6097
▁trau	-6098
▁ttnt	-6099
▁vest	-6100
forshe	-6101
nesota	-6102
phones	-6103
▁allah	-6104
▁amino	-6105
▁baham	-6106
▁cents	-6107
▁clark	-6108
▁costa	-6109
▁domin	-6110
▁every	-6111
▁fibon	-6112
▁giông	-6113
▁helen	-6114
▁klein	-6115
▁luyến	-6116
▁mouaz	-6117
▁ngừơi	-6118
▁nhung	-6119
▁phiệt	-6120
▁prize	-6121
▁saman	-6122
▁sioux	-6123
▁sushi	-6124
▁tracy	-6125
▁truớc	-6126
▁500000	-6127
▁bosnia	-6128
▁eskimo	-6129
▁gordon	-6130
▁ubuntu	-6131
▁venezu	-6132
▁venter	-6133
▁violin	-6134
▁algeria	-6135
▁arizona	-6136
▁aspirin	-6137
▁buffalo	-6138
▁houston	-6139
▁jacques	-6140
▁polymer	-6141
▁sapiens	-6142
▁toronto	-6143
▁copernic	-6144
▁heforshe	-6145
▁jonathan	-6146
▁marshall	-6147
▁megawatt	-6148
▁olympics	-6149
▁progeria	-6150
▁stirling	-6151
▁warcraft	-6152
▁beethoven	-6153
▁christian	-6154
▁fibonacci	-6155
▁instagram	-6156
▁minnesota	-6157
dt	-6158
ea	-6159
ht	-6160
aus	-6161
els	-6162
ema	-6163
ila	-6164
inn	-6165
ive	-6166
kee	-6167
ots	-6168
rai	-6169
rig	-6170
uqu	-6171
urt	-6172
ẵng	-6173
▁81	-6174
▁89	-6175
▁dy	-6176
▁dơ	-6177
▁ea	-6178
▁gô	-6179
▁hc	-6180
▁jr	-6181
▁lú	-6182
▁mp	-6183
▁mó	-6184
▁mụ	-6185
▁nm	-6186
▁tc	-6187
▁võ	-6188
▁xù	-6189
▁za	-6190
▁zk	-6191
▁đơ	-6192
▁ải	-6193
agon	-6194
bean	-6195
bour	-6196
ecca	-6197
ello	-6198
eman	-6199
etas	-6200
iger	-6201
mins	-6202
moud	-6203
ough	-6204
pton	-6205
ucky	-6206
ving	-6207
work	-6208
▁101	-6209
▁170	-6210
▁175	-6211
▁ali	-6212
▁bai	-6213
▁bập	-6214
▁cúp	-6215
▁cỏi	-6216
▁daf	-6217
▁dãi	-6218
▁esg	-6219
▁fir	-6220
▁has	-6221
▁hij	-6222
▁hỡi	-6223
▁jab	-6224
▁jpl	-6225
▁ker	-6226
▁khố	-6227
▁lặc	-6228
▁lặt	-6229
▁ngỡ	-6230
▁nol	-6231
▁off	-6232
▁ott	-6233
▁pre	-6234
▁pun	-6235
▁rít	-6236
▁rầu	-6237
▁rốn	-6238
▁sac	-6239
▁sey	-6240
▁sna	-6241
▁sấy	-6242
▁sầu	-6243
▁thự	-6244
▁too	-6245
▁tằn	-6246
▁vod	-6247
▁víu	-6248
▁vịn	-6249
▁vụt	-6250
▁xuy	-6251
▁đụn	-6252
adore	-6253
ahili	-6254
aline	-6255
aysia	-6256
eller	-6257
erque	-6258
oshop	-6259
rahum	-6260
▁1600	-6261
▁2018	-6262
▁andy	-6263
▁beep	-6264
▁bomb	-6265
▁cass	-6266
▁chùi	-6267
▁chập	-6268
▁chồi	-6269
▁coch	-6270
▁conc	-6271
▁econ	-6272
▁elam	-6273
▁ganh	-6274
▁greg	-6275
▁hyun	-6276
▁jarr	-6277
▁ligo	-6278
▁lisa	-6279
▁luồn	-6280
▁mall	-6281
▁nhen	-6282
▁oliu	-6283
▁pack	-6284
▁rice	-6285
▁rose	-6286
▁rubi	-6287
▁solo	-6288
▁thìa	-6289
▁tina	-6290
▁town	-6291
▁toái	-6292
▁tron	-6293
▁wars	-6294
▁đãng	-6295
▁đùng	-6296
astian	-6297
burger	-6298
colate	-6299
ingham	-6300
rabbit	-6301
rystal	-6302
undsen	-6303
▁35000	-6304
▁austr	-6305
▁boong	-6306
▁chững	-6307
▁diego	-6308
▁jenny	-6309
▁jesse	-6310
▁jimmy	-6311
▁julia	-6312
▁khuỷu	-6313
▁loanh	-6314
▁memes	-6315
▁moses	-6316
▁myria	-6317
▁nghẹn	-6318
▁night	-6319
▁osama	-6320
▁ozone	-6321
▁petri	-6322
▁radar	-6323
▁solly	-6324
▁susan	-6325
▁thoạt	-6326
▁weibo	-6327
▁whole	-6328
espeech	-6329
osphere	-6330
oxetine	-6331
▁600000	-6332
▁albuqu	-6333
▁archie	-6334
▁graham	-6335
▁libăng	-6336
▁lucius	-6337
▁maslow	-6338
▁murray	-6339
▁parker	-6340
▁potter	-6341
▁rachel	-6342
▁saleem	-6343
ellulose	-6344
rahumara	-6345
▁alexand	-6346
▁bahamas	-6347
▁mahmoud	-6348
▁oakland	-6349
▁picasso	-6350
▁russell	-6351
▁science	-6352
▁swahili	-6353
▁tedtalk	-6354
▁univers	-6355
▁cochrane	-6356
▁geoffrey	-6357
▁hormones	-6358
▁kentucky	-6359
▁malaysia	-6360
▁samantha	-6361
▁tasmania	-6362
▁caribbean	-6363
▁catherine	-6364
▁chocolate	-6365
▁holocaust	-6366
▁nollywood	-6367
▁pheromone	-6368
▁photoshop	-6369
▁venezuela	-6370
▁copernicus	-6371
▁freespeech	-6372
▁tarahumara	-6373
▁albuquerque	-6374
12	-6375
gy	-6376
ml	-6377
pm	-6378
ăc	-6379
ahn	-6380
anz	-6381
ars	-6382
cor	-6383
edi	-6384
eek	-6385
iac	-6386
mat	-6387
mir	-6388
ric	-6389
riz	-6390
wal	-6391
zar	-6392
▁ax	-6393
▁ft	-6394
▁gb	-6395
▁hp	-6396
▁hê	-6397
▁hơ	-6398
▁ko	-6399
▁kt	-6400
▁oà	-6401
▁tm	-6402
▁tý	-6403
▁ùn	-6404
▁ắt	-6405
ader	-6406
anet	-6407
anon	-6408
emat	-6409
esco	-6410
feld	-6411
holm	-6412
iley	-6413
ital	-6414
ject	-6415
loyd	-6416
mond	-6417
nger	-6418
oman	-6419
pire	-6420
stan	-6421
vish	-6422
wait	-6423
▁110	-6424
▁401	-6425
▁aaa	-6426
▁abu	-6427
▁agi	-6428
▁arr	-6429
▁aug	-6430
▁bud	-6431
▁bấp	-6432
▁bặm	-6433
▁bổn	-6434
▁cle	-6435
▁cre	-6436
▁cợt	-6437
▁dev	-6438
▁duệ	-6439
▁dép	-6440
▁eif	-6441
▁fro	-6442
▁hem	-6443
▁loà	-6444
▁luỵ	-6445
▁lằn	-6446
▁lẻo	-6447
▁mut	-6448
▁mào	-6449
▁mít	-6450
▁mẫn	-6451
▁naj	-6452
▁nar	-6453
▁nem	-6454
▁ngỏ	-6455
▁not	-6456
▁nức	-6457
▁ozo	-6458
▁pap	-6459
▁pas	-6460
▁ple	-6461
▁quĩ	-6462
▁res	-6463
▁rod	-6464
▁rêu	-6465
▁sis	-6466
▁sue	-6467
▁sâm	-6468
▁ton	-6469
▁trờ	-6470
▁tết	-6471
▁vas	-6472
▁voy	-6473
▁vát	-6474
▁vét	-6475
▁xửa	-6476
▁yel	-6477
▁đay	-6478
▁đút	-6479
angel	-6480
atops	-6481
ectus	-6482
ering	-6483
insky	-6484
▁1929	-6485
▁1969	-6486
▁2025	-6487
▁anne	-6488
▁chad	-6489
▁chao	-6490
▁chùn	-6491
▁chảo	-6492
▁chấu	-6493
▁chắp	-6494
▁chửi	-6495
▁deah	-6496
▁diet	-6497
▁east	-6498
▁evel	-6499
▁hand	-6500
▁head	-6501
▁isis	-6502
▁jill	-6503
▁judy	-6504
▁karl	-6505
▁kash	-6506
▁khal	-6507
▁khay	-6508
▁kurd	-6509
▁kềnh	-6510
▁lake	-6511
▁land	-6512
▁life	-6513
▁liếc	-6514
▁love	-6515
▁milk	-6516
▁mênh	-6517
▁nash	-6518
▁neum	-6519
▁ngoi	-6520
▁ngời	-6521
▁nhót	-6522
▁nhẩm	-6523
▁palm	-6524
▁phẩy	-6525
▁risd	-6526
▁rush	-6527
▁rình	-6528
▁sofa	-6529
▁sopa	-6530
▁stac	-6531
▁stux	-6532
▁toát	-6533
▁unit	-6534
▁utah	-6535
▁uyên	-6536
▁vung	-6537
▁wifi	-6538
▁xiếc	-6539
▁đành	-6540
manuel	-6541
others	-6542
strong	-6543
▁agile	-6544
▁agnes	-6545
▁bobby	-6546
▁botsw	-6547
▁canxi	-6548
▁cuống	-6549
▁dimit	-6550
▁dubai	-6551
▁found	-6552
▁hindu	-6553
▁inuit	-6554
▁linus	-6555
▁ngạch	-6556
▁nhông	-6557
▁ninja	-6558
▁oprah	-6559
▁prism	-6560
▁roman	-6561
▁suông	-6562
▁thiển	-6563
▁vinci	-6564
▁vodka	-6565
▁xuyến	-6566
ational	-6567
minster	-6568
▁eiffel	-6569
▁elvish	-6570
▁engine	-6571
▁illino	-6572
▁methan	-6573
▁mobile	-6574
▁myriad	-6575
▁nghành	-6576
▁orwell	-6577
▁silver	-6578
▁sydney	-6579
▁truồng	-6580
▁viking	-6581
▁ecuador	-6582
▁erectus	-6583
▁jackson	-6584
▁lebanon	-6585
▁milimet	-6586
▁shirley	-6587
▁tunisia	-6588
▁amundsen	-6589
▁broadway	-6590
▁florence	-6591
▁friedman	-6592
▁michelle	-6593
▁nicholas	-6594
▁sebastian	-6595
▁adrenaline	-6596
▁alexandria	-6597
▁engineering	-6598
40	-6599
iv	-6600
lv	-6601
oy	-6602
ym	-6603
aka	-6604
atz	-6605
bes	-6606
ckt	-6607
dit	-6608
dul	-6609
ele	-6610
ept	-6611
icô	-6612
kar	-6613
kea	-6614
lia	-6615
ode	-6616
orm	-6617
rol	-6618
sin	-6619
uba	-6620
usa	-6621
zim	-6622
▁08	-6623
▁61	-6624
▁83	-6625
▁cq	-6626
▁cò	-6627
▁dể	-6628
▁há	-6629
▁hờ	-6630
▁lẹ	-6631
▁ml	-6632
▁nệ	-6633
▁rs	-6634
▁tb	-6635
▁tã	-6636
▁đễ	-6637
▁đờ	-6638
▁ẩu	-6639
adda	-6640
cker	-6641
enix	-6642
hran	-6643
ific	-6644
ivia	-6645
leon	-6646
moor	-6647
obyl	-6648
oper	-6649
pers	-6650
phua	-6651
real	-6652
▁abc	-6653
▁acc	-6654
▁aha	-6655
▁aqu	-6656
▁atm	-6657
▁bam	-6658
▁bmi	-6659
▁bry	-6660
▁cdc	-6661
▁chk	-6662
▁cir	-6663
▁cra	-6664
▁dam	-6665
▁dod	-6666
▁fat	-6667
▁fel	-6668
▁fuk	-6669
▁gau	-6670
▁giở	-6671
▁haz	-6672
▁hip	-6673
▁hlv	-6674
▁huh	-6675
▁héc	-6676
▁hòm	-6677
▁hói	-6678
▁iii	-6679
▁isa	-6680
▁joh	-6681
▁joy	-6682
▁líu	-6683
▁lún	-6684
▁lỏi	-6685
▁mba	-6686
▁mbi	-6687
▁moo	-6688
▁mồm	-6689
▁nba	-6690
▁nim	-6691
▁nom	-6692
▁nov	-6693
▁náu	-6694
▁pil	-6695
▁put	-6696
▁rub	-6697
▁rắm	-6698
▁sab	-6699
▁sur	-6700
▁thệ	-6701
▁tso	-6702
▁tạt	-6703
▁vôn	-6704
▁ôxy	-6705
▁đát	-6706
▁đên	-6707
chnya	-6708
garet	-6709
inson	-6710
ragon	-6711
▁1200	-6712
▁1700	-6713
▁1850	-6714
▁1953	-6715
▁1965	-6716
▁1966	-6717
▁1972	-6718
▁1976	-6719
▁1977	-6720
▁1982	-6721
▁3500	-6722
▁amin	-6723
▁bond	-6724
▁bono	-6725
▁chộp	-6726
▁chừa	-6727
▁cord	-6728
▁cồng	-6729
▁edin	-6730
▁gaga	-6731
▁gừng	-6732
▁hock	-6733
▁ikea	-6734
▁iron	-6735
▁june	-6736
▁khét	-6737
▁kris	-6738
▁lois	-6739
▁lucy	-6740
▁mard	-6741
▁miến	-6742
▁mosc	-6743
▁neut	-6744
▁nhoi	-6745
▁nhờn	-6746
▁pitt	-6747
▁rang	-6748
▁ryan	-6749
▁rắng	-6750
▁seth	-6751
▁sony	-6752
▁thây	-6753
▁thãi	-6754
▁trát	-6755
▁usda	-6756
▁vali	-6757
▁with	-6758
▁đung	-6759
cktail	-6760
nestia	-6761
▁11000	-6762
▁amira	-6763
▁bayes	-6764
▁bihar	-6765
▁brand	-6766
▁child	-6767
▁chuộc	-6768
▁coach	-6769
▁flick	-6770
▁grant	-6771
▁guồng	-6772
▁incra	-6773
▁leads	-6774
▁organ	-6775
▁sandy	-6776
▁scand	-6777
▁schul	-6778
▁thàng	-6779
▁xtanh	-6780
▁yuval	-6781
ematica	-6782
▁austin	-6783
▁bilbao	-6784
▁bonobo	-6785
▁calais	-6786
▁carlos	-6787
▁chường	-6788
▁cookie	-6789
▁econom	-6790
▁intern	-6791
▁kuwait	-6792
▁lauran	-6793
▁league	-6794
▁linked	-6795
▁nevada	-6796
▁ngượng	-6797
▁reagan	-6798
▁rivers	-6799
▁serena	-6800
▁stalin	-6801
▁stuart	-6802
▁tehran	-6803
▁tricer	-6804
▁walker	-6805
▁webcam	-6806
▁zipcar	-6807
▁zucker	-6808
▁anthony	-6809
▁bolivia	-6810
▁caitlin	-6811
▁crystal	-6812
▁dimitri	-6813
▁exosome	-6814
▁general	-6815
▁heather	-6816
▁indiana	-6817
▁jarrett	-6818
▁kilomet	-6819
▁leonard	-6820
▁phoenix	-6821
▁sarcoma	-6822
▁stuxnet	-6823
▁voyager	-6824
▁botswana	-6825
▁brothers	-6826
▁business	-6827
▁catadore	-6828
▁chechnya	-6829
▁cocktail	-6830
▁illinois	-6831
▁margaret	-6832
▁mitchell	-6833
▁synestia	-6834
▁biosphere	-6835
▁broadmoor	-6836
▁chernobyl	-6837
▁discovery	-6838
▁hamburger	-6839
▁stockholm	-6840
▁blackberry	-6841
▁buckminster	-6842
▁mathematica	-6843
▁triceratops	-6844
▁international	-6845
br	-6846
cô	-6847
dg	-6848
ek	-6849
iy	-6850
tb	-6851
xe	-6852
ça	-6853
▁ĩ	-6854
abi	-6855
aid	-6856
bul	-6857
can	-6858
cky	-6859
dia	-6860
eno	-6861
eva	-6862
far	-6863
flu	-6864
jev	-6865
lab	-6866
loe	-6867
lux	-6868
nee	-6869
nou	-6870
obe	-6871
ogy	-6872
phi	-6873
phy	-6874
ras	-6875
rix	-6876
vao	-6877
vet	-6878
wau	-6879
▁bc	-6880
▁bn	-6881
▁bẽ	-6882
▁bớ	-6883
▁cù	-6884
▁db	-6885
▁dj	-6886
▁dó	-6887
▁fb	-6888
▁gồ	-6889
▁gở	-6890
▁kw	-6891
▁rể	-6892
▁sg	-6893
▁um	-6894
▁uv	-6895
▁vế	-6896
▁vồ	-6897
▁xỏ	-6898
agas	-6899
aids	-6900
ance	-6901
ange	-6902
ayas	-6903
eber	-6904
endo	-6905
enna	-6906
enny	-6907
esar	-6908
essa	-6909
fred	-6910
guel	-6911
horn	-6912
illo	-6913
lett	-6914
mble	-6915
ocks	-6916
onte	-6917
pris	-6918
quez	-6919
ômét	-6920
▁aer	-6921
▁afg	-6922
▁bat	-6923
▁bbc	-6924
▁bla	-6925
▁bun	-6926
▁chê	-6927
▁cuả	-6928
▁càn	-6929
▁cút	-6930
▁cạm	-6931
▁dia	-6932
▁eme	-6933
▁epa	-6934
▁geh	-6935
▁gib	-6936
▁git	-6937
▁gẫu	-6938
▁heb	-6939
▁hum	-6940
▁hơp	-6941
▁hốt	-6942
▁hột	-6943
▁kab	-6944
▁kap	-6945
▁kaz	-6946
▁khẽ	-6947
▁lux	-6948
▁mir	-6949
▁mìn	-6950
▁múi	-6951
▁mải	-6952
▁mẩn	-6953
▁mịt	-6954
▁nfl	-6955
▁nik	-6956
▁noi	-6957
▁nok	-6958
▁nít	-6959
▁nĩa	-6960
▁pix	-6961
▁rex	-6962
▁rik	-6963
▁rus	-6964
▁sig	-6965
▁tab	-6966
▁trề	-6967
▁usb	-6968
▁via	-6969
▁vơi	-6970
▁xui	-6971
▁ổng	-6972
aghma	-6973
alore	-6974
annes	-6975
ative	-6976
eanor	-6977
ghtus	-6978
stone	-6979
▁1947	-6980
▁1962	-6981
▁1963	-6982
▁1971	-6983
▁amel	-6984
▁beck	-6985
▁book	-6986
▁buzz	-6987
▁carr	-6988
▁chan	-6989
▁chem	-6990
▁chòi	-6991
▁cóng	-6992
▁duke	-6993
▁fmri	-6994
▁gert	-6995
▁giùm	-6996
▁giẫm	-6997
▁hend	-6998
▁joan	-6999
▁kang	-7000
▁khắt	-7001
▁lady	-7002
▁lock	-7003
▁lạch	-7004
▁maps	-7005
▁marl	-7006
▁masa	-7007
▁ngán	-7008
▁nhàn	-7009
▁nhẹn	-7010
▁over	-7011
▁pear	-7012
▁pipa	-7013
▁reed	-7014
▁sach	-7015
▁sars	-7016
▁sulf	-7017
▁temp	-7018
▁thor	-7019
▁tuýp	-7020
▁ucla	-7021
▁vent	-7022
▁vlad	-7023
▁your	-7024
▁yves	-7025
▁đước	-7026
angelo	-7027
ashtag	-7028
celona	-7029
ushima	-7030
▁asper	-7031
▁betty	-7032
▁block	-7033
▁chưng	-7034
▁conor	-7035
▁dread	-7036
▁enzim	-7037
▁isaac	-7038
▁jamie	-7039
▁jonah	-7040
▁karen	-7041
▁laika	-7042
▁laura	-7043
▁loren	-7044
▁metan	-7045
▁nghiã	-7046
▁nghén	-7047
▁ngùng	-7048
▁ngỗng	-7049
▁nhộng	-7050
▁nương	-7051
▁parab	-7052
▁shadi	-7053
▁techn	-7054
▁thặng	-7055
▁todai	-7056
▁token	-7057
▁tròng	-7058
▁twain	-7059
▁wales	-7060
▁woody	-7061
▁yahoo	-7062
▁zetas	-7063
▁flickr	-7064
▁fuller	-7065
▁galvao	-7066
▁goldil	-7067
▁miguel	-7068
▁morgan	-7069
▁moscow	-7070
▁naghma	-7071
▁negrop	-7072
▁nghiến	-7073
▁oliver	-7074
▁report	-7075
▁warner	-7076
▁waters	-7077
noughtus	-7078
▁barbara	-7079
▁beatles	-7080
▁british	-7081
▁carroça	-7082
▁cornell	-7083
▁dioxide	-7084
▁eleanor	-7085
▁goldman	-7086
▁hashtag	-7087
▁melinda	-7088
▁neumann	-7089
▁project	-7090
▁rockett	-7091
▁telomer	-7092
▁emmanuel	-7093
▁hamilton	-7094
▁bangalore	-7095
▁bollywood	-7096
▁edinburgh	-7097
▁entropica	-7098
▁himalayas	-7099
▁nathaniel	-7100
▁samaritan	-7101
▁stevenson	-7102
▁afganistan	-7103
▁foundation	-7104
▁pheromones	-7105
▁zuckerberg	-7106
▁dreadnoughtus	-7107
dl	-7108
dr	-7109
eh	-7110
ij	-7111
tn	-7112
zo	-7113
âp	-7114
▁̣	-7115
ams	-7116
bee	-7117
emy	-7118
eot	-7119
esc	-7120
ets	-7121
imi	-7122
led	-7123
oac	-7124
rak	-7125
sha	-7126
tom	-7127
tor	-7128
tos	-7129
tra	-7130
uza	-7131
wne	-7132
xin	-7133
zen	-7134
zra	-7135
▁03	-7136
▁69	-7137
▁bở	-7138
▁ev	-7139
▁fs	-7140
▁hừ	-7141
▁ix	-7142
▁mè	-7143
▁mủ	-7144
▁oc	-7145
▁tq	-7146
▁vè	-7147
▁vù	-7148
▁ww	-7149
▁wy	-7150
▁yv	-7151
agos	-7152
alie	-7153
alle	-7154
ards	-7155
arel	-7156
cast	-7157
chan	-7158
ento	-7159
eter	-7160
ewey	-7161
eyer	-7162
hicô	-7163
iant	-7164
isco	-7165
jevo	-7166
ktop	-7167
lins	-7168
mour	-7169
riet	-7170
rios	-7171
rude	-7172
usor	-7173
vana	-7174
ycin	-7175
▁102	-7176
▁115	-7177
▁177	-7178
▁183	-7179
▁280	-7180
▁747	-7181
▁afr	-7182
▁ass	-7183
▁bmw	-7184
▁bái	-7185
▁bét	-7186
▁cer	-7187
▁cop	-7188
▁cot	-7189
▁càm	-7190
▁dùi	-7191
▁fol	-7192
▁ghề	-7193
▁gọt	-7194
▁hey	-7195
▁hom	-7196
▁hãn	-7197
▁ice	-7198
▁ide	-7199
▁ing	-7200
▁jir	-7201
▁jit	-7202
▁jol	-7203
▁khơ	-7204
▁kid	-7205
▁kir	-7206
▁lis	-7207
▁lăm	-7208
▁lẩm	-7209
▁lựu	-7210
▁mix	-7211
▁mảy	-7212
▁nih	-7213
▁nắn	-7214
▁nều	-7215
▁nệm	-7216
▁rot	-7217
▁ráo	-7218
▁rên	-7219
▁sav	-7220
▁sem	-7221
▁slo	-7222
▁spl	-7223
▁sri	-7224
▁sty	-7225
▁sài	-7226
▁sặc	-7227
▁tul	-7228
▁tệp	-7229
▁tịt	-7230
▁xắc	-7231
▁yum	-7232
aster	-7233
eline	-7234
ellon	-7235
ement	-7236
fford	-7237
ibari	-7238
itans	-7239
leigh	-7240
ssein	-7241
urnal	-7242
women	-7243
▁1915	-7244
▁1959	-7245
▁2040	-7246
▁amen	-7247
▁anna	-7248
▁base	-7249
▁bess	-7250
▁bừng	-7251
▁chev	-7252
▁chùa	-7253
▁cntb	-7254
▁cước	-7255
▁ding	-7256
▁doha	-7257
▁dộng	-7258
▁elon	-7259
▁gapm	-7260
▁gard	-7261
▁grey	-7262
▁hugh	-7263
▁irag	-7264
▁juan	-7265
▁jura	-7266
▁kahn	-7267
▁kiêm	-7268
▁lear	-7269
▁lind	-7270
▁loát	-7271
▁lênh	-7272
▁lóng	-7273
▁mann	-7274
▁mans	-7275
▁merc	-7276
▁moon	-7277
▁muội	-7278
▁nato	-7279
▁ngáy	-7280
▁ngốn	-7281
▁ngợm	-7282
▁nhan	-7283
▁nova	-7284
▁omar	-7285
▁oslo	-7286
▁phạn	-7287
▁phẩu	-7288
▁rese	-7289
▁roth	-7290
▁ruby	-7291
▁sard	-7292
▁side	-7293
▁thẩn	-7294
▁tori	-7295
▁toạc	-7296
▁trin	-7297
▁trầy	-7298
▁walt	-7299
▁witt	-7300
▁xiết	-7301
▁xoăn	-7302
dinger	-7303
erabad	-7304
muddin	-7305
vidian	-7306
waukee	-7307
▁ahmed	-7308
▁alexa	-7309
▁artem	-7310
▁bella	-7311
▁bloop	-7312
▁board	-7313
▁brain	-7314
▁casey	-7315
▁chùng	-7316
▁davis	-7317
▁delta	-7318
▁emeka	-7319
▁faiza	-7320
▁fermi	-7321
▁haram	-7322
▁hijab	-7323
▁horiz	-7324
▁human	-7325
▁huyện	-7326
▁islam	-7327
▁jamal	-7328
▁johns	-7329
▁khước	-7330
▁malta	-7331
▁ngoặc	-7332
▁ngàng	-7333
▁nhứng	-7334
▁nokia	-7335
▁phụng	-7336
▁rhino	-7337
▁riley	-7338
▁risen	-7339
▁ruồng	-7340
▁sally	-7341
▁serra	-7342
▁sirna	-7343
▁stand	-7344
▁stone	-7345
▁trườn	-7346
▁urani	-7347
▁voice	-7348
▁yusor	-7349
mingham	-7350
▁alfred	-7351
▁allele	-7352
▁anders	-7353
▁browne	-7354
▁cooper	-7355
▁cotton	-7356
▁empire	-7357
▁forbes	-7358
▁freder	-7359
▁gluten	-7360
▁ground	-7361
▁harvey	-7362
▁holmes	-7363
▁inches	-7364
▁jitney	-7365
▁julian	-7366
▁juliet	-7367
▁manson	-7368
▁mellon	-7369
▁methyl	-7370
▁pleuro	-7371
▁protoc	-7372
▁reddit	-7373
▁saddam	-7374
▁serbia	-7375
▁unaids	-7376
▁united	-7377
▁vladim	-7378
▁wilson	-7379
▁bandura	-7380
▁concert	-7381
▁desktop	-7382
▁dorothy	-7383
▁harriet	-7384
▁hussein	-7385
▁iphones	-7386
▁journal	-7387
▁kashmir	-7388
▁madison	-7389
▁michoac	-7390
▁neutron	-7391
▁seymour	-7392
▁terence	-7393
▁uranium	-7394
▁asperger	-7395
▁gertrude	-7396
▁greenlab	-7397
▁hyperbol	-7398
▁johannes	-7399
▁linkedin	-7400
▁research	-7401
▁sarajevo	-7402
▁tedwomen	-7403
▁armstrong	-7404
▁australia	-7405
▁barcelona	-7406
▁fukushima	-7407
▁gapminder	-7408
▁hyderabad	-7409
▁milwaukee	-7410
▁najmuddin	-7411
▁riverside	-7412
▁goldilocks	-7413
▁microphone	-7414
▁negroponte	-7415
▁queensland	-7416
▁samaritans	-7417
af	-7418
gt	-7419
ii	-7420
ty	-7421
uz	-7422
xo	-7423
ăt	-7424
▁ó	-7425
▁ỉ	-7426
ade	-7427
aki	-7428
amo	-7429
ano	-7430
api	-7431
awi	-7432
aws	-7433
bet	-7434
dal	-7435
des	-7436
fly	-7437
ful	-7438
gue	-7439
gus	-7440
ikh	-7441
ime	-7442
irl	-7443
iza	-7444
jad	-7445
kok	-7446
nik	-7447
nth	-7448
oit	-7449
ors	-7450
oss	-7451
ova	-7452
owa	-7453
pse	-7454
pur	-7455
rel	-7456
rsh	-7457
sky	-7458
tar	-7459
uay	-7460
war	-7461
êin	-7462
ườm	-7463
ễng	-7464
▁07	-7465
▁cc	-7466
▁cở	-7467
▁dí	-7468
▁fe	-7469
▁il	-7470
▁jk	-7471
▁kè	-7472
▁sá	-7473
▁tp	-7474
▁tỵ	-7475
▁uý	-7476
▁vs	-7477
▁vđ	-7478
▁wa	-7479
5000	-7480
amer	-7481
ando	-7482
ashy	-7483
atem	-7484
aton	-7485
augh	-7486
bera	-7487
boro	-7488
cake	-7489
clid	-7490
coin	-7491
côla	-7492
esel	-7493
ffle	-7494
gill	-7495
icef	-7496
irus	-7497
itra	-7498
lass	-7499
llip	-7500
meer	-7501
phal	-7502
pont	-7503
pson	-7504
rate	-7505
riel	-7506
than	-7507
uyễn	-7508
vent	-7509
watt	-7510
weil	-7511
west	-7512
▁123	-7513
▁240	-7514
▁bey	-7515
▁boo	-7516
▁buy	-7517
▁bít	-7518
▁bịu	-7519
▁bỏi	-7520
▁bợm	-7521
▁cit	-7522
▁cún	-7523
▁cảu	-7524
▁dot	-7525
▁dòi	-7526
▁end	-7527
▁giã	-7528
▁giũ	-7529
▁hợt	-7530
▁hừm	-7531
▁imf	-7532
▁let	-7533
▁lex	-7534
▁lét	-7535
▁lìa	-7536
▁moi	-7537
▁mẫm	-7538
▁mửa	-7539
▁nua	-7540
▁năn	-7541
▁nấy	-7542
▁oan	-7543
▁ole	-7544
▁pai	-7545
▁pam	-7546
▁ped	-7547
▁pul	-7548
▁ric	-7549
▁rip	-7550
▁rât	-7551
▁rữa	-7552
▁seo	-7553
▁sid	-7554
▁sào	-7555
▁sạt	-7556
▁sọt	-7557
▁sồi	-7558
▁taj	-7559
▁thò	-7560
▁tẹo	-7561
▁tợn	-7562
▁tủi	-7563
▁vul	-7564
▁vun	-7565
▁vữa	-7566
▁was	-7567
▁way	-7568
▁xóc	-7569
▁yếm	-7570
▁ươm	-7571
▁ắng	-7572
ality	-7573
duras	-7574
ector	-7575
erset	-7576
guson	-7577
icalc	-7578
iller	-7579
ismet	-7580
ittle	-7581
negut	-7582
oling	-7583
ology	-7584
owitz	-7585
ppist	-7586
rolux	-7587
rough	-7588
shire	-7589
tonia	-7590
udeau	-7591
▁1858	-7592
▁1902	-7593
▁1955	-7594
▁1956	-7595
▁1957	-7596
▁1964	-7597
▁alec	-7598
▁azer	-7599
▁bagh	-7600
▁beij	-7601
▁best	-7602
▁bion	-7603
▁boko	-7604
▁bolt	-7605
▁boul	-7606
▁bren	-7607
▁búng	-7608
▁bưởi	-7609
▁bồng	-7610
▁cern	-7611
▁chef	-7612
▁chầm	-7613
▁clar	-7614
▁cuốc	-7615
▁cọng	-7616
▁fern	-7617
▁font	-7618
▁gary	-7619
▁gill	-7620
▁gogh	-7621
▁hann	-7622
▁iowa	-7623
▁irắc	-7624
▁java	-7625
▁jaws	-7626
▁khập	-7627
▁kỉnh	-7628
▁leah	-7629
▁leia	-7630
▁lesb	-7631
▁lest	-7632
▁limb	-7633
▁list	-7634
▁lizz	-7635
▁marx	-7636
▁mclu	-7637
▁mess	-7638
▁mini	-7639
▁moma	-7640
▁more	-7641
▁mống	-7642
▁napo	-7643
▁ngấu	-7644
▁nhât	-7645
▁nhói	-7646
▁nhúm	-7647
▁nong	-7648
▁okol	-7649
▁oled	-7650
▁page	-7651
▁pass	-7652
▁phào	-7653
▁pyth	-7654
▁quây	-7655
▁quậy	-7656
▁ragu	-7657
▁rift	-7658
▁rosa	-7659
▁salv	-7660
▁sant	-7661
▁sept	-7662
▁shah	-7663
▁sisy	-7664
▁slow	-7665
▁sole	-7666
▁spac	-7667
▁task	-7668
▁team	-7669
▁tera	-7670
▁thon	-7671
▁thán	-7672
▁thât	-7673
▁thưc	-7674
▁thớt	-7675
▁tulu	-7676
▁tuốt	-7677
▁vãng	-7678
▁xước	-7679
▁90000	-7680
▁agloe	-7681
▁alham	-7682
▁atlas	-7683
▁banjo	-7684
▁cabin	-7685
▁chuốt	-7686
▁chũng	-7687
▁count	-7688
▁crick	-7689
▁donut	-7690
▁drake	-7691
▁enter	-7692
▁erica	-7693
▁glenn	-7694
▁hindi	-7695
▁hirsh	-7696
▁huyên	-7697
▁jamai	-7698
▁jonas	-7699
▁khiên	-7700
▁lanka	-7701
▁maine	-7702
▁miami	-7703
▁milan	-7704
▁moham	-7705
▁muỗng	-7706
▁nixon	-7707
▁nucle	-7708
▁okapi	-7709
▁owens	-7710
▁perip	-7711
▁point	-7712
▁putin	-7713
▁retro	-7714
▁sachs	-7715
▁saint	-7716
▁shack	-7717
▁smart	-7718
▁vitru	-7719
▁yemen	-7720
agascar	-7721
chester	-7722
▁700000	-7723
▁angela	-7724
▁athens	-7725
▁august	-7726
▁billie	-7727
▁cácbon	-7728
▁diesel	-7729
▁dublin	-7730
▁euclid	-7731
▁gallup	-7732
▁isarel	-7733
▁jabbar	-7734
▁kaluza	-7735
▁khiễng	-7736
▁kismet	-7737
▁marduk	-7738
▁mccain	-7739
▁mêhicô	-7740
▁nghiễm	-7741
▁nghĩnh	-7742
▁nhuyễn	-7743
▁patric	-7744
▁polyme	-7745
▁ronald	-7746
▁sergey	-7747
▁stacey	-7748
▁sôcôla	-7749
▁unesco	-7750
▁unicef	-7751
▁valent	-7752
▁vivian	-7753
▁yellow	-7754
rosaurus	-7755
▁bangkok	-7756
▁beckett	-7757
▁bitcoin	-7758
▁cargill	-7759
▁catalog	-7760
▁comment	-7761
▁complex	-7762
▁dollars	-7763
▁network	-7764
▁pauling	-7765
▁phillip	-7766
▁septima	-7767
▁simpson	-7768
▁splashy	-7769
▁trudeau	-7770
▁vermeer	-7771
▁dominica	-7772
▁ferguson	-7773
▁honduras	-7774
▁montreal	-7775
▁napoleon	-7776
▁scandina	-7777
▁somerset	-7778
▁trappist	-7779
▁visicalc	-7780
▁vonnegut	-7781
▁churchill	-7782
▁dickinson	-7783
▁economist	-7784
▁frederick	-7785
▁pleurobot	-7786
▁madagascar	-7787
▁reboxetine	-7788
▁taskrabbit	-7789
▁telomerase	-7790
▁university	-7791
▁michelangelo	-7792
15	-7793
48	-7794
ae	-7795
rô	-7796
uj	-7797
wl	-7798
yt	-7799
zơ	-7800
ều	-7801
▁ì	-7802
ahu	-7803
akh	-7804
bab	-7805
bai	-7806
bil	-7807
boy	-7808
bra	-7809
cas	-7810
cho	-7811
dad	-7812
dem	-7813
dom	-7814
eca	-7815
eev	-7816
eme	-7817
fen	-7818
gre	-7819
gtk	-7820
ias	-7821
igr	-7822
ike	-7823
iki	-7824
ize	-7825
lic	-7826
off	-7827
out	-7828
pan	-7829
pho	-7830
res	-7831
sek	-7832
ute	-7833
wor	-7834
▁06	-7835
▁aa	-7836
▁bb	-7837
▁bp	-7838
▁bô	-7839
▁bẹ	-7840
▁bợ	-7841
▁ce	-7842
▁dẻ	-7843
▁gí	-7844
▁hm	-7845
▁hí	-7846
▁jf	-7847
▁jt	-7848
▁lả	-7849
▁mh	-7850
▁mj	-7851
▁nê	-7852
▁ot	-7853
▁ps	-7854
▁wt	-7855
akir	-7856
amie	-7857
ania	-7858
anin	-7859
arin	-7860
athy	-7861
ayor	-7862
bath	-7863
cter	-7864
ddly	-7865
desh	-7866
ding	-7867
dore	-7868
elli	-7869
enza	-7870
erox	-7871
esis	-7872
gram	-7873
hhhh	-7874
iago	-7875
iber	-7876
idad	-7877
idge	-7878
ilia	-7879
ions	-7880
kash	-7881
lang	-7882
leot	-7883
mont	-7884
ogad	-7885
ogra	-7886
oker	-7887
osem	-7888
reka	-7889
rene	-7890
rent	-7891
rice	-7892
star	-7893
stem	-7894
teau	-7895
ttar	-7896
ular	-7897
view	-7898
wind	-7899
witz	-7900
▁165	-7901
▁365	-7902
▁abe	-7903
▁ada	-7904
▁amb	-7905
▁ast	-7906
▁bkt	-7907
▁bog	-7908
▁bèn	-7909
▁bói	-7910
▁bứt	-7911
▁dặt	-7912
▁ear	-7913
▁eeg	-7914
▁eli	-7915
▁exp	-7916
▁gig	-7917
▁gil	-7918
▁gir	-7919
▁gẫy	-7920
▁hab	-7921
▁hil	-7922
▁htt	-7923
▁hắc	-7924
▁hổi	-7925
▁iss	-7926
▁jet	-7927
▁job	-7928
▁kip	-7929
▁lid	-7930
▁lóc	-7931
▁lúp	-7932
▁map	-7933
▁nas	-7934
▁nex	-7935
▁nhơ	-7936
▁now	-7937
▁nst	-7938
▁pay	-7939
▁pcb	-7940
▁pxe	-7941
▁ret	-7942
▁rid	-7943
▁rám	-7944
▁ròi	-7945
▁rôi	-7946
▁sed	-7947
▁sev	-7948
▁shi	-7949
▁squ	-7950
▁sầm	-7951
▁tnc	-7952
▁típ	-7953
▁tót	-7954
▁tầu	-7955
▁vac	-7956
▁var	-7957
▁vút	-7958
▁vđv	-7959
▁vẩy	-7960
▁vằn	-7961
▁vỏn	-7962
▁wag	-7963
▁wis	-7964
▁wol	-7965
▁xổi	-7966
▁xới	-7967
▁zig	-7968
▁zul	-7969
▁ôxi	-7970
▁đái	-7971
▁đểu	-7972
abaab	-7973
chang	-7974
icsek	-7975
ition	-7976
oodoo	-7977
ordis	-7978
rahim	-7979
rtigr	-7980
valds	-7981
zweil	-7982
▁1300	-7983
▁1400	-7984
▁1910	-7985
▁1949	-7986
▁1954	-7987
▁1967	-7988
▁1981	-7989
▁2100	-7990
▁7500	-7991
▁baby	-7992
▁ball	-7993
▁bart	-7994
▁bear	-7995
▁beau	-7996
▁born	-7997
▁brah	-7998
▁bull	-7999
▁bảnh	-8000
▁bềnh	-8001
▁chẩm	-8002
▁coli	-8003
▁corp	-8004
▁cruz	-8005
▁cura	-8006
▁dana	-8007
▁dmca	-8008
▁fair	-8009
▁farm	-8010
▁fire	-8011
▁fish	-8012
▁giếm	-8013
▁hany	-8014
▁huck	-8015
▁jedi	-8016
▁jump	-8017
▁jung	-8018
▁kard	-8019
▁khải	-8020
▁kiệu	-8021
▁know	-8022
▁lươn	-8023
▁mali	-8024
▁mash	-8025
▁mick	-8026
▁mind	-8027
▁musk	-8028
▁máng	-8029
▁ngưu	-8030
▁ngạn	-8031
▁ngậm	-8032
▁nheo	-8033
▁nhút	-8034
▁nhậm	-8035
▁niết	-8036
▁nuớc	-8037
▁peer	-8038
▁pena	-8039
▁prov	-8040
▁quai	-8041
▁quar	-8042
▁quot	-8043
▁quác	-8044
▁roma	-8045
▁ráng	-8046
▁rông	-8047
▁salt	-8048
▁self	-8049
▁snap	-8050
▁stat	-8051
▁sumi	-8052
▁tata	-8053
▁tiều	-8054
▁trib	-8055
▁trĩu	-8056
▁trợn	-8057
▁tuối	-8058
▁uyển	-8059
▁vera	-8060
▁vila	-8061
▁vill	-8062
▁what	-8063
▁whoo	-8064
▁đặng	-8065
apagos	-8066
ardian	-8067
baijan	-8068
carbon	-8069
inness	-8070
intosh	-8071
stream	-8072
tzmann	-8073
▁anten	-8074
▁aygtk	-8075
▁beyon	-8076
▁blake	-8077
▁bloom	-8078
▁break	-8079
▁bryan	-8080
▁burke	-8081
▁burma	-8082
▁bướng	-8083
▁chánh	-8084
▁cloud	-8085
▁diana	-8086
▁dolly	-8087
▁ellen	-8088
▁elvis	-8089
▁enron	-8090
▁exxon	-8091
▁feder	-8092
▁gehry	-8093
▁giăng	-8094
▁jeans	-8095
▁jirga	-8096
▁kaaba	-8097
▁kilog	-8098
▁lloyd	-8099
▁marco	-8100
▁marie	-8101
▁match	-8102
▁meyer	-8103
▁mills	-8104
▁model	-8105
▁naomi	-8106
▁navid	-8107
▁nylon	-8108
▁orion	-8109
▁pants	-8110
▁phung	-8111
▁phước	-8112
▁quặng	-8113
▁randy	-8114
▁selma	-8115
▁seoul	-8116
▁silic	-8117
▁space	-8118
▁speed	-8119
▁think	-8120
▁tibet	-8121
▁tuyền	-8122
▁uttar	-8123
▁vicky	-8124
▁woods	-8125
▁xerox	-8126
▁yosem	-8127
akhstan	-8128
atemala	-8129
borough	-8130
eribari	-8131
fluenza	-8132
hamitra	-8133
▁achill	-8134
▁afghan	-8135
▁africa	-8136
▁angola	-8137
▁arabia	-8138
▁carson	-8139
▁castro	-8140
▁center	-8141
▁challe	-8142
▁cheryl	-8143
▁common	-8144
▁curios	-8145
▁design	-8146
▁esther	-8147
▁eureka	-8148
▁gamora	-8149
▁geiger	-8150
▁geneva	-8151
▁hebrew	-8152
▁impact	-8153
▁little	-8154
▁merkel	-8155
▁miller	-8156
▁monica	-8157
▁pascal	-8158
▁porter	-8159
▁salman	-8160
▁sardin	-8161
▁spring	-8162
▁target	-8163
▁teresa	-8164
▁valley	-8165
▁viagra	-8166
▁voodoo	-8167
changing	-8168
▁america	-8169
▁baghdad	-8170
▁bowling	-8171
▁central	-8172
▁college	-8173
▁conlang	-8174
▁drucker	-8175
▁duoling	-8176
▁hopkins	-8177
▁hurtigr	-8178
▁ibrahim	-8179
▁jordans	-8180
▁karachi	-8181
▁kilômét	-8182
▁kleiber	-8183
▁langley	-8184
▁laramie	-8185
▁machine	-8186
▁marlene	-8187
▁mcluhan	-8188
▁natalia	-8189
▁nucleic	-8190
▁okoloma	-8191
▁pradesh	-8192
▁prakash	-8193
▁saharan	-8194
▁shabaab	-8195
▁stanley	-8196
▁sunphua	-8197
▁tedster	-8198
▁thordis	-8199
▁vincent	-8200
▁alhambra	-8201
▁caroline	-8202
▁creative	-8203
▁guardian	-8204
▁guinness	-8205
▁himalaya	-8206
▁kurzweil	-8207
▁robicsek	-8208
▁terabyte	-8209
▁theodore	-8210
▁torvalds	-8211
▁vladimir	-8212
▁yosemite	-8213
▁boltzmann	-8214
▁cellulose	-8215
▁dravidian	-8216
▁galapagos	-8217
▁hirshhorn	-8218
▁kurdistan	-8219
▁mendeleev	-8220
▁azerbaijan	-8221
▁birmingham	-8222
▁electrolux	-8223
▁kazakhstan	-8224
▁torosaurus	-8225
▁hurtigruten	-8226
▁sanghamitra	-8227
▁yellowstone	-8228
24	-8229
60	-8230
87	-8231
97	-8232
cs	-8233
cé	-8234
ju	-8235
lk	-8236
rö	-8237
đi	-8238
⁄4	-8239
chu	-8240
clo	-8241
cop	-8242
cut	-8243
eid	-8244
ezi	-8245
iba	-8246
iew	-8247
ito	-8248
kes	-8249
lac	-8250
lph	-8251
mee	-8252
obi	-8253
oco	-8254
oll	-8255
our	-8256
pal	-8257
par	-8258
urf	-8259
ury	-8260
çao	-8261
▁04	-8262
▁bf	-8263
▁bs	-8264
▁cv	-8265
▁dả	-8266
▁eh	-8267
▁gc	-8268
▁ht	-8269
▁lì	-8270
▁lổ	-8271
▁nn	-8272
▁nỉ	-8273
▁pô	-8274
▁tề	-8275
▁ue	-8276
▁ối	-8277
▁ốt	-8278
able	-8279
acco	-8280
ador	-8281
atra	-8282
bine	-8283
born	-8284
burn	-8285
cept	-8286
chat	-8287
chen	-8288
cock	-8289
come	-8290
core	-8291
dale	-8292
edes	-8293
enol	-8294
erin	-8295
ertz	-8296
esha	-8297
eway	-8298
flow	-8299
gate	-8300
hman	-8301
icks	-8302
ilyn	-8303
ious	-8304
iper	-8305
iter	-8306
kien	-8307
kman	-8308
load	-8309
mani	-8310
nell	-8311
olph	-8312
omon	-8313
oney	-8314
oods	-8315
phus	-8316
plin	-8317
rius	-8318
rome	-8319
rosh	-8320
ruct	-8321
sche	-8322
stoy	-8323
walk	-8324
znet	-8325
▁005	-8326
▁103	-8327
▁111	-8328
▁128	-8329
▁135	-8330
▁137	-8331
▁602	-8332
▁650	-8333
▁750	-8334
▁911	-8335
▁add	-8336
▁are	-8337
▁bjk	-8338
▁boe	-8339
▁bul	-8340
▁bậy	-8341
▁cla	-8342
▁clb	-8343
▁csf	-8344
▁cte	-8345
▁deg	-8346
▁diy	-8347
▁dob	-8348
▁dow	-8349
▁dyn	-8350
▁dũa	-8351
▁dột	-8352
▁dứa	-8353
▁eff	-8354
▁egg	-8355
▁eis	-8356
▁esp	-8357
▁fal	-8358
▁fil	-8359
▁fly	-8360
▁fra	-8361
▁gnh	-8362
▁gàn	-8363
▁hau	-8364
▁hux	-8365
▁hởi	-8366
▁jai	-8367
▁jor	-8368
▁kin	-8369
▁kit	-8370
▁kền	-8371
▁laf	-8372
▁lia	-8373
▁lsd	-8374
▁lèo	-8375
▁lút	-8376
▁lơn	-8377
▁lộc	-8378
▁lới	-8379
▁mik	-8380
▁mom	-8381
▁mul	-8382
▁mun	-8383
▁mía	-8384
▁mõm	-8385
▁múc	-8386
▁mốt	-8387
▁nag	-8388
▁nài	-8389
▁nạo	-8390
▁nẻo	-8391
▁nớt	-8392
▁ork	-8393
▁oán	-8394
▁phà	-8395
▁pia	-8396
▁prô	-8397
▁raj	-8398
▁rọc	-8399
▁shu	-8400
▁sit	-8401
▁sms	-8402
▁sox	-8403
▁sảo	-8404
▁sẫm	-8405
▁tag	-8406
▁tat	-8407
▁tee	-8408
▁tet	-8409
▁toé	-8410
▁two	-8411
▁tào	-8412
▁tấp	-8413
▁ukr	-8414
▁ulu	-8415
▁usc	-8416
▁vin	-8417
▁vẹo	-8418
▁vờn	-8419
▁wes	-8420
▁won	-8421
▁xẻo	-8422
▁yad	-8423
▁yam	-8424
▁yan	-8425
▁zen	-8426
▁ách	-8427
▁óng	-8428
▁đày	-8429
berta	-8430
cutta	-8431
eball	-8432
esome	-8433
ffman	-8434
house	-8435
iform	-8436
inawa	-8437
inley	-8438
insey	-8439
isenh	-8440
ister	-8441
itzer	-8442
leton	-8443
mouth	-8444
omery	-8445
▁1912	-8446
▁1917	-8447
▁1941	-8448
▁1974	-8449
▁1978	-8450
▁6500	-8451
▁aral	-8452
▁berg	-8453
▁bras	-8454
▁bòng	-8455
▁celt	-8456
▁chat	-8457
▁chau	-8458
▁chaz	-8459
▁chỏm	-8460
▁chực	-8461
▁clay	-8462
▁clev	-8463
▁club	-8464
▁coum	-8465
▁cous	-8466
▁cphi	-8467
▁cáng	-8468
▁dest	-8469
▁dich	-8470
▁diếm	-8471
▁diếp	-8472
▁dmit	-8473
▁elip	-8474
▁extr	-8475
▁ezra	-8476
▁fall	-8477
▁fiji	-8478
▁gail	-8479
▁gezi	-8480
▁held	-8481
▁hiều	-8482
▁hoay	-8483
▁homs	-8484
▁http	-8485
▁hunt	-8486
▁igbo	-8487
▁jain	-8488
▁jeep	-8489
▁kant	-8490
▁kate	-8491
▁keyn	-8492
▁knee	-8493
▁ling	-8494
▁loay	-8495
▁luke	-8496
▁lâng	-8497
▁lảng	-8498
▁mani	-8499
▁mass	-8500
▁muti	-8501
▁mòng	-8502
▁nanh	-8503
▁nemo	-8504
▁neon	-8505
▁nghê	-8506
▁ngấy	-8507
▁ngụm	-8508
▁nhoà	-8509
▁nhác	-8510
▁nhám	-8511
▁nhẵn	-8512
▁noor	-8513
▁osun	-8514
▁path	-8515
▁plut	-8516
▁pres	-8517
▁prom	-8518
▁quắt	-8519
▁robb	-8520
▁sari	-8521
▁sảng	-8522
▁that	-8523
▁trip	-8524
▁trãi	-8525
▁trôn	-8526
▁turk	-8527
▁type	-8528
▁tành	-8529
▁umar	-8530
▁vừng	-8531
▁wang	-8532
▁whis	-8533
▁zapp	-8534
▁điox	-8535
▁đênh	-8536
addafi	-8537
apolis	-8538
bourne	-8539
consin	-8540
esacco	-8541
loween	-8542
ogadro	-8543
▁aires	-8544
▁altos	-8545
▁andes	-8546
▁athen	-8547
▁barry	-8548
▁basil	-8549
▁brill	-8550
▁chand	-8551
▁daily	-8552
▁dream	-8553
▁dyson	-8554
▁fedex	-8555
▁ghita	-8556
▁giêng	-8557
▁gmail	-8558
▁hardy	-8559
▁heath	-8560
▁hills	-8561
▁himba	-8562
▁homer	-8563
▁ideal	-8564
▁istan	-8565
▁khoét	-8566
▁lidar	-8567
▁lipid	-8568
▁loáng	-8569
▁medic	-8570
▁micrô	-8571
▁modem	-8572
▁mosul	-8573
▁music	-8574
▁mêtan	-8575
▁nancy	-8576
▁nanoc	-8577
▁netra	-8578
▁ngông	-8579
▁ngưởi	-8580
▁nhang	-8581
▁niger	-8582
▁orkut	-8583
▁pedro	-8584
▁phăng	-8585
▁pixar	-8586
▁poker	-8587
▁prego	-8588
▁prius	-8589
▁remix	-8590
▁right	-8591
▁schrö	-8592
▁shows	-8593
▁siêng	-8594
▁sousa	-8595
▁thoai	-8596
▁tonya	-8597
▁trạch	-8598
▁usain	-8599
▁xuồng	-8600
artheid	-8601
enstein	-8602
ersburg	-8603
leotide	-8604
mblebee	-8605
ramento	-8606
▁adrian	-8607
▁alexis	-8608
▁atkins	-8609
▁avatar	-8610
▁baakir	-8611
▁balkan	-8612
▁bergen	-8613
▁bionic	-8614
▁borneo	-8615
▁braxin	-8616
▁caucas	-8617
▁derart	-8618
▁dioxit	-8619
▁domino	-8620
▁eisenh	-8621
▁gamble	-8622
▁gloria	-8623
▁hamlet	-8624
▁hannah	-8625
▁hansen	-8626
▁harris	-8627
▁helium	-8628
▁hockey	-8629
▁kenema	-8630
▁kibera	-8631
▁knight	-8632
▁kuznet	-8633
▁legend	-8634
▁loisfo	-8635
▁marcus	-8636
▁micron	-8637
▁montag	-8638
▁mormon	-8639
▁morris	-8640
▁nature	-8641
▁ngoảnh	-8642
▁panama	-8643
▁pierre	-8644
▁regina	-8645
▁sheila	-8646
▁sheryl	-8647
▁sophia	-8648
▁sulfur	-8649
▁system	-8650
▁vienna	-8651
▁wagner	-8652
▁allison	-8653
▁artemis	-8654
▁awesome	-8655
▁beyoncé	-8656
▁boulder	-8657
▁brianna	-8658
▁calorie	-8659
▁collect	-8660
▁collins	-8661
▁cornish	-8662
▁curaçao	-8663
▁douglas	-8664
▁edwards	-8665
▁freeman	-8666
▁gabriel	-8667
▁gaddafi	-8668
▁herbert	-8669
▁humanae	-8670
▁ironman	-8671
▁jamaica	-8672
▁jessica	-8673
▁karajan	-8674
▁kardash	-8675
▁marilyn	-8676
▁natalie	-8677
▁okinawa	-8678
▁ottoman	-8679
▁pacific	-8680
▁parabol	-8681
▁patagon	-8682
▁raleigh	-8683
▁rebecca	-8684
▁tolkien	-8685
▁tolstoy	-8686
▁ukraine	-8687
▁vanessa	-8688
▁avogadro	-8689
▁calcutta	-8690
▁cousteau	-8691
▁duolingo	-8692
▁horizons	-8693
▁istanbul	-8694
▁mckinley	-8695
▁palestin	-8696
▁robinson	-8697
▁salvador	-8698
▁santiago	-8699
▁sardinia	-8700
▁sisyphus	-8701
▁terawatt	-8702
▁apartheid	-8703
▁brilliant	-8704
▁bumblebee	-8705
▁christine	-8706
▁curiosity	-8707
▁guatemala	-8708
▁halloween	-8709
▁macintosh	-8710
▁melbourne	-8711
▁nashville	-8712
▁wisconsin	-8713
▁beatboxing	-8714
▁challenger	-8715
▁eisenhower	-8716
▁greenville	-8717
▁petersburg	-8718
▁sacramento	-8719
▁smartphone	-8720
▁hydrocarbon	-8721
▁millennials	-8722
▁scandinavia	-8723
▁schrödinger	-8724
▁johannesburg	-8725
▁justinesacco	-8726
▁loisfoeribari	-8727
22	-8728
41	-8729
58	-8730
95	-8731
bl	-8732
md	-8733
mr	-8734
zi	-8735
ẵm	-8736
▁ù	-8737
▁ợ	-8738
aco	-8739
acy	-8740
alf	-8741
als	-8742
ank	-8743
bod	-8744
boh	-8745
cap	-8746
ces	-8747
cia	-8748
cle	-8749
eim	-8750
esk	-8751
hna	-8752
ife	-8753
ika	-8754
ior	-8755
lie	-8756
los	-8757
lyc	-8758
mel	-8759
ocy	-8760
omo	-8761
oon	-8762
pot	-8763
ret	-8764
rip	-8765
roe	-8766
rov	-8767
run	-8768
ryn	-8769
tct	-8770
ula	-8771
utt	-8772
vit	-8773
vot	-8774
▁cs	-8775
▁ey	-8776
▁fu	-8777
▁ik	-8778
▁jn	-8779
▁jp	-8780
▁ll	-8781
▁mv	-8782
▁mw	-8783
▁pd	-8784
▁sv	-8785
▁sỏ	-8786
▁xị	-8787
▁yr	-8788
▁ùa	-8789
▁đọ	-8790
▁ẵm	-8791
abil	-8792
adus	-8793
aire	-8794
alan	-8795
ambi	-8796
amos	-8797
atas	-8798
ater	-8799
ause	-8800
bach	-8801
bago	-8802
ball	-8803
bane	-8804
bard	-8805
bell	-8806
bilt	-8807
blog	-8808
card	-8809
chio	-8810
clif	-8811
clop	-8812
eech	-8813
elop	-8814
emer	-8815
enos	-8816
etia	-8817
evor	-8818
ewks	-8819
idas	-8820
iety	-8821
ilin	-8822
inin	-8823
ista	-8824
ists	-8825
ivik	-8826
koff	-8827
lean	-8828
less	-8829
mail	-8830
mand	-8831
mund	-8832
onel	-8833
onna	-8834
quia	-8835
raib	-8836
rani	-8837
rect	-8838
rico	-8839
ries	-8840
sari	-8841
shot	-8842
umen	-8843
usty	-8844
vich	-8845
vius	-8846
wave	-8847
ylen	-8848
▁106	-8849
▁149	-8850
▁207	-8851
▁466	-8852
▁550	-8853
▁aar	-8854
▁aid	-8855
▁ale	-8856
▁aur	-8857
▁bah	-8858
▁bau	-8859
▁bri	-8860
▁bốp	-8861
▁bủa	-8862
▁cbs	-8863
▁chẻ	-8864
▁cur	-8865
▁cỡi	-8866
▁ddt	-8867
▁dee	-8868
▁dep	-8869
▁dsm	-8870
▁dìm	-8871
▁dùm	-8872
▁dậm	-8873
▁dật	-8874
▁eka	-8875
▁ess	-8876
▁etc	-8877
▁eur	-8878
▁fav	-8879
▁fey	-8880
▁fez	-8881
▁fis	-8882
▁gin	-8883
▁goi	-8884
▁gon	-8885
▁gun	-8886
▁gài	-8887
▁gắm	-8888
▁gột	-8889
▁hew	-8890
▁hog	-8891
▁hoo	-8892
▁hăm	-8893
▁hạc	-8894
▁hạm	-8895
▁hấn	-8896
▁hất	-8897
▁hấu	-8898
▁ian	-8899
▁ipo	-8900
▁ivy	-8901
▁kaf	-8902
▁kak	-8903
▁kan	-8904
▁kra	-8905
▁kry	-8906
▁kẽm	-8907
▁kếp	-8908
▁liu	-8909
▁loi	-8910
▁loã	-8911
▁lẻn	-8912
▁mae	-8913
▁maj	-8914
▁mak	-8915
▁mam	-8916
▁mmm	-8917
▁mtv	-8918
▁mỏm	-8919
▁nbc	-8920
▁nhữ	-8921
▁nng	-8922
▁nrk	-8923
▁náp	-8924
▁obi	-8925
▁ody	-8926
▁oed	-8927
▁ola	-8928
▁paj	-8929
▁pav	-8930
▁phũ	-8931
▁pim	-8932
▁psa	-8933
▁quế	-8934
▁qủa	-8935
▁rah	-8936
▁rca	-8937
▁rco	-8938
▁ria	-8939
▁ruy	-8940
▁rụt	-8941
▁sec	-8942
▁sha	-8943
▁sưa	-8944
▁sần	-8945
▁sẳn	-8946
▁tak	-8947
▁tcn	-8948
▁tit	-8949
▁trổ	-8950
▁tuc	-8951
▁tui	-8952
▁tun	-8953
▁typ	-8954
▁tíc	-8955
▁tẩm	-8956
▁tời	-8957
▁ufo	-8958
▁wav	-8959
▁wii	-8960
▁xép	-8961
▁xúi	-8962
▁xốt	-8963
▁zap	-8964
▁zom	-8965
▁đển	-8966
annel	-8967
astic	-8968
athai	-8969
aware	-8970
berto	-8971
bohyd	-8972
cardo	-8973
corex	-8974
culus	-8975
ennis	-8976
etton	-8977
ginot	-8978
illia	-8979
kheim	-8980
lasia	-8981
ococc	-8982
ority	-8983
prise	-8984
ptist	-8985
quart	-8986
raina	-8987
uguay	-8988
worth	-8989
zarus	-8990
zeiro	-8991
▁1870	-8992
▁1919	-8993
▁1928	-8994
▁1939	-8995
▁1944	-8996
▁1952	-8997
▁alps	-8998
▁alto	-8999
▁anuk	-9000
▁bazơ	-9001
▁bfib	-9002
▁bowl	-9003
▁bris	-9004
▁buốt	-9005
▁caff	-9006
▁caps	-9007
▁cath	-9008
▁chin	-9009
▁chun	-9010
▁chác	-9011
▁chịt	-9012
▁code	-9013
▁crow	-9014
▁cuồn	-9015
▁cẳng	-9016
▁data	-9017
▁diam	-9018
▁diff	-9019
▁doub	-9020
▁fala	-9021
▁feed	-9022
▁forr	-9023
▁free	-9024
▁frid	-9025
▁gang	-9026
▁glad	-9027
▁glas	-9028
▁gott	-9029
▁grim	-9030
▁gulf	-9031
▁gằng	-9032
▁haha	-9033
▁hatz	-9034
▁hist	-9035
▁hole	-9036
▁hosp	-9037
▁hoăc	-9038
▁huli	-9039
▁hòng	-9040
▁joey	-9041
▁kali	-9042
▁katy	-9043
▁khạo	-9044
▁kiki	-9045
▁kool	-9046
▁lich	-9047
▁liêm	-9048
▁lose	-9049
▁lẳng	-9050
▁mama	-9051
▁marc	-9052
▁mili	-9053
▁mond	-9054
▁mult	-9055
▁môtô	-9056
▁nand	-9057
▁nava	-9058
▁nhàu	-9059
▁nhúc	-9060
▁noam	-9061
▁opec	-9062
▁pach	-9063
▁palo	-9064
▁pent	-9065
▁peop	-9066
▁pers	-9067
▁phen	-9068
▁phết	-9069
▁prav	-9070
▁pred	-9071
▁punk	-9072
▁quix	-9073
▁quắp	-9074
▁rupi	-9075
▁rúng	-9076
▁rẳng	-9077
▁sams	-9078
▁sean	-9079
▁seri	-9080
▁soda	-9081
▁sval	-9082
▁sủng	-9083
▁tech	-9084
▁tedg	-9085
▁thưở	-9086
▁thằn	-9087
▁tivo	-9088
▁tong	-9089
▁torn	-9090
▁truỵ	-9091
▁trìu	-9092
▁trọc	-9093
▁tusc	-9094
▁unil	-9095
▁view	-9096
▁visa	-9097
▁vãnh	-9098
▁vênh	-9099
▁vông	-9100
▁wide	-9101
▁wins	-9102
▁zach	-9103
▁zeus	-9104
▁đanh	-9105
ancial	-9106
cephal	-9107
cliffe	-9108
erinck	-9109
esaver	-9110
etheus	-9111
gomery	-9112
linger	-9113
nister	-9114
velace	-9115
vetica	-9116
▁13000	-9117
▁14000	-9118
▁18000	-9119
▁23000	-9120
▁24000	-9121
▁85000	-9122
▁adams	-9123
▁aimee	-9124
▁alley	-9125
▁alvin	-9126
▁anton	-9127
▁ariel	-9128
▁blanc	-9129
▁build	-9130
▁cesar	-9131
▁cupid	-9132
▁dewey	-9133
▁dough	-9134
▁dượng	-9135
▁eliot	-9136
▁encel	-9137
▁erick	-9138
▁excel	-9139
▁facit	-9140
▁force	-9141
▁frans	-9142
▁franz	-9143
▁ganđi	-9144
▁gượng	-9145
▁haidt	-9146
▁indra	-9147
▁intel	-9148
▁italy	-9149
▁kabul	-9150
▁keene	-9151
▁kiếng	-9152
▁lapse	-9153
▁laugh	-9154
▁liber	-9155
▁luxem	-9156
▁magic	-9157
▁minne	-9158
▁newsw	-9159
▁ngoạc	-9160
▁nhiêm	-9161
▁nhằng	-9162
▁olden	-9163
▁paolo	-9164
▁papua	-9165
▁parag	-9166
▁patri	-9167
▁paula	-9168
▁pearl	-9169
▁perry	-9170
▁phàng	-9171
▁pitts	-9172
▁plaza	-9173
▁pmtct	-9174
▁polar	-9175
▁price	-9176
▁ralph	-9177
▁razan	-9178
▁ricky	-9179
▁rufus	-9180
▁sagan	-9181
▁salsa	-9182
▁selam	-9183
▁selig	-9184
▁spiel	-9185
▁tempt	-9186
▁terra	-9187
▁tewks	-9188
▁thiếc	-9189
▁trust	-9190
▁union	-9191
▁whirl	-9192
▁wings	-9193
ambique	-9194
▁350000	-9195
▁acumen	-9196
▁adidas	-9197
▁advent	-9198
▁analog	-9199
▁bartok	-9200
▁bieber	-9201
▁boeing	-9202
▁bombay	-9203
▁breath	-9204
▁brenda	-9205
▁buenos	-9206
▁celtic	-9207
▁chemok	-9208
▁cocain	-9209
▁debbie	-9210
▁enrico	-9211
▁evelyn	-9212
▁galton	-9213
▁ghraib	-9214
▁havana	-9215
▁hazare	-9216
▁hirosh	-9217
▁hypers	-9218
▁joplin	-9219
▁kerala	-9220
▁khuông	-9221
▁kinsey	-9222
▁kuiper	-9223
▁lauren	-9224
▁lehman	-9225
▁master	-9226
▁monkey	-9227
▁orange	-9228
▁parain	-9229
▁planet	-9230
▁review	-9231
▁server	-9232
▁sharon	-9233
▁spacex	-9234
▁statin	-9235
▁suther	-9236
▁tipper	-9237
▁tobago	-9238
▁trevor	-9239
▁trojan	-9240
▁truờng	-9241
▁vaccin	-9242
▁vander	-9243
▁vector	-9244
▁victor	-9245
▁videos	-9246
▁violet	-9247
▁yester	-9248
▁zappos	-9249
▁alberta	-9250
▁baptist	-9251
▁breivik	-9252
▁buffett	-9253
▁commons	-9254
▁company	-9255
▁control	-9256
▁derartu	-9257
▁dodgers	-9258
▁estonia	-9259
▁falafel	-9260
▁genesis	-9261
▁gorilla	-9262
▁gottman	-9263
▁hoocmon	-9264
▁hoocmôn	-9265
▁hoócmôn	-9266
▁idealab	-9267
▁kuznets	-9268
▁lazarus	-9269
▁madonna	-9270
▁martine	-9271
▁masters	-9272
▁milgram	-9273
▁mohamed	-9274
▁monster	-9275
▁packard	-9276
▁pancake	-9277
▁protêin	-9278
▁society	-9279
▁tempest	-9280
▁trumpet	-9281
▁uruguay	-9282
▁webster	-9283
▁whiskey	-9284
▁brisbane	-9285
▁cacbonic	-9286
▁campbell	-9287
▁carbohyd	-9288
▁caucasus	-9289
▁cruzeiro	-9290
▁delaware	-9291
▁dracorex	-9292
▁durkheim	-9293
▁everyone	-9294
▁fireball	-9295
▁goldberg	-9296
▁heathrow	-9297
▁hydrogen	-9298
▁kilogram	-9299
▁learning	-9300
▁lovelace	-9301
▁minority	-9302
▁patricia	-9303
▁picquart	-9304
▁sherlock	-9305
▁snapchat	-9306
▁svalbard	-9307
▁trinidad	-9308
▁unilever	-9309
▁wingsuit	-9310
▁airstream	-9311
▁bannister	-9312
▁cleveland	-9313
▁enceladus	-9314
▁financial	-9315
▁helvetica	-9316
▁josephine	-9317
▁lifesaver	-9318
▁michoacán	-9319
▁microblog	-9320
▁oldenburg	-9321
▁patagonia	-9322
▁protocell	-9323
▁radcliffe	-9324
▁spielberg	-9325
▁stephanie	-9326
▁tedglobal	-9327
▁tewksbury	-9328
▁vitruvius	-9329
▁whirlwind	-9330
▁beijerinck	-9331
▁enterprise	-9332
▁hyperscore	-9333
▁kardashian	-9334
▁louisville	-9335
▁montgomery	-9336
▁mozambique	-9337
▁nucleotide	-9338
▁pittsburgh	-9339
▁shackleton	-9340
▁vanderbilt	-9341
▁frankenstein	-9342
▁parainfluenza	-9343
▁worldchanging	-9344
14	-9345
35	-9346
62	-9347
dc	-9348
gn	-9349
iw	-9350
jc	-9351
kk	-9352
mg	-9353
oi	-9354
rc	-9355
rh	-9356
tp	-9357
yo	-9358
êđ	-9359
óp	-9360
đã	-9361
ểu	-9362
ụm	-9363
ứu	-9364
▁ế	-9365
agn	-9366
ask	-9367
asy	-9368
aur	-9369
bas	-9370
bir	-9371
bro	-9372
cet	-9373
eli	-9374
esi	-9375
eto	-9376
hrv	-9377
ieg	-9378
iev	-9379
ios	-9380
jah	-9381
ksw	-9382
lav	-9383
lee	-9384
lla	-9385
lov	-9386
mah	-9387
map	-9388
mob	-9389
một	-9390
nam	-9391
nat	-9392
ngu	-9393
nut	-9394
oca	-9395
oke	-9396
ole	-9397
oli	-9398
oly	-9399
ono	-9400
ori	-9401
oty	-9402
oxy	-9403
oại	-9404
pey	-9405
pie	-9406
pol	-9407
ppe	-9408
raw	-9409
rea	-9410
ree	-9411
rek	-9412
rio	-9413
roa	-9414
roc	-9415
sey	-9416
sus	-9417
the	-9418
tro	-9419
tôi	-9420
urs	-9421
uru	-9422
var	-9423
veg	-9424
wig	-9425
yar	-9426
yll	-9427
đkh	-9428
ướn	-9429
ẫng	-9430
▁aq	-9431
▁cb	-9432
▁ci	-9433
▁dw	-9434
▁dà	-9435
▁eg	-9436
▁jb	-9437
▁kl	-9438
▁lé	-9439
▁ná	-9440
▁pg	-9441
▁pn	-9442
▁pp	-9443
▁ry	-9444
▁rủ	-9445
▁uế	-9446
▁vm	-9447
▁vạ	-9448
▁vầ	-9449
▁vổ	-9450
▁xx	-9451
▁xó	-9452
▁àm	-9453
▁ây	-9454
▁ín	-9455
▁ẻo	-9456
agua	-9457
alah	-9458
alek	-9459
amen	-9460
ames	-9461
amic	-9462
anth	-9463
arit	-9464
asai	-9465
asca	-9466
atte	-9467
aven	-9468
bbes	-9469
biot	-9470
book	-9471
chai	-9472
cken	-9473
colm	-9474
cope	-9475
ctic	-9476
ebec	-9477
eine	-9478
ener	-9479
enes	-9480
enne	-9481
ersk	-9482
erve	-9483
etic	-9484
eyan	-9485
form	-9486
head	-9487
hore	-9488
ient	-9489
igai	-9490
ipus	-9491
isis	-9492
itha	-9493
itol	-9494
iyat	-9495
izon	-9496
iềng	-9497
khar	-9498
kini	-9499
leen	-9500
leep	-9501
mett	-9502
myra	-9503
nard	-9504
nery	-9505
ness	-9506
obee	-9507
odot	-9508
ogas	-9509
omat	-9510
oody	-9511
orde	-9512
orio	-9513
orts	-9514
owon	-9515
phêđ	-9516
pool	-9517
rade	-9518
rann	-9519
ship	-9520
ssey	-9521
sten	-9522
tago	-9523
tery	-9524
town	-9525
upro	-9526
ural	-9527
usta	-9528
vest	-9529
vore	-9530
wake	-9531
york	-9532
ốith	-9533
▁104	-9534
▁112	-9535
▁124	-9536
▁145	-9537
▁147	-9538
▁148	-9539
▁162	-9540
▁167	-9541
▁1⁄4	-9542
▁220	-9543
▁254	-9544
▁320	-9545
▁330	-9546
▁380	-9547
▁alo	-9548
▁api	-9549
▁arc	-9550
▁ark	-9551
▁avi	-9552
▁bed	-9553
▁box	-9554
▁bpa	-9555
▁bèo	-9556
▁băm	-9557
▁bứu	-9558
▁cav	-9559
▁chớ	-9560
▁chừ	-9561
▁cis	-9562
▁cod	-9563
▁cos	-9564
▁cấn	-9565
▁cộm	-9566
▁dah	-9567
▁daw	-9568
▁def	-9569
▁dmv	-9570
▁dog	-9571
▁dry	-9572
▁dìu	-9573
▁dầm	-9574
▁dến	-9575
▁eag	-9576
▁eno	-9577
▁fab	-9578
▁fam	-9579
▁fay	-9580
▁fen	-9581
▁fow	-9582
▁gao	-9583
▁gic	-9584
▁gla	-9585
▁glo	-9586
▁gpa	-9587
▁gội	-9588
▁hex	-9589
▁hoc	-9590
▁hut	-9591
▁hám	-9592
▁hão	-9593
▁hớp	-9594
▁igf	-9595
▁irs	-9596
▁jag	-9597
▁jan	-9598
▁jmr	-9599
▁jos	-9600
▁jup	-9601
▁jur	-9602
▁kas	-9603
▁kev	-9604
▁kew	-9605
▁kor	-9606
▁kru	-9607
▁kyi	-9608
▁low	-9609
▁lán	-9610
▁lòi	-9611
▁mói	-9612
▁mùn	-9613
▁măt	-9614
▁mạt	-9615
▁mền	-9616
▁nav	-9617
▁neb	-9618
▁ngỗ	-9619
▁nhợ	-9620
▁nyu	-9621
▁nái	-9622
▁núp	-9623
▁nộm	-9624
▁pad	-9625
▁pew	-9626
▁pjc	-9627
▁pud	-9628
▁quơ	-9629
▁qúa	-9630
▁rut	-9631
▁rái	-9632
▁sco	-9633
▁soy	-9634
▁spe	-9635
▁srk	-9636
▁sum	-9637
▁suu	-9638
▁sấp	-9639
▁sột	-9640
▁sởn	-9641
▁sực	-9642
▁tmm	-9643
▁toi	-9644
▁trc	-9645
▁trĩ	-9646
▁tĩu	-9647
▁tắp	-9648
▁tỏi	-9649
▁tực	-9650
▁vie	-9651
▁véc	-9652
▁vén	-9653
▁vạm	-9654
▁vảy	-9655
▁wah	-9656
▁wid	-9657
▁xml	-9658
▁xoè	-9659
▁xát	-9660
▁xẩu	-9661
▁xẩy	-9662
▁yor	-9663
▁đúp	-9664
▁đản	-9665
▁đẩu	-9666
▁ạch	-9667
abana	-9668
ablac	-9669
ainer	-9670
aines	-9671
anmar	-9672
artan	-9673
ascus	-9674
barak	-9675
bourg	-9676
chain	-9677
elope	-9678
emens	-9679
emoph	-9680
eroon	-9681
etics	-9682
inter	-9683
ltrek	-9684
nthia	-9685
orrow	-9686
ovann	-9687
rakis	-9688
ranav	-9689
rones	-9690
rylic	-9691
space	-9692
spera	-9693
stock	-9694
unded	-9695
urich	-9696
venia	-9697
zanne	-9698
▁1840	-9699
▁1860	-9700
▁1880	-9701
▁1903	-9702
▁1948	-9703
▁1958	-9704
▁2027	-9705
▁4500	-9706
▁aldo	-9707
▁amip	-9708
▁arav	-9709
▁aung	-9710
▁auto	-9711
▁bach	-9712
▁bald	-9713
▁beng	-9714
▁benn	-9715
▁bits	-9716
▁boca	-9717
▁boom	-9718
▁bour	-9719
▁brca	-9720
▁bros	-9721
▁brut	-9722
▁bích	-9723
▁bđkh	-9724
▁bẳng	-9725
▁cala	-9726
▁cart	-9727
▁chap	-9728
▁chil	-9729
▁chuk	-9730
▁chần	-9731
▁crom	-9732
▁cạch	-9733
▁cụng	-9734
▁dame	-9735
▁dead	-9736
▁depp	-9737
▁dink	-9738
▁eddy	-9739
▁espn	-9740
▁fiss	-9741
▁fitz	-9742
▁flip	-9743
▁fobo	-9744
▁gali	-9745
▁gcse	-9746
▁ghẹo	-9747
▁giũa	-9748
▁goss	-9749
▁gris	-9750
▁guga	-9751
▁gươm	-9752
▁hard	-9753
▁hass	-9754
▁hein	-9755
▁hulk	-9756
▁hững	-9757
▁ipcc	-9758
▁jake	-9759
▁jonh	-9760
▁kart	-9761
▁kham	-9762
▁khăm	-9763
▁khảm	-9764
▁kick	-9765
▁kind	-9766
▁kirk	-9767
▁klee	-9768
▁kobe	-9769
▁koko	-9770
▁kung	-9771
▁labs	-9772
▁lars	-9773
▁lima	-9774
▁liềm	-9775
▁luộc	-9776
▁lynn	-9777
▁lằng	-9778
▁lừng	-9779
▁menu	-9780
▁moai	-9781
▁moog	-9782
▁moss	-9783
▁mọng	-9784
▁nanô	-9785
▁nhái	-9786
▁nhíu	-9787
▁nhữn	-9788
▁nice	-9789
▁nito	-9790
▁niệu	-9791
▁otto	-9792
▁pais	-9793
▁pall	-9794
▁panh	-9795
▁pesa	-9796
▁phất	-9797
▁phầm	-9798
▁pimp	-9799
▁pine	-9800
▁polo	-9801
▁pond	-9802
▁puck	-9803
▁puff	-9804
▁quôc	-9805
▁quại	-9806
▁quằn	-9807
▁quẹo	-9808
▁rash	-9809
▁rinh	-9810
▁rita	-9811
▁ritz	-9812
▁rube	-9813
▁rums	-9814
▁rích	-9815
▁rườm	-9816
▁scra	-9817
▁shap	-9818
▁shaw	-9819
▁skin	-9820
▁soạt	-9821
▁stef	-9822
▁styg	-9823
▁summ	-9824
▁they	-9825
▁thóc	-9826
▁tncs	-9827
▁toan	-9828
▁tomm	-9829
▁toxo	-9830
▁trit	-9831
▁trám	-9832
▁tuck	-9833
▁vash	-9834
▁viii	-9835
▁vote	-9836
▁wael	-9837
▁ward	-9838
▁wong	-9839
▁yoda	-9840
▁zone	-9841
▁đoái	-9842
▁đễnh	-9843
aorani	-9844
asthan	-9845
castle	-9846
chison	-9847
enberg	-9848
enture	-9849
finder	-9850
gerald	-9851
harmon	-9852
hrvold	-9853
istine	-9854
odotus	-9855
ondrop	-9856
presso	-9857
roughs	-9858
shiyat	-9859
sonian	-9860
▁16000	-9861
▁26000	-9862
▁abdul	-9863
▁adobe	-9864
▁annie	-9865
▁aquap	-9866
▁aryan	-9867
▁atari	-9868
▁atten	-9869
▁ausch	-9870
▁ayahu	-9871
▁bible	-9872
▁brady	-9873
▁bragg	-9874
▁bucky	-9875
▁burns	-9876
▁caled	-9877
▁carly	-9878
▁cello	-9879
▁check	-9880
▁chắng	-9881
▁claes	-9882
▁cliff	-9883
▁coast	-9884
▁coban	-9885
▁drone	-9886
▁eames	-9887
▁emory	-9888
▁epoxy	-9889
▁eurys	-9890
▁fargo	-9891
▁folds	-9892
▁foods	-9893
▁forer	-9894
▁galen	-9895
▁gelem	-9896
▁ghiếc	-9897
▁gióng	-9898
▁glass	-9899
▁godot	-9900
▁haiku	-9901
▁hasan	-9902
▁heidi	-9903
▁huyệt	-9904
▁jolie	-9905
▁joyce	-9906
▁kathy	-9907
▁khuây	-9908
▁kilow	-9909
▁krist	-9910
▁laman	-9911
▁large	-9912
▁latte	-9913
▁lenny	-9914
▁levin	-9915
▁light	-9916
▁lipit	-9917
▁lydia	-9918
▁march	-9919
▁mecca	-9920
▁mello	-9921
▁moroc	-9922
▁motor	-9923
▁motts	-9924
▁napot	-9925
▁naser	-9926
▁ngoãn	-9927
▁ngóng	-9928
▁ngừoi	-9929
▁nhiểm	-9930
▁nhiểu	-9931
▁nhiện	-9932
▁nhích	-9933
▁nhừng	-9934
▁notre	-9935
▁pachy	-9936
▁palin	-9937
▁parik	-9938
▁parks	-9939
▁payne	-9940
▁peace	-9941
▁phượt	-9942
▁phộng	-9943
▁quark	-9944
▁queen	-9945
▁ratan	-9946
▁ridge	-9947
▁rikku	-9948
▁romeo	-9949
▁royal	-9950
▁satan	-9951
▁schro	-9952
▁shawn	-9953
▁sleep	-9954
▁solar	-9955
▁spike	-9956
▁stack	-9957
▁stern	-9958
▁sunni	-9959
▁swann	-9960
▁talks	-9961
▁their	-9962
▁thich	-9963
▁tiger	-9964
▁trina	-9965
▁tudor	-9966
▁tyler	-9967
▁volvo	-9968
▁watts	-9969
▁winky	-9970
▁đuờng	-9971
ability	-9972
ablacar	-9973
ization	-9974
osaurus	-9975
quiades	-9976
uprofen	-9977
ốithoại	-9978
▁action	-9979
▁alamos	-9980
▁andrea	-9981
▁ansari	-9982
▁austen	-9983
▁biogas	-9984
▁camino	-9985
▁cancer	-9986
▁cement	-9987
▁cirque	-9988
▁condor	-9989
▁county	-9990
▁cuddly	-9991
▁càphêđ	-9992
▁denise	-9993
▁dennis	-9994
▁double	-9995
▁eisner	-9996
▁elissa	-9997
▁fatima	-9998
▁ferris	-9999
▁fowler	-10000
▁garden	-10001
▁giương	-10002
▁hadron	-10003
▁harold	-10004
▁hasbro	-10005
▁helios	-10006
▁herman	-10007
▁hippoc	-10008
▁hobbes	-10009
▁hughes	-10010
▁huxley	-10011
▁hyowon	-10012
▁ikigai	-10013
▁improv	-10014
▁jackie	-10015
▁jaipur	-10016
▁kakuma	-10017
▁khiêng	-10018
▁lahore	-10019
▁lisbon	-10020
▁lizzie	-10021
▁lyndon	-10022
▁maasai	-10023
▁maddie	-10024
▁marian	-10025
▁martha	-10026
▁marvel	-10027
▁matter	-10028
▁maurit	-10029
▁miklos	-10030
▁milton	-10031
▁mobutu	-10032
▁monroe	-10033
▁navajo	-10034
▁nguệch	-10035
▁norton	-10036
▁okeech	-10037
▁osorio	-10038
▁people	-10039
▁pepper	-10040
▁phosph	-10041
▁pranav	-10042
▁pytago	-10043
▁quebec	-10044
▁rapper	-10045
▁record	-10046
▁rikers	-10047
▁ripley	-10048
▁rodney	-10049
▁rogers	-10050
▁sandra	-10051
▁savage	-10052
▁schwar	-10053
▁tamara	-10054
▁tinder	-10055
▁tucson	-10056
▁tunica	-10057
▁tweets	-10058
▁upwake	-10059
▁varroa	-10060
▁volksw	-10061
▁vulcan	-10062
▁witten	-10063
▁wonder	-10064
▁zombie	-10065
▁zurich	-10066
incetown	-10067
▁acrylic	-10068
▁archive	-10069
▁arrakis	-10070
▁balkans	-10071
▁bernard	-10072
▁bretton	-10073
▁capital	-10074
▁capitol	-10075
▁carlton	-10076
▁carroll	-10077
▁cassini	-10078
▁chambal	-10079
▁channel	-10080
▁cynthia	-10081
▁dickens	-10082
▁emerson	-10083
▁fission	-10084
▁gilbert	-10085
▁giovann	-10086
▁hacking	-10087
▁hampton	-10088
▁hewlett	-10089
▁hotmail	-10090
▁janeiro	-10091
▁jeffrey	-10092
▁jupiter	-10093
▁krishna	-10094
▁krypton	-10095
▁logarit	-10096
▁maathai	-10097
▁malcolm	-10098
▁maxwell	-10099
▁mubarak	-10100
▁multics	-10101
▁myanmar	-10102
▁nanomet	-10103
▁neurons	-10104
▁newyork	-10105
▁odyssey	-10106
▁oedipus	-10107
▁orville	-10108
▁palmyra	-10109
▁patriot	-10110
▁pollock	-10111
▁quixote	-10112
▁ricardo	-10113
▁rushdie	-10114
▁safeway	-10115
▁shekhar	-10116
▁solomon	-10117
▁spartan	-10118
▁steroid	-10119
▁thorium	-10120
▁verizon	-10121
▁wangari	-10122
▁whitney	-10123
▁wilkins	-10124
▁winston	-10125
▁wounded	-10126
▁zipline	-10127
▁arkansas	-10128
▁beatrice	-10129
▁bionicle	-10130
▁cacbonat	-10131
▁caffeine	-10132
▁cameroon	-10133
▁carrillo	-10134
▁children	-10135
▁columbus	-10136
▁coumarin	-10137
▁douglass	-10138
▁girltrek	-10139
▁gossamer	-10140
▁hatzalah	-10141
▁heinrich	-10142
▁humberto	-10143
▁interval	-10144
▁kathleen	-10145
▁lestrade	-10146
▁myhrvold	-10147
▁newsweek	-10148
▁overflow	-10149
▁penelope	-10150
▁polaroid	-10151
▁prospera	-10152
▁randolph	-10153
▁richards	-10154
▁robotics	-10155
▁rockwell	-10156
▁rumsfeld	-10157
▁scrabble	-10158
▁seligman	-10159
▁slovenia	-10160
▁tedtalks	-10161
▁tomorrow	-10162
▁westboro	-10163
▁accenture	-10164
▁ayahuasca	-10165
▁blablacar	-10166
▁bloomberg	-10167
▁burroughs	-10168
▁container	-10169
▁fransisco	-10170
▁henderson	-10171
▁herodotus	-10172
▁hiroshima	-10173
▁ibuprofen	-10174
▁luciferin	-10175
▁manshiyat	-10176
▁megawatts	-10177
▁newcastle	-10178
▁rajasthan	-10179
▁yesterday	-10180
▁zullinger	-10181
ondroplasia	-10182
▁blockchain	-10183
▁fitzgerald	-10184
▁georgetown	-10185
▁luxembourg	-10186
▁melquiades	-10187
▁okeechobee	-10188
▁pathfinder	-10189
▁sutherland	-10190
▁hamiltonian	-10191
▁minneapolis	-10192
▁pachycephal	-10193
▁attenborough	-10194
▁carbohydrate	-10195
▁provincetown	-10196
▁càphêđốithoại	-10197
17	-10198
18	-10199
29	-10200
33	-10201
45	-10202
49	-10203
64	-10204
aj	-10205
cp	-10206
ei	-10207
fc	-10208
gb	-10209
lr	-10210
nu	-10211
oe	-10212
sk	-10213
tg	-10214
uh	-10215
ui	-10216
wh	-10217
yk	-10218
zh	-10219
êp	-10220
ía	-10221
ưc	-10222
▁́	-10223
▁ỷ	-10224
abe	-10225
adu	-10226
ako	-10227
aqu	-10228
atu	-10229
aun	-10230
aux	-10231
azi	-10232
bbv	-10233
bio	-10234
bok	-10235
cat	-10236
cil	-10237
ckx	-10238
cot	-10239
ddy	-10240
dle	-10241
dly	-10242
dog	-10243
dow	-10244
dra	-10245
eal	-10246
ebe	-10247
emb	-10248
err	-10249
gor	-10250
hou	-10251
ict	-10252
idt	-10253
ift	-10254
ify	-10255
igs	-10256
iks	-10257
ims	-10258
ipe	-10259
isi	-10260
itc	-10261
its	-10262
jin	-10263
kal	-10264
kcp	-10265
lar	-10266
met	-10267
mor	-10268
nah	-10269
nch	-10270
nga	-10271
non	-10272
odo	-10273
olo	-10274
onn	-10275
opo	-10276
osa	-10277
ple	-10278
por	-10279
pps	-10280
raf	-10281
rez	-10282
rib	-10283
rin	-10284
sum	-10285
tsi	-10286
ucn	-10287
uka	-10288
ule	-10289
ull	-10290
ult	-10291
upy	-10292
vre	-10293
wak	-10294
wan	-10295
wls	-10296
yện	-10297
zac	-10298
zer	-10299
zos	-10300
ých	-10301
ớng	-10302
ởng	-10303
▁bt	-10304
▁ck	-10305
▁dk	-10306
▁gy	-10307
▁gạ	-10308
▁gờ	-10309
▁hf	-10310
▁hg	-10311
▁hs	-10312
▁hú	-10313
▁hế	-10314
▁if	-10315
▁ja	-10316
▁lc	-10317
▁lè	-10318
▁mz	-10319
▁nc	-10320
▁oi	-10321
▁pv	-10322
▁rb	-10323
▁rn	-10324
▁rè	-10325
▁rê	-10326
▁rú	-10327
▁sà	-10328
▁vố	-10329
▁wr	-10330
▁xố	-10331
▁zy	-10332
▁úa	-10333
▁đt	-10334
▁ốp	-10335
abel	-10336
abha	-10337
adan	-10338
ades	-10339
adin	-10340
aign	-10341
aler	-10342
alis	-10343
aloa	-10344
ambo	-10345
andt	-10346
anga	-10347
anti	-10348
arat	-10349
arez	-10350
atch	-10351
ault	-10352
beck	-10353
bird	-10354
brid	-10355
cles	-10356
down	-10357
dsor	-10358
edom	-10359
elda	-10360
emba	-10361
emia	-10362
ends	-10363
erit	-10364
eshi	-10365
etch	-10366
feed	-10367
flon	-10368
gang	-10369
ghar	-10370
haas	-10371
heed	-10372
iken	-10373
iman	-10374
imol	-10375
ipen	-10376
irit	-10377
itic	-10378
kers	-10379
lers	-10380
lian	-10381
list	-10382
mblr	-10383
mouk	-10384
mous	-10385
nisi	-10386
oglo	-10387
olia	-10388
onia	-10389
opad	-10390
orah	-10391
osth	-10392
osyn	-10393
otta	-10394
otte	-10395
pert	-10396
plex	-10397
popo	-10398
rari	-10399
ress	-10400
rier	-10401
rone	-10402
ross	-10403
rows	-10404
rrrr	-10405
shaz	-10406
shen	-10407
shnu	-10408
surf	-10409
wart	-10410
wick	-10411
ytes	-10412
▁001	-10413
▁136	-10414
▁138	-10415
▁144	-10416
▁154	-10417
▁158	-10418
▁178	-10419
▁210	-10420
▁249	-10421
▁451	-10422
▁914	-10423
▁age	-10424
▁ahh	-10425
▁amp	-10426
▁ant	-10427
▁ard	-10428
▁bip	-10429
▁bis	-10430
▁bod	-10431
▁bye	-10432
▁bêu	-10433
▁bòn	-10434
▁bơn	-10435
▁bấn	-10436
▁bện	-10437
▁chè	-10438
▁cic	-10439
▁cin	-10440
▁coe	-10441
▁crs	-10442
▁cut	-10443
▁càu	-10444
▁cũi	-10445
▁cớm	-10446
▁cứa	-10447
▁dha	-10448
▁dij	-10449
▁doc	-10450
▁dạc	-10451
▁dấp	-10452
▁edl	-10453
▁equ	-10454
▁fif	-10455
▁fải	-10456
▁gbm	-10457
▁giớ	-10458
▁găm	-10459
▁hos	-10460
▁híp	-10461
▁hớt	-10462
▁hủi	-10463
▁inc	-10464
▁inh	-10465
▁jew	-10466
▁jfk	-10467
▁jun	-10468
▁jyk	-10469
▁kag	-10470
▁kbs	-10471
▁kel	-10472
▁khz	-10473
▁kun	-10474
▁két	-10475
▁lil	-10476
▁liz	-10477
▁loá	-10478
▁lud	-10479
▁lym	-10480
▁lài	-10481
▁láo	-10482
▁lùa	-10483
▁lơi	-10484
▁lọi	-10485
▁lốt	-10486
▁lởn	-10487
▁lữa	-10488
▁mcn	-10489
▁mdg	-10490
▁mes	-10491
▁nhũ	-10492
▁nia	-10493
▁niu	-10494
▁npr	-10495
▁nus	-10496
▁náy	-10497
▁nêm	-10498
▁nẹp	-10499
▁oai	-10500
▁ome	-10501
▁opt	-10502
▁oth	-10503
▁pah	-10504
▁pei	-10505
▁phn	-10506
▁pow	-10507
▁pub	-10508
▁quở	-10509
▁qúi	-10510
▁rae	-10511
▁raf	-10512
▁rib	-10513
▁rúc	-10514
▁rảo	-10515
▁sea	-10516
▁ses	-10517
▁sub	-10518
▁sủi	-10519
▁tap	-10520
▁thé	-10521
▁thồ	-10522
▁tic	-10523
▁tig	-10524
▁tmd	-10525
▁try	-10526
▁trồ	-10527
▁táp	-10528
▁tâp	-10529
▁tôt	-10530
▁tơi	-10531
▁tẩu	-10532
▁use	-10533
▁vib	-10534
▁vid	-10535
▁vât	-10536
▁vởn	-10537
▁wan	-10538
▁wen	-10539
▁whe	-10540
▁wit	-10541
▁woa	-10542
▁wur	-10543
▁xun	-10544
▁xuể	-10545
▁xém	-10546
▁xéo	-10547
▁xơi	-10548
▁xạc	-10549
▁xắp	-10550
▁xịn	-10551
▁yuk	-10552
▁zag	-10553
▁áng	-10554
▁đít	-10555
▁đăc	-10556
▁đẫn	-10557
▁đẽo	-10558
▁đềm	-10559
▁đểm	-10560
ademy	-10561
agnor	-10562
aldez	-10563
alium	-10564
andis	-10565
anger	-10566
atari	-10567
ausen	-10568
awton	-10569
bbvtn	-10570
bergh	-10571
bread	-10572
ction	-10573
ecode	-10574
efani	-10575
elile	-10576
enson	-10577
esape	-10578
eshow	-10579
ethyl	-10580
ideen	-10581
iegel	-10582
ights	-10583
igram	-10584
ileen	-10585
inkle	-10586
inska	-10587
intia	-10588
ishop	-10589
iyama	-10590
lando	-10591
lasma	-10592
monia	-10593
những	-10594
nican	-10595
nival	-10596
ocure	-10597
omics	-10598
ophan	-10599
opoly	-10600
othic	-10601
phael	-10602
rador	-10603
rahym	-10604
rates	-10605
ready	-10606
riend	-10607
rigan	-10608
rique	-10609
shine	-10610
theus	-10611
uddly	-10612
ulpey	-10613
uther	-10614
ution	-10615
utnik	-10616
visor	-10617
where	-10618
▁1863	-10619
▁1871	-10620
▁1879	-10621
▁1890	-10622
▁1901	-10623
▁1904	-10624
▁1914	-10625
▁1937	-10626
▁1946	-10627
▁aden	-10628
▁agar	-10629
▁area	-10630
▁avaz	-10631
▁aviv	-10632
▁axít	-10633
▁back	-10634
▁balo	-10635
▁bash	-10636
▁beth	-10637
▁biff	-10638
▁bihi	-10639
▁bird	-10640
▁bois	-10641
▁boot	-10642
▁boys	-10643
▁brck	-10644
▁burn	-10645
▁bỉnh	-10646
▁bọng	-10647
▁casa	-10648
▁chit	-10649
▁chon	-10650
▁chop	-10651
▁chài	-10652
▁chẽn	-10653
▁chỉa	-10654
▁chớm	-10655
▁chờn	-10656
▁chửa	-10657
▁clif	-10658
▁clim	-10659
▁cody	-10660
▁come	-10661
▁cool	-10662
▁curt	-10663
▁cuời	-10664
▁dale	-10665
▁dart	-10666
▁demo	-10667
▁dhar	-10668
▁diên	-10669
▁diệp	-10670
▁dors	-10671
▁dõng	-10672
▁dịnh	-10673
▁easy	-10674
▁eden	-10675
▁eitc	-10676
▁eleg	-10677
▁epic	-10678
▁fema	-10679
▁fide	-10680
▁flag	-10681
▁flow	-10682
▁flux	-10683
▁food	-10684
▁form	-10685
▁foxp	-10686
▁gray	-10687
▁half	-10688
▁halt	-10689
▁hart	-10690
▁hawk	-10691
▁help	-10692
▁hinh	-10693
▁hope	-10694
▁hour	-10695
▁huff	-10696
▁hỉnh	-10697
▁ideo	-10698
▁isai	-10699
▁isil	-10700
▁iucn	-10701
▁kamp	-10702
▁kaye	-10703
▁khâm	-10704
▁khêu	-10705
▁khạc	-10706
▁kofi	-10707
▁kona	-10708
▁kund	-10709
▁kuuk	-10710
▁lena	-10711
▁leng	-10712
▁loai	-10713
▁loca	-10714
▁loon	-10715
▁loét	-10716
▁luộm	-10717
▁lủng	-10718
▁macc	-10719
▁main	-10720
▁mayo	-10721
▁mega	-10722
▁mile	-10723
▁mine	-10724
▁miết	-10725
▁mold	-10726
▁mosk	-10727
▁neal	-10728
▁ngộp	-10729
▁nhoè	-10730
▁nhổm	-10731
▁nhụt	-10732
▁nint	-10733
▁nyam	-10734
▁ních	-10735
▁nạng	-10736
▁ober	-10737
▁oops	-10738
▁open	-10739
▁oper	-10740
▁oxal	-10741
▁oxit	-10742
▁pate	-10743
▁phar	-10744
▁phia	-10745
▁phui	-10746
▁phẩn	-10747
▁phễu	-10748
▁pico	-10749
▁prin	-10750
▁purs	-10751
▁quẫn	-10752
▁quẹt	-10753
▁read	-10754
▁reca	-10755
▁rkcp	-10756
▁rooh	-10757
▁rous	-10758
▁rumi	-10759
▁rưới	-10760
▁seat	-10761
▁shel	-10762
▁shen	-10763
▁shep	-10764
▁sida	-10765
▁sikh	-10766
▁soph	-10767
▁stem	-10768
▁stop	-10769
▁taft	-10770
▁tanh	-10771
▁thia	-10772
▁thỏi	-10773
▁tick	-10774
▁till	-10775
▁tróc	-10776
▁trệt	-10777
▁tuft	-10778
▁tược	-10779
▁tịnh	-10780
▁tỏng	-10781
▁ucsf	-10782
▁viển	-10783
▁vầng	-10784
▁worc	-10785
▁work	-10786
▁yard	-10787
▁đich	-10788
▁điếm	-10789
▁đuốc	-10790
▁đẵng	-10791
amsala	-10792
aninka	-10793
annica	-10794
atford	-10795
ations	-10796
buster	-10797
dinand	-10798
elling	-10799
enspan	-10800
eridge	-10801
essori	-10802
estern	-10803
ingale	-10804
ingway	-10805
occhio	-10806
ocybin	-10807
ophyte	-10808
osynth	-10809
prison	-10810
tesian	-10811
vannah	-10812
▁17000	-10813
▁38000	-10814
▁45000	-10815
▁65000	-10816
▁70000	-10817
▁75000	-10818
▁aaron	-10819
▁alain	-10820
▁alisa	-10821
▁allan	-10822
▁amjad	-10823
▁annan	-10824
▁anony	-10825
▁assad	-10826
▁azuri	-10827
▁basel	-10828
▁basit	-10829
▁beard	-10830
▁benny	-10831
▁berry	-10832
▁bezos	-10833
▁blair	-10834
▁bosch	-10835
▁boson	-10836
▁botox	-10837
▁boyle	-10838
▁brave	-10839
▁bread	-10840
▁brigh	-10841
▁broca	-10842
▁buick	-10843
▁byron	-10844
▁champ	-10845
▁chevy	-10846
▁chilê	-10847
▁chish	-10848
▁chiêc	-10849
▁chong	-10850
▁chyện	-10851
▁clock	-10852
▁crete	-10853
▁crohn	-10854
▁cross	-10855
▁cyber	-10856
▁daesh	-10857
▁denis	-10858
▁diane	-10859
▁elves	-10860
▁engel	-10861
▁essex	-10862
▁euros	-10863
▁floyd	-10864
▁gauss	-10865
▁geena	-10866
▁genit	-10867
▁goran	-10868
▁grove	-10869
▁haven	-10870
▁henri	-10871
▁huých	-10872
▁hường	-10873
▁india	-10874
▁ituri	-10875
▁kamal	-10876
▁kamen	-10877
▁karol	-10878
▁khong	-10879
▁khoải	-10880
▁khoắn	-10881
▁lassa	-10882
▁lhasa	-10883
▁luyên	-10884
▁luống	-10885
▁magie	-10886
▁mahab	-10887
▁manju	-10888
▁marin	-10889
▁maver	-10890
▁midol	-10891
▁miles	-10892
▁mujah	-10893
▁multi	-10894
▁muông	-10895
▁nghỉm	-10896
▁ngoằn	-10897
▁nhiếm	-10898
▁nhướn	-10899
▁nicol	-10900
▁nngdl	-10901
▁nuông	-10902
▁party	-10903
▁penny	-10904
▁permi	-10905
▁photo	-10906
▁phỉnh	-10907
▁pilot	-10908
▁pivot	-10909
▁polio	-10910
▁quàng	-10911
▁rainb	-10912
▁randi	-10913
▁rawls	-10914
▁remen	-10915
▁rhode	-10916
▁roald	-10917
▁shang	-10918
▁sigma	-10919
▁slash	-10920
▁sodom	-10921
▁sotom	-10922
▁soyuz	-10923
▁spect	-10924
▁starr	-10925
▁start	-10926
▁stick	-10927
▁still	-10928
▁tamil	-10929
▁teach	-10930
▁thoắt	-10931
▁thuộm	-10932
▁toanh	-10933
▁today	-10934
▁torah	-10935
▁truất	-10936
▁trính	-10937
▁trươc	-10938
▁tuếch	-10939
▁under	-10940
▁vogue	-10941
▁volta	-10942
▁women	-10943
▁yadda	-10944
astatin	-10945
eopathy	-10946
ginotar	-10947
imoloch	-10948
ococcus	-10949
oglobin	-10950
ography	-10951
omatase	-10952
surfing	-10953
▁800000	-10954
▁amanda	-10955
▁ashley	-10956
▁ashraf	-10957
▁barric	-10958
▁bertha	-10959
▁bikini	-10960
▁bishop	-10961
▁bogota	-10962
▁borane	-10963
▁breton	-10964
▁brooks	-10965
▁butler	-10966
▁caesar	-10967
▁calori	-10968
▁carrie	-10969
▁cenard	-10970
▁centim	-10971
▁cheval	-10972
▁chibok	-10973
▁connor	-10974
▁cruise	-10975
▁cyclop	-10976
▁darius	-10977
▁destin	-10978
▁direct	-10979
▁dmitri	-10980
▁dotcom	-10981
▁duplex	-10982
▁dupont	-10983
▁eileen	-10984
▁emails	-10985
▁ernest	-10986
▁farmer	-10987
▁franco	-10988
▁frates	-10989
▁garage	-10990
▁genius	-10991
▁ginger	-10992
▁gothic	-10993
▁grande	-10994
▁handel	-10995
▁harari	-10996
▁haring	-10997
▁hayden	-10998
▁hermes	-10999
▁hubert	-11000
▁indian	-11001
▁ingolf	-11002
▁intell	-11003
▁irving	-11004
▁isabel	-11005
▁jeremy	-11006
▁jobana	-11007
▁judith	-11008
▁julius	-11009
▁kaplan	-11010
▁kendal	-11011
▁killer	-11012
▁kimmel	-11013
▁kindle	-11014
▁kruger	-11015
▁lancet	-11016
▁lesbos	-11017
▁leslie	-11018
▁levine	-11019
▁lionel	-11020
▁maersk	-11021
▁mailer	-11022
▁malawi	-11023
▁marcel	-11024
▁matrix	-11025
▁mayday	-11026
▁mclean	-11027
▁merckx	-11028
▁murphy	-11029
▁musica	-11030
▁myesha	-11031
▁nghệch	-11032
▁ngườii	-11033
▁nitrat	-11034
▁norway	-11035
▁picnic	-11036
▁pinker	-11037
▁portia	-11038
▁python	-11039
▁rielly	-11040
▁rowbot	-11041
▁sapien	-11042
▁saturn	-11043
▁schulz	-11044
▁scient	-11045
▁sheikh	-11046
▁singer	-11047
▁sintia	-11048
▁slater	-11049
▁slides	-11050
▁soleil	-11051
▁spears	-11052
▁square	-11053
▁sughar	-11054
▁tablet	-11055
▁thames	-11056
▁truyển	-11057
▁tttmtg	-11058
▁tumblr	-11059
▁tyrone	-11060
▁ubbvtn	-11061
▁valdez	-11062
▁vanier	-11063
▁vasari	-11064
▁vashem	-11065
▁vishnu	-11066
▁vision	-11067
▁waffle	-11068
▁wurman	-11069
▁yoruba	-11070
genstein	-11071
harmonic	-11072
osthenes	-11073
rahymena	-11074
shenfeld	-11075
▁academy	-11076
▁alanine	-11077
▁allende	-11078
▁ammonia	-11079
▁anagnor	-11080
▁antonio	-11081
▁aravind	-11082
▁avelile	-11083
▁belshaz	-11084
▁brahmin	-11085
▁britney	-11086
▁bucardo	-11087
▁bullrun	-11088
▁caramen	-11089
▁charter	-11090
▁chaucer	-11091
▁chesape	-11092
▁colbert	-11093
▁develop	-11094
▁drybath	-11095
▁dunning	-11096
▁express	-11097
▁firefly	-11098
▁freedom	-11099
▁friends	-11100
▁gandalf	-11101
▁gifford	-11102
▁gillian	-11103
▁hammett	-11104
▁hoffman	-11105
▁housman	-11106
▁kathryn	-11107
▁kleiner	-11108
▁lesbian	-11109
▁limpopo	-11110
▁mallory	-11111
▁mansion	-11112
▁mapendo	-11113
▁melanie	-11114
▁melissa	-11115
▁midwest	-11116
▁milimét	-11117
▁minivan	-11118
▁mission	-11119
▁moldova	-11120
▁morocco	-11121
▁myspace	-11122
▁norbert	-11123
▁orlando	-11124
▁photpho	-11125
▁popular	-11126
▁probiot	-11127
▁procter	-11128
▁raphael	-11129
▁raymond	-11130
▁reality	-11131
▁resilin	-11132
▁reuther	-11133
▁rockies	-11134
▁sculpey	-11135
▁shuffle	-11136
▁siemens	-11137
▁sinaloa	-11138
▁skinner	-11139
▁spiegel	-11140
▁springs	-11141
▁sputnik	-11142
▁stevens	-11143
▁suzanne	-11144
▁talbert	-11145
▁timothy	-11146
▁transit	-11147
▁tribeca	-11148
▁tristan	-11149
▁tritium	-11150
▁turkana	-11151
▁tuynisi	-11152
▁ukraina	-11153
▁vermont	-11154
▁windsor	-11155
▁wofford	-11156
▁angelina	-11157
▁brasilia	-11158
▁campaign	-11159
▁carnival	-11160
▁chandler	-11161
▁christie	-11162
▁cromwell	-11163
▁damascus	-11164
▁dietrich	-11165
▁doughnut	-11166
▁espresso	-11167
▁estefani	-11168
▁estragon	-11169
▁fernando	-11170
▁giovanni	-11171
▁gladwell	-11172
▁griselda	-11173
▁hamptons	-11174
▁jennings	-11175
▁kickstar	-11176
▁kilowatt	-11177
▁koolhaas	-11178
▁labrador	-11179
▁locavore	-11180
▁lockheed	-11181
▁megabyte	-11182
▁mercedes	-11183
▁milliken	-11184
▁mongolia	-11185
▁nintendo	-11186
▁novocure	-11187
▁pierpont	-11188
▁savannah	-11189
▁standard	-11190
▁sunshine	-11191
▁taniyama	-11192
▁uberpool	-11193
▁wolfgang	-11194
▁adrenalin	-11195
▁ahmedabad	-11196
▁anonymous	-11197
▁aromatase	-11198
▁ashaninka	-11199
▁auschwitz	-11200
▁cartesian	-11201
▁charlotte	-11202
▁chemokine	-11203
▁dartmouth	-11204
▁diamandis	-11205
▁diginotar	-11206
▁farmville	-11207
▁ferdinand	-11208
▁foldscope	-11209
▁friedrich	-11210
▁greenspan	-11211
▁greenwich	-11212
▁halophyte	-11213
▁hemingway	-11214
▁hypercard	-11215
▁katherine	-11216
▁lamanites	-11217
▁lindbergh	-11218
▁mansfield	-11219
▁masterpie	-11220
▁mauritius	-11221
▁mondragon	-11222
▁moskowitz	-11223
▁murchison	-11224
▁peripetia	-11225
▁pinocchio	-11226
▁recaptcha	-11227
▁sotomayor	-11228
▁stratford	-11229
▁universal	-11230
▁valentine	-11231
▁worcester	-11232
▁blackawton	-11233
▁britannica	-11234
▁copernican	-11235
▁dharamsala	-11236
▁eurystheus	-11237
▁everywhere	-11238
▁genitalium	-11239
▁homeopathy	-11240
▁karolinska	-11241
▁luciferase	-11242
▁manchester	-11243
▁montessori	-11244
▁paroxetine	-11245
▁photosynth	-11246
▁anagnorisis	-11247
▁connections	-11248
▁gershenfeld	-11249
▁nightingale	-11250
▁pravastatin	-11251
▁smithsonian	-11252
▁stygimoloch	-11253
▁superrabbit	-11254
▁tetrahymena	-11255
▁neanderthals	-11256
▁organization	-11257
▁philharmonic	-11258
▁wittgenstein	-11259
▁nanocellulose	-11260
▁achondroplasia	-11261
13	-11262
31	-11263
32	-11264
42	-11265
54	-11266
57	-11267
72	-11268
80	-11269
92	-11270
có	-11271
dđ	-11272
fj	-11273
hu	-11274
lm	-11275
nd	-11276
tơ	-11277
wo	-11278
ểm	-11279
ịm	-11280
ổn	-11281
▁̀	-11282
▁อ	-11283
▁ụ	-11284
200	-11285
600	-11286
amp	-11287
aoh	-11288
asc	-11289
aty	-11290
bel	-11291
chq	-11292
cks	-11293
cro	-11294
cup	-11295
dar	-11296
ebu	-11297
egr	-11298
ehy	-11299
fer	-11300
fid	-11301
fti	-11302
gam	-11303
gli	-11304
gmy	-11305
gow	-11306
gro	-11307
hhh	-11308
hia	-11309
hoo	-11310
hru	-11311
hua	-11312
iat	-11313
idd	-11314
ien	-11315
iku	-11316
ipi	-11317
kas	-11318
lap	-11319
lus	-11320
nan	-11321
nie	-11322
ogh	-11323
ogi	-11324
oku	-11325
olm	-11326
omi	-11327
opl	-11328
pen	-11329
pes	-11330
pez	-11331
ppy	-11332
pta	-11333
rad	-11334
ril	-11335
rot	-11336
roy	-11337
rum	-11338
rya	-11339
saw	-11340
sby	-11341
sol	-11342
tpj	-11343
ttt	-11344
ues	-11345
uld	-11346
von	-11347
zie	-11348
ướu	-11349
ịnh	-11350
ổng	-11351
▁bv	-11352
▁bả	-11353
▁cã	-11354
▁cõ	-11355
▁dd	-11356
▁dẽ	-11357
▁dề	-11358
▁eq	-11359
▁ew	-11360
▁gq	-11361
▁gả	-11362
▁gổ	-11363
▁hý	-11364
▁jj	-11365
▁ló	-11366
▁nv	-11367
▁nỡ	-11368
▁od	-11369
▁ré	-11370
▁rỏ	-11371
▁sí	-11372
▁só	-11373
▁sữ	-11374
▁tồ	-11375
▁ui	-11376
▁vc	-11377
▁vg	-11378
▁vn	-11379
▁vậ	-11380
▁úi	-11381
▁đì	-11382
▁đă	-11383
▁ớn	-11384
2000	-11385
3000	-11386
abin	-11387
adas	-11388
agne	-11389
aiss	-11390
alop	-11391
andi	-11392
anol	-11393
anzi	-11394
aris	-11395
arna	-11396
aroo	-11397
atti	-11398
atur	-11399
auer	-11400
ayer	-11401
back	-11402
bart	-11403
bein	-11404
bian	-11405
body	-11406
boja	-11407
cape	-11408
chos	-11409
chur	-11410
chưa	-11411
city	-11412
coni	-11413
deen	-11414
drin	-11415
dule	-11416
dutt	-11417
ecus	-11418
eder	-11419
eggy	-11420
ehun	-11421
elia	-11422
ench	-11423
ente	-11424
entl	-11425
enue	-11426
erez	-11427
esca	-11428
ezza	-11429
fish	-11430
fran	-11431
frey	-11432
gets	-11433
ggie	-11434
ghts	-11435
gmat	-11436
hart	-11437
haus	-11438
heng	-11439
hill	-11440
hrer	-11441
ibur	-11442
icam	-11443
ices	-11444
ichu	-11445
idel	-11446
ilda	-11447
ilus	-11448
imed	-11449
iron	-11450
irut	-11451
isch	-11452
iser	-11453
isha	-11454
isht	-11455
isse	-11456
itty	-11457
izen	-11458
kmen	-11459
kota	-11460
ktor	-11461
lier	-11462
link	-11463
lish	-11464
lynn	-11465
midt	-11466
mpil	-11467
muda	-11468
nham	-11469
niss	-11470
ocot	-11471
olic	-11472
omar	-11473
onew	-11474
onne	-11475
oosa	-11476
orep	-11477
otka	-11478
otto	-11479
ouse	-11480
ovan	-11481
phin	-11482
pies	-11483
poon	-11484
ppam	-11485
raki	-11486
rand	-11487
reen	-11488
rett	-11489
ript	-11490
stre	-11491
tham	-11492
thub	-11493
tier	-11494
ting	-11495
tone	-11496
trom	-11497
uino	-11498
ukak	-11499
uler	-11500
unch	-11501
unes	-11502
urus	-11503
uter	-11504
vary	-11505
velt	-11506
viet	-11507
vins	-11508
wall	-11509
wana	-11510
ylus	-11511
zent	-11512
zzar	-11513
điều	-11514
▁109	-11515
▁118	-11516
▁122	-11517
▁132	-11518
▁151	-11519
▁155	-11520
▁171	-11521
▁172	-11522
▁176	-11523
▁225	-11524
▁230	-11525
▁238	-11526
▁311	-11527
▁683	-11528
▁725	-11529
▁826	-11530
▁850	-11531
▁996	-11532
▁aba	-11533
▁ack	-11534
▁aol	-11535
▁apa	-11536
▁aph	-11537
▁apt	-11538
▁aut	-11539
▁bbq	-11540
▁bcg	-11541
▁bid	-11542
▁bug	-11543
▁bẳn	-11544
▁bẹp	-11545
▁bẻo	-11546
▁bụp	-11547
▁cep	-11548
▁chư	-11549
▁chọ	-11550
▁chỏ	-11551
▁cox	-11552
▁cvs	-11553
▁còm	-11554
▁cùm	-11555
▁cùn	-11556
▁cũa	-11557
▁cạc	-11558
▁cạp	-11559
▁cầy	-11560
▁cọp	-11561
▁cộc	-11562
▁das	-11563
▁dig	-11564
▁dil	-11565
▁dăm	-11566
▁dụm	-11567
▁eva	-11568
▁fig	-11569
▁fun	-11570
▁fus	-11571
▁gfr	-11572
▁gua	-11573
▁gym	-11574
▁gíc	-11575
▁gạn	-11576
▁gẫm	-11577
▁gới	-11578
▁hep	-11579
▁hàu	-11580
▁hâu	-11581
▁hòi	-11582
▁hóm	-11583
▁húc	-11584
▁hẵn	-11585
▁hớn	-11586
▁hờn	-11587
▁hợm	-11588
▁ied	-11589
▁imu	-11590
▁inf	-11591
▁isp	-11592
▁jav	-11593
▁kau	-11594
▁key	-11595
▁khè	-11596
▁khư	-11597
▁khỏ	-11598
▁kig	-11599
▁kod	-11600
▁kpi	-11601
▁kèo	-11602
▁kít	-11603
▁ley	-11604
▁lác	-11605
▁lắt	-11606
▁lệu	-11607
▁lịm	-11608
▁lỏm	-11609
▁lức	-11610
▁meo	-11611
▁mog	-11612
▁mow	-11613
▁mtn	-11614
▁mug	-11615
▁mấp	-11616
▁mần	-11617
▁mọn	-11618
▁mổi	-11619
▁mớm	-11620
▁mứt	-11621
▁nab	-11622
▁nak	-11623
▁nea	-11624
▁ngở	-11625
▁nhg	-11626
▁nhè	-11627
▁nhò	-11628
▁nir	-11629
▁nôm	-11630
▁nầm	-11631
▁nện	-11632
▁nịt	-11633
▁occ	-11634
▁oce	-11635
▁ocr	-11636
▁oct	-11637
▁old	-11638
▁oph	-11639
▁oun	-11640
▁oát	-11641
▁pbs	-11642
▁pdf	-11643
▁pee	-11644
▁poc	-11645
▁pod	-11646
▁pom	-11647
▁psh	-11648
▁què	-11649
▁ref	-11650
▁rel	-11651
▁rit	-11652
▁roh	-11653
▁rox	-11654
▁rén	-11655
▁rón	-11656
▁rúp	-11657
▁rần	-11658
▁rận	-11659
▁rền	-11660
▁rốc	-11661
▁rởm	-11662
▁saw	-11663
▁see	-11664
▁sho	-11665
▁six	-11666
▁sog	-11667
▁spa	-11668
▁ssl	-11669
▁sto	-11670
▁svđ	-11671
▁săm	-11672
▁sạm	-11673
▁tbl	-11674
▁tec	-11675
▁thớ	-11676
▁tms	-11677
▁tok	-11678
▁trư	-11679
▁trể	-11680
▁tât	-11681
▁tìn	-11682
▁tắn	-11683
▁tốp	-11684
▁tổi	-11685
▁tụm	-11686
▁tủa	-11687
▁ult	-11688
▁ups	-11689
▁uri	-11690
▁url	-11691
▁usa	-11692
▁veo	-11693
▁vip	-11694
▁vãi	-11695
▁vèo	-11696
▁vắn	-11697
▁vệc	-11698
▁vởi	-11699
▁wee	-11700
▁wel	-11701
▁wmd	-11702
▁woz	-11703
▁wwf	-11704
▁xix	-11705
▁xyz	-11706
▁xẹp	-11707
▁xết	-11708
▁xỉu	-11709
▁yar	-11710
▁yay	-11711
▁yết	-11712
▁zuc	-11713
▁zum	-11714
▁àoo	-11715
▁đao	-11716
▁đoá	-11717
▁đrô	-11718
▁đàu	-11719
▁đáu	-11720
▁đén	-11721
▁đùn	-11722
▁đúa	-11723
▁ửng	-11724
ablan	-11725
acter	-11726
ahaha	-11727
aille	-11728
alach	-11729
alind	-11730
amaan	-11731
anamo	-11732
andan	-11733
apest	-11734
atchi	-11735
atubo	-11736
blatt	-11737
board	-11738
chdel	-11739
cupid	-11740
ehyde	-11741
einab	-11742
elsen	-11743
enjin	-11744
ensis	-11745
erial	-11746
ettys	-11747
eweyk	-11748
found	-11749
fresh	-11750
giers	-11751
haram	-11752
hovah	-11753
hring	-11754
ievel	-11755
ifada	-11756
ifetz	-11757
ifuna	-11758
ilway	-11759
istic	-11760
istol	-11761
istry	-11762
itect	-11763
itrea	-11764
iwala	-11765
không	-11766
lands	-11767
lause	-11768
ledon	-11769
logan	-11770
nesty	-11771
nheim	-11772
oghue	-11773
oitte	-11774
oming	-11775
oreau	-11776
osaur	-11777
owski	-11778
oxide	-11779
peace	-11780
pedia	-11781
rcain	-11782
rentz	-11783
ropoc	-11784
scray	-11785
shasa	-11786
shbab	-11787
spora	-11788
strom	-11789
tanal	-11790
trout	-11791
ugger	-11792
ugshe	-11793
virus	-11794
viton	-11795
xtanh	-11796
▁1001	-11797
▁1830	-11798
▁1875	-11799
▁1885	-11800
▁1925	-11801
▁1926	-11802
▁1932	-11803
▁1943	-11804
▁2035	-11805
▁2041	-11806
▁2042	-11807
▁2300	-11808
▁2600	-11809
▁3048	-11810
▁3600	-11811
▁4200	-11812
▁abid	-11813
▁amed	-11814
▁amit	-11815
▁aref	-11816
▁aria	-11817
▁aron	-11818
▁arts	-11819
▁arup	-11820
▁asin	-11821
▁baba	-11822
▁balô	-11823
▁bees	-11824
▁berk	-11825
▁bios	-11826
▁biếu	-11827
▁blan	-11828
▁boyd	-11829
▁bran	-11830
▁budd	-11831
▁burt	-11832
▁byte	-11833
▁bươm	-11834
▁bắng	-11835
▁bẵng	-11836
▁cage	-11837
▁cali	-11838
▁capt	-11839
▁carb	-11840
▁cash	-11841
▁cate	-11842
▁chdc	-11843
▁choẹ	-11844
▁chàm	-11845
▁chãi	-11846
▁chét	-11847
▁chũi	-11848
▁chạc	-11849
▁chồm	-11850
▁chội	-11851
▁chợp	-11852
▁cing	-11853
▁clor	-11854
▁cons	-11855
▁cuôc	-11856
▁cuội	-11857
▁dark	-11858
▁deut	-11859
▁dong	-11860
▁dora	-11861
▁doth	-11862
▁drag	-11863
▁drew	-11864
▁drop	-11865
▁dúng	-11866
▁echo	-11867
▁edge	-11868
▁educ	-11869
▁elmo	-11870
▁elyn	-11871
▁emer	-11872
▁erin	-11873
▁eust	-11874
▁facs	-11875
▁fann	-11876
▁fast	-11877
▁flem	-11878
▁fris	-11879
▁gchq	-11880
▁gins	-11881
▁giãi	-11882
▁glyc	-11883
▁gonz	-11884
▁goog	-11885
▁guar	-11886
▁guru	-11887
▁hama	-11888
▁hamp	-11889
▁hara	-11890
▁have	-11891
▁hedy	-11892
▁herz	-11893
▁hose	-11894
▁host	-11895
▁htlm	-11896
▁html	-11897
▁hugo	-11898
▁hutu	-11899
▁huân	-11900
▁hyde	-11901
▁hóng	-11902
▁irid	-11903
▁japp	-11904
▁jimi	-11905
▁joie	-11906
▁kail	-11907
▁kais	-11908
▁kane	-11909
▁khom	-11910
▁khứa	-11911
▁kiev	-11912
▁kiếu	-11913
▁knop	-11914
▁kogi	-11915
▁kort	-11916
▁kurt	-11917
▁kếch	-11918
▁lane	-11919
▁leed	-11920
▁leib	-11921
▁leop	-11922
▁lomb	-11923
▁look	-11924
▁loop	-11925
▁luci	-11926
▁lạng	-11927
▁lỉnh	-11928
▁lọng	-11929
▁macy	-11930
▁magi	-11931
▁mccl	-11932
▁mead	-11933
▁meen	-11934
▁meet	-11935
▁miko	-11936
▁mira	-11937
▁miện	-11938
▁muir	-11939
▁muồi	-11940
▁mãng	-11941
▁mùng	-11942
▁nate	-11943
▁neph	-11944
▁nets	-11945
▁ngai	-11946
▁ngos	-11947
▁ngác	-11948
▁ngói	-11949
▁ngữa	-11950
▁nhạn	-11951
▁nhẹm	-11952
▁nhẽo	-11953
▁nhọt	-11954
▁nhớp	-11955
▁noth	-11956
▁olig	-11957
▁omer	-11958
▁opio	-11959
▁osha	-11960
▁ozon	-11961
▁penh	-11962
▁perv	-11963
▁phom	-11964
▁phys	-11965
▁phấp	-11966
▁phới	-11967
▁piro	-11968
▁plan	-11969
▁pong	-11970
▁poor	-11971
▁pope	-11972
▁prog	-11973
▁psil	-11974
▁pugh	-11975
▁quýt	-11976
▁quẩy	-11977
▁rach	-11978
▁rafi	-11979
▁raku	-11980
▁rapa	-11981
▁rony	-11982
▁rook	-11983
▁room	-11984
▁rtpj	-11985
▁rumb	-11986
▁ruổi	-11987
▁rước	-11988
▁rống	-11989
▁sage	-11990
▁scar	-11991
▁scud	-11992
▁seal	-11993
▁seas	-11994
▁seng	-11995
▁shim	-11996
▁shop	-11997
▁shri	-11998
▁sill	-11999
▁sind	-12000
▁siwa	-12001
▁siza	-12002
▁size	-12003
▁skid	-12004
▁spca	-12005
▁step	-12006
▁suey	-12007
▁suny	-12008
▁swat	-12009
▁sòng	-12010
▁taco	-12011
▁tank	-12012
▁teeb	-12013
▁thar	-12014
▁this	-12015
▁thum	-12016
▁thuý	-12017
▁thàm	-12018
▁thẩy	-12019
▁thủa	-12020
▁toại	-12021
▁tree	-12022
▁trom	-12023
▁tryt	-12024
▁trét	-12025
▁trạc	-12026
▁tutu	-12027
▁tuýt	-12028
▁tuồi	-12029
▁tuồn	-12030
▁twin	-12031
▁tâng	-12032
▁tưng	-12033
▁uổng	-12034
▁verd	-12035
▁vers	-12036
▁vrse	-12037
▁vểnh	-12038
▁wach	-12039
▁waco	-12040
▁webb	-12041
▁week	-12042
▁weid	-12043
▁wemb	-12044
▁wher	-12045
▁wimb	-12046
▁wims	-12047
▁xiên	-12048
▁xẻng	-12049
▁yelp	-12050
▁yogi	-12051
▁zack	-12052
▁zeno	-12053
▁đtdđ	-12054
▁đơợc	-12055
abytes	-12056
ailles	-12057
amycin	-12058
aragua	-12059
arnaev	-12060
arthur	-12061
atment	-12062
ayette	-12063
ayorre	-12064
bachev	-12065
bridge	-12066
bright	-12067
church	-12068
ennium	-12069
errado	-12070
escope	-12071
etrius	-12072
gmatic	-12073
inejad	-12074
itchie	-12075
master	-12076
morden	-12077
onysus	-12078
phenol	-12079
raltar	-12080
uggets	-12081
vetson	-12082
walker	-12083
▁12500	-12084
▁28000	-12085
▁46664	-12086
▁55000	-12087
▁adolf	-12088
▁aeros	-12089
▁agath	-12090
▁ahmad	-12091
▁akron	-12092
▁alene	-12093
▁arcus	-12094
▁arman	-12095
▁ascap	-12096
▁atala	-12097
▁auden	-12098
▁autom	-12099
▁bacon	-12100
▁banaz	-12101
▁baton	-12102
▁baumg	-12103
▁bears	-12104
▁bigel	-12105
▁bilal	-12106
▁bingo	-12107
▁birds	-12108
▁bitum	-12109
▁blood	-12110
▁blues	-12111
▁bonds	-12112
▁books	-12113
▁boris	-12114
▁bossy	-12115
▁bouba	-12116
▁bound	-12117
▁braun	-12118
▁brent	-12119
▁catal	-12120
▁chaos	-12121
▁chard	-12122
▁chase	-12123
▁china	-12124
▁chuổi	-12125
▁chình	-12126
▁chông	-12127
▁clare	-12128
▁coeur	-12129
▁copac	-12130
▁crash	-12131
▁curie	-12132
▁daria	-12133
▁deneb	-12134
▁dhani	-12135
▁dingo	-12136
▁dusty	-12137
▁ebert	-12138
▁edgar	-12139
▁edith	-12140
▁etete	-12141
▁euler	-12142
▁extra	-12143
▁felix	-12144
▁first	-12145
▁fract	-12146
▁ghiền	-12147
▁giant	-12148
▁giằng	-12149
▁goose	-12150
▁grimm	-12151
▁group	-12152
▁guant	-12153
▁gupta	-12154
▁haifa	-12155
▁hands	-12156
▁heads	-12157
▁honey	-12158
▁hosni	-12159
▁huyễn	-12160
▁hydra	-12161
▁irene	-12162
▁ivory	-12163
▁kabad	-12164
▁kafka	-12165
▁kanzi	-12166
▁kapur	-12167
▁kayak	-12168
▁kerry	-12169
▁khoắc	-12170
▁kings	-12171
▁kitty	-12172
▁lanza	-12173
▁legos	-12174
▁level	-12175
▁lgbtq	-12176
▁lisht	-12177
▁lithu	-12178
▁livia	-12179
▁liệng	-12180
▁locke	-12181
▁lopez	-12182
▁lotus	-12183
▁lower	-12184
▁loạng	-12185
▁lynch	-12186
▁lynne	-12187
▁mahna	-12188
▁makey	-12189
▁malek	-12190
▁masai	-12191
▁maven	-12192
▁mcdow	-12193
▁meryl	-12194
▁midas	-12195
▁mitra	-12196
▁moocs	-12197
▁moray	-12198
▁mycop	-12199
▁mídia	-12200
▁mômen	-12201
▁natri	-12202
▁negro	-12203
▁nehru	-12204
▁ngạnh	-12205
▁nhình	-12206
▁nietz	-12207
▁noble	-12208
▁norep	-12209
▁nukak	-12210
▁pacak	-12211
▁pagan	-12212
▁palch	-12213
▁parus	-12214
▁peerz	-12215
▁peggy	-12216
▁peres	-12217
▁perth	-12218
▁place	-12219
▁pluto	-12220
▁polly	-12221
▁prick	-12222
▁print	-12223
▁puert	-12224
▁pygmy	-12225
▁quest	-12226
▁quyệt	-12227
▁rebel	-12228
▁rever	-12229
▁river	-12230
▁rossi	-12231
▁rotor	-12232
▁rubik	-12233
▁sabat	-12234
▁sacco	-12235
▁sahib	-12236
▁saima	-12237
▁saxon	-12238
▁scoop	-12239
▁serge	-12240
▁seuss	-12241
▁shiva	-12242
▁sinai	-12243
▁singh	-12244
▁snack	-12245
▁snake	-12246
▁stacy	-12247
▁steff	-12248
▁story	-12249
▁straw	-12250
▁studs	-12251
▁surya	-12252
▁synth	-12253
▁tatum	-12254
▁theft	-12255
▁thinh	-12256
▁thong	-12257
▁thorn	-12258
▁thòng	-12259
▁thảnh	-12260
▁titus	-12261
▁tommy	-12262
▁triền	-12263
▁trệch	-12264
▁tufts	-12265
▁tulip	-12266
▁tutsi	-12267
▁tuởng	-12268
▁urban	-12269
▁usaid	-12270
▁vapor	-12271
▁velde	-12272
▁vesta	-12273
▁villa	-12274
▁vivre	-12275
▁vocal	-12276
▁xavan	-12277
▁xoang	-12278
▁xuông	-12279
▁yards	-12280
▁yeats	-12281
▁yentl	-12282
▁zynga	-12283
ablanca	-12284
alanine	-12285
alopith	-12286
ardsley	-12287
ascript	-12288
chelles	-12289
comycin	-12290
illiard	-12291
minator	-12292
oration	-12293
station	-12294
through	-12295
▁120000	-12296
▁access	-12297
▁airbus	-12298
▁aldrin	-12299
▁alison	-12300
▁angelo	-12301
▁apache	-12302
▁athena	-12303
▁atwood	-12304
▁avenue	-12305
▁babble	-12306
▁bakers	-12307
▁baloch	-12308
▁baobab	-12309
▁bashir	-12310
▁beirut	-12311
▁bernie	-12312
▁bonnet	-12313
▁boomer	-12314
▁botton	-12315
▁bridge	-12316
▁brooke	-12317
▁brutus	-12318
▁budrus	-12319
▁buffet	-12320
▁burhan	-12321
▁burton	-12322
▁button	-12323
▁cambri	-12324
▁carmen	-12325
▁carole	-12326
▁castle	-12327
▁cheese	-12328
▁cherry	-12329
▁chrome	-12330
▁cicero	-12331
▁clarke	-12332
▁curtis	-12333
▁dakota	-12334
▁debora	-12335
▁denver	-12336
▁dunlap	-12337
▁ecuado	-12338
▁edmund	-12339
▁falcon	-12340
▁fellow	-12341
▁figure	-12342
▁france	-12343
▁frieda	-12344
▁future	-12345
▁gaines	-12346
▁geogre	-12347
▁german	-12348
▁gettys	-12349
▁gibran	-12350
▁github	-12351
▁grammy	-12352
▁hanson	-12353
▁hassan	-12354
▁helena	-12355
▁herbie	-12356
▁humble	-12357
▁hunter	-12358
▁hócmôn	-12359
▁impass	-12360
▁instit	-12361
▁isaiah	-12362
▁jaclyn	-12363
▁jagger	-12364
▁jerome	-12365
▁juarez	-12366
▁kaggle	-12367
▁karate	-12368
▁kenedy	-12369
▁kevlar	-12370
▁kidman	-12371
▁kigali	-12372
▁kimono	-12373
▁kílian	-12374
▁lamarr	-12375
▁legacy	-12376
▁lehrer	-12377
▁leymah	-12378
▁limbic	-12379
▁ludwig	-12380
▁madame	-12381
▁maggie	-12382
▁mahari	-12383
▁mahler	-12384
▁marine	-12385
▁marlin	-12386
▁metrop	-12387
▁mickey	-12388
▁missis	-12389
▁module	-12390
▁moment	-12391
▁monday	-12392
▁mowgli	-12393
▁natanz	-12394
▁newman	-12395
▁nghiêp	-12396
▁occupy	-12397
▁office	-12398
▁owings	-12399
▁parkes	-12400
▁parton	-12401
▁photoc	-12402
▁phượng	-12403
▁pilots	-12404
▁platon	-12405
▁prince	-12406
▁protei	-12407
▁prozac	-12408
▁purple	-12409
▁reader	-12410
▁rights	-12411
▁robben	-12412
▁rumani	-12413
▁samaan	-12414
▁scotch	-12415
▁scotia	-12416
▁sharif	-12417
▁sheena	-12418
▁sidney	-12419
▁sketch	-12420
▁slogan	-12421
▁soviet	-12422
▁spider	-12423
▁spirit	-12424
▁spread	-12425
▁states	-12426
▁stonew	-12427
▁stream	-12428
▁survey	-12429
▁swarth	-12430
▁tajfel	-12431
▁temple	-12432
▁thaler	-12433
▁thuơng	-12434
▁tigris	-12435
▁tomboy	-12436
▁tuabin	-12437
▁turner	-12438
▁upload	-12439
▁velcro	-12440
▁viktor	-12441
▁vulner	-12442
▁wasabi	-12443
▁wilbur	-12444
▁willie	-12445
▁willis	-12446
▁worldw	-12447
▁yeeyan	-12448
▁yochai	-12449
▁zeinab	-12450
▁đioxin	-12451
▁đioxit	-12452
aissance	-12453
aldehyde	-12454
ethylene	-12455
ironment	-12456
prisoned	-12457
rcainide	-12458
▁alberto	-12459
▁algiers	-12460
▁alphago	-12461
▁amnesty	-12462
▁arduino	-12463
▁ashdown	-12464
▁baldwin	-12465
▁bechdel	-12466
▁behring	-12467
▁bercken	-12468
▁bermuda	-12469
▁berners	-12470
▁bostrom	-12471
▁braille	-12472
▁branson	-12473
▁brigham	-12474
▁bristol	-12475
▁britlin	-12476
▁bueller	-12477
▁burning	-12478
▁burrows	-12479
▁caitria	-12480
▁century	-12481
▁cerrado	-12482
▁chapman	-12483
▁collier	-12484
▁deborah	-12485
▁decatur	-12486
▁demeter	-12487
▁dennett	-12488
▁desmond	-12489
▁donnell	-12490
▁drugshe	-12491
▁elegans	-12492
▁epstein	-12493
▁eritrea	-12494
▁eustace	-12495
▁ferrari	-12496
▁fischer	-12497
▁gelehun	-12498
▁georges	-12499
▁glasgow	-12500
▁glycine	-12501
▁goodall	-12502
▁gordian	-12503
▁hamburg	-12504
▁heifetz	-12505
▁hepburn	-12506
▁jehovah	-12507
▁katniss	-12508
▁keynote	-12509
▁knievel	-12510
▁lestari	-12511
▁letters	-12512
▁lingala	-12513
▁lorentz	-12514
▁mairead	-12515
▁melanin	-12516
▁miranda	-12517
▁natural	-12518
▁nielsen	-12519
▁nirvana	-12520
▁nothing	-12521
▁okcupid	-12522
▁paisley	-12523
▁palmpil	-12524
▁passage	-12525
▁patient	-12526
▁pharaoh	-12527
▁playboy	-12528
▁railway	-12529
▁rainbow	-12530
▁ramadan	-12531
▁randall	-12532
▁refresh	-12533
▁richter	-12534
▁ritalin	-12535
▁ritchie	-12536
▁robbins	-12537
▁roberto	-12538
▁roxbury	-12539
▁samboja	-12540
▁sanders	-12541
▁sarawak	-12542
▁schmidt	-12543
▁schultz	-12544
▁schwarz	-12545
▁sedaris	-12546
▁semitic	-12547
▁shangri	-12548
▁shapiro	-12549
▁sitopia	-12550
▁spotify	-12551
▁strider	-12552
▁sulfate	-12553
▁swenson	-12554
▁tanager	-12555
▁thoreau	-12556
▁tribune	-12557
▁turkmen	-12558
▁tuscany	-12559
▁vikings	-12560
▁village	-12561
▁wallace	-12562
▁wembley	-12563
▁whitman	-12564
▁wooster	-12565
▁wyoming	-12566
▁xunphua	-12567
foundland	-12568
▁achilles	-12569
▁agaricon	-12570
▁ambigram	-12571
▁amitabha	-12572
▁androgen	-12573
▁anhxtanh	-12574
▁appalach	-12575
▁budapest	-12576
▁building	-12577
▁buzzfeed	-12578
▁cassette	-12579
▁catholic	-12580
▁chukotka	-12581
▁clifford	-12582
▁compress	-12583
▁cornwall	-12584
▁defriend	-12585
▁deloitte	-12586
▁diaspora	-12587
▁dionysus	-12588
▁donoghue	-12589
▁dothraki	-12590
▁download	-12591
▁garifuna	-12592
▁genetics	-12593
▁genomics	-12594
▁giffords	-12595
▁graviton	-12596
▁hogeweyk	-12597
▁hospital	-12598
▁huaorani	-12599
▁imperial	-12600
▁interpol	-12601
▁intifada	-12602
▁kalenjin	-12603
▁kangaroo	-12604
▁kinshasa	-12605
▁lifecode	-12606
▁limbaugh	-12607
▁marianne	-12608
▁medicine	-12609
▁nephites	-12610
▁paganini	-12611
▁pantanal	-12612
▁phillips	-12613
▁pinatubo	-12614
▁predator	-12615
▁protocol	-12616
▁pulitzer	-12617
▁radiodur	-12618
▁reverend	-12619
▁rosalind	-12620
▁rumbaugh	-12621
▁sandrine	-12622
▁scottish	-12623
▁starshot	-12624
▁tsarnaev	-12625
▁wellcome	-12626
▁anthropoc	-12627
▁architect	-12628
▁augustine	-12629
▁beardmore	-12630
▁beardsley	-12631
▁bernstein	-12632
▁demetrius	-12633
▁education	-12634
▁footscray	-12635
▁forrester	-12636
▁francesco	-12637
▁gibraltar	-12638
▁gorbachev	-12639
▁hackathon	-12640
▁hampshire	-12641
▁headphone	-12642
▁impactful	-12643
▁juilliard	-12644
▁jurvetson	-12645
▁justineđã	-12646
▁lafayette	-12647
▁lexington	-12648
▁macarthur	-12649
▁maccready	-12650
▁nicaragua	-12651
▁nietzsche	-12652
▁orwellian	-12653
▁polyester	-12654
▁pragmatic	-12655
▁probiotic	-12656
▁rapamycin	-12657
▁recording	-12658
▁rothblatt	-12659
▁skywalker	-12660
▁solarcity	-12661
▁standford	-12662
▁steinbeck	-12663
▁synthetic	-12664
▁thaayorre	-12665
▁treatment	-12666
▁trytophan	-12667
▁vaporwave	-12668
▁wimbledon	-12669
▁woodstock	-12670
alopithecus	-12671
▁armantrout	-12672
▁barricelli	-12673
▁belshazzar	-12674
▁bennington	-12675
▁casablanca	-12676
▁chesapeake	-12677
▁copacabana	-12678
▁disneyland	-12679
▁federation	-12680
▁gettysburg	-12681
▁greenpeace	-12682
▁guantanamo	-12683
▁huffington	-12684
▁huntington	-12685
▁intellimed	-12686
▁javascript	-12687
▁kabadiwala	-12688
▁kryptonite	-12689
▁lorcainide	-12690
▁meyerowitz	-12691
▁mujahideen	-12692
▁mycoplasma	-12693
▁palchinsky	-12694
▁parusharam	-12695
▁prometheus	-12696
▁psilocybin	-12697
▁retrovirus	-12698
▁seychelles	-12699
▁strawberry	-12700
▁swarthmore	-12701
▁terminator	-12702
▁unprisoned	-12703
▁vancomycin	-12704
▁versailles	-12705
▁volkswagen	-12706
▁ahmadinejad	-12707
▁artemisinin	-12708
▁balochistan	-12709
▁blockbuster	-12710
▁development	-12711
▁drugsheaven	-12712
▁kickstarter	-12713
▁playstation	-12714
▁renaissance	-12715
▁breakthrough	-12716
▁christchurch	-12717
▁formaldehyde	-12718
▁newfoundland	-12719
▁polyethylene	-12720
▁vulnerability	-12721
▁norepinephrine	-12722
19	-12723
67	-12724
74	-12725
86	-12726
cg	-12727
ci	-12728
db	-12729
eu	-12730
gr	-12731
hs	-12732
iu	-12733
kê	-12734
là	-12735
mà	-12736
no	-12737
rn	-12738
ré	-12739
su	-12740
uu	-12741
và	-12742
ww	-12743
él	-12744
ăp	-12745
ểt	-12746
ỵt	-12747
⁄2	-12748
▁T	-12749
▁â	-12750
▁ã	-12751
▁ʾ	-12752
▁ị	-12753
▁ọ	-12754
▁ớ	-12755
416	-12756
aan	-12757
aim	-12758
aks	-12759
arh	-12760
awa	-12761
bbi	-12762
ccc	-12763
dez	-12764
dis	-12765
edo	-12766
eer	-12767
fun	-12768
geo	-12769
gie	-12770
giờ	-12771
hai	-12772
hem	-12773
ibi	-12774
iểt	-12775
jar	-12776
jaz	-12777
lay	-12778
lid	-12779
lim	-12780
liu	-12781
mal	-12782
mbc	-12783
mia	-12784
nip	-12785
okg	-12786
oni	-12787
oro	-12788
orp	-12789
oso	-12790
pix	-12791
pon	-12792
ppo	-12793
qui	-12794
rty	-12795
ruy	-12796
sea	-12797
see	-12798
ski	-12799
91	-12800
ẩt	-12801
▁£	-12802
▁°	-12803
ely	-12804
ges	-12805
ngs	-12806
nhe	-12807
org	-12808
sso	-12809
tet	-12810
uca	-12811
uct	-12812
uku	-12813
umi	-12814
vio	-12815
vos	-12816
wam	-12817
wln	-12818
xtơ	-12819
yer	-12820
zzy	-12821
öll	-12822
đun	-12823
đáp	-12824
▁TM	-12825
▁bỡ	-12826
▁ds	-12827
▁hk	-12828
▁hz	-12829
▁hù	-12830
▁hỉ	-12831
▁hụ	-12832
▁jg	-12833
▁jl	-12834
▁kf	-12835
▁kp	-12836
▁lm	-12837
▁lx	-12838
▁lỉ	-12839
▁lụ	-12840
▁lỳ	-12841
▁mé	-12842
▁nw	-12843
▁nẻ	-12844
▁rp	-12845
▁rờ	-12846
▁sê	-12847
▁tè	-12848
▁tì	-12849
▁tỳ	-12850
▁wk	-12851
▁wp	-12852
▁xc	-12853
▁xă	-12854
▁xừ	-12855
▁àh	-12856
▁áy	-12857
▁ói	-12858
▁ôz	-12859
▁ại	-12860
▁ậy	-12861
▁ờm	-12862
▁ủn	-12863
2458	-12864
abit	-12865
acha	-12866
aeop	-12867
aeus	-12868
ains	-12869
akar	-12870
akes	-12871
aldi	-12872
ales	-12873
alla	-12874
ally	-12875
anne	-12876
aoke	-12877
ared	-12878
arus	-12879
aste	-12880
atan	-12881
atot	-12882
auss	-12883
away	-12884
ayan	-12885
balt	-12886
bhan	-12887
bies	-12888
biqu	-12889
blad	-12890
bois	-12891
bott	-12892
brot	-12893
cats	-12894
ciss	-12895
coli	-12896
cort	-12897
ctor	-12898
dorf	-12899
đó	-12900
bit	-12901
edd	-12902
fam	-12903
fan	-12904
fil	-12905
gas	-12906
ibe	-12907
pas	-12908
ugu	-12909
zon	-12910
▁ov	-12911
▁rĩ	-12912
asco	-12913
asel	-12914
asia	-12915
athi	-12916
ecue	-12917
eled	-12918
elle	-12919
enan	-12920
eric	-12921
ffen	-12922
fort	-12923
four	-12924
furt	-12925
gara	-12926
gata	-12927
gens	-12928
girl	-12929
glia	-12930
glyc	-12931
hane	-12932
heem	-12933
holy	-12934
icha	-12935
idan	-12936
ifax	-12937
ikey	-12938
ilit	-12939
imal	-12940
incl	-12941
inty	-12942
iour	-12943
isel	-12944
izum	-12945
jave	-12946
jour	-12947
kaya	-12948
khri	-12949
lder	-12950
leaf	-12951
leam	-12952
llis	-12953
look	-12954
lulo	-12955
maid	-12956
mind	-12957
mira	-12958
mite	-12959
mort	-12960
nski	-12961
olum	-12962
oopy	-12963
oora	-12964
oque	-12965
oric	-12966
orin	-12967
ound	-12968
page	-12969
plar	-12970
ppuc	-12971
pric	-12972
prus	-12973
rezz	-12974
rhod	-12975
ribe	-12976
rion	-12977
rips	-12978
roll	-12979
rove	-12980
sees	-12981
seud	-12982
seus	-12983
shaw	-12984
shey	-12985
sing	-12986
smos	-12987
sper	-12988
thus	-12989
tich	-12990
tner	-12991
têin	-12992
ucks	-12993
uire	-12994
ujan	-12995
uman	-12996
upon	-12997
vika	-12998
wald	-12999
áz	-13000
aca	-13001
cac	-13002
eeb	-13003
ibu	-13004
ids	-13005
jew	-13006
mus	-13007
pet	-13008
rog	-13009
san	-13010
uts	-13011
ved	-13012
▁ez	-13013
7000	-13014
acch	-13015
axon	-13016
ishu	-13017
kozy	-13018
rise	-13019
shmi	-13020
ured	-13021
weet	-13022
yath	-13023
ybot	-13024
yola	-13025
zhen	-13026
▁108	-13027
▁113	-13028
▁156	-13029
▁184	-13030
▁227	-13031
▁251	-13032
▁260	-13033
▁265	-13034
▁270	-13035
▁277	-13036
▁321	-13037
▁325	-13038
▁387	-13039
▁420	-13040
▁480	-13041
▁529	-13042
▁530	-13043
▁544	-13044
▁581	-13045
▁623	-13046
▁720	-13047
▁730	-13048
▁737	-13049
▁778	-13050
▁780	-13051
▁855	-13052
▁987	-13053
▁995	-13054
▁alh	-13055
▁ani	-13056
▁ask	-13057
▁azt	-13058
▁bad	-13059
▁bee	-13060
▁beo	-13061
▁byr	-13062
▁báp	-13063
▁bùi	-13064
▁bết	-13065
▁bỡn	-13066
▁cfo	-13067
▁cpr	-13068
▁csp	-13069
▁cus	-13070
▁cưu	-13071
▁cốp	-13072
▁cộp	-13073
▁cừa	-13074
▁dal	-13075
▁dol	-13076
▁dox	-13077
▁dro	-13078
▁dut	-13079
▁dys	-13080
▁dặc	-13081
▁dỏm	-13082
▁dổi	-13083
▁dợt	-13084
▁eat	-13085
▁ekg	-13086
▁eni	-13087
▁eod	-13088
▁exe	-13089
▁exo	-13090
▁fdi	-13091
▁fit	-13092
▁gap	-13093
▁gaw	-13094
▁got	-13095
▁gsm	-13096
▁guy	-13097
▁gạc	-13098
▁gảy	-13099
bốt	-13100
iph	-13101
ulu	-13102
▁gừ	-13103
akis	-13104
beth	-13105
elas	-13106
emin	-13107
etah	-13108
mine	-13109
name	-13110
phet	-13111
sted	-13112
stis	-13113
sumé	-13114
teny	-13115
ures	-13116
▁126	-13117
▁ave	-13118
▁blo	-13119
▁bok	-13120
▁bím	-13121
▁caf	-13122
▁cnc	-13123
▁doo	-13124
▁duh	-13125
▁gri	-13126
▁gém	-13127
▁gỏi	-13128
▁gộc	-13129
▁hah	-13130
▁hbo	-13131
▁heh	-13132
▁his	-13133
▁hmo	-13134
▁hoỉ	-13135
▁huệ	-13136
▁háu	-13137
▁hên	-13138
▁hõm	-13139
▁hướ	-13140
▁ign	-13141
▁inv	-13142
▁jal	-13143
▁kad	-13144
▁kah	-13145
▁ket	-13146
▁kgb	-13147
▁khò	-13148
▁khẳ	-13149
▁kkk	-13150
▁kna	-13151
▁koh	-13152
▁kub	-13153
▁kum	-13154
▁kêt	-13155
▁laị	-13156
▁ler	-13157
▁lxd	-13158
▁lys	-13159
▁lào	-13160
▁làu	-13161
▁láp	-13162
▁láy	-13163
▁lìm	-13164
▁lói	-13165
▁lạn	-13166
▁lấm	-13167
▁lất	-13168
▁lốn	-13169
▁lổi	-13170
▁lởm	-13171
▁maz	-13172
▁meh	-13173
▁mia	-13174
▁mim	-13175
▁mou	-13176
▁muq	-13177
▁muy	-13178
▁már	-13179
▁mận	-13180
▁mắm	-13181
▁nal	-13182
▁naz	-13183
▁ndd	-13184
▁ngố	-13185
▁nhá	-13186
▁nhó	-13187
▁nhọ	-13188
▁nhứ	-13189
▁nos	-13190
▁nra	-13191
▁nsf	-13192
▁nui	-13193
▁nye	-13194
▁nàu	-13195
▁nán	-13196
▁núc	-13197
▁nẩy	-13198
▁nẳm	-13199
abo	-13200
jai	-13201
▁dợ	-13202
▁pt	-13203
agag	-13204
alds	-13205
arty	-13206
arum	-13207
endi	-13208
lyan	-13209
most	-13210
onen	-13211
onta	-13212
rive	-13213
ydia	-13214
▁114	-13215
▁116	-13216
▁174	-13217
▁405	-13218
▁chr	-13219
▁cub	-13220
▁dos	-13221
▁gấy	-13222
▁jum	-13223
▁lợp	-13224
▁mui	-13225
▁mĩm	-13226
▁mũm	-13227
▁nốc	-13228
▁oma	-13229
▁omg	-13230
▁oải	-13231
▁pag	-13232
▁pax	-13233
▁pel	-13234
▁prí	-13235
▁psy	-13236
▁pvc	-13237
▁rag	-13238
▁rai	-13239
▁reu	-13240
▁rey	-13241
▁roc	-13242
▁rum	-13243
▁ràm	-13244
▁rát	-13245
▁róc	-13246
▁rôn	-13247
▁rạo	-13248
▁rắt	-13249
▁rỏi	-13250
▁sef	-13251
▁shr	-13252
▁ske	-13253
▁sor	-13254
▁src	-13255
▁sta	-13256
▁sua	-13257
▁suý	-13258
▁sác	-13259
▁sòm	-13260
▁sơm	-13261
▁sạo	-13262
▁sạp	-13263
▁sếu	-13264
▁sứt	-13265
▁sựu	-13266
▁tau	-13267
▁tbi	-13268
▁thè	-13269
▁thó	-13270
▁til	-13271
▁toe	-13272
▁trứ	-13273
▁tsa	-13274
▁tép	-13275
▁tấy	-13276
▁tẩn	-13277
▁una	-13278
▁urb	-13279
▁vam	-13280
▁vẵn	-13281
▁vối	-13282
▁vợi	-13283
▁wai	-13284
▁wei	-13285
▁wig	-13286
▁wpr	-13287
▁www	-13288
▁xuý	-13289
▁xxi	-13290
▁xỉa	-13291
▁xối	-13292
▁xổm	-13293
▁xộc	-13294
▁yak	-13295
▁yao	-13296
▁yểm	-13297
▁yểu	-13298
▁zar	-13299
nj	-13300
irk	-13301
not	-13302
uki	-13303
zeg	-13304
▁cữ	-13305
aise	-13306
aver	-13307
dest	-13308
ecer	-13309
egan	-13310
elis	-13311
esta	-13312
ffin	-13313
ians	-13314
iego	-13315
kawa	-13316
pack	-13317
ubon	-13318
vell	-13319
very	-13320
▁133	-13321
▁134	-13322
▁143	-13323
▁221	-13324
▁aff	-13325
▁brt	-13326
▁cty	-13327
▁cúa	-13328
▁fry	-13329
▁fur	-13330
▁lec	-13331
▁nơt	-13332
▁orn	-13333
▁pác	-13334
▁yer	-13335
▁zem	-13336
▁zir	-13337
▁zod	-13338
▁ôkê	-13339
▁úng	-13340
▁đât	-13341
▁đăm	-13342
▁đỏi	-13343
▁đờm	-13344
▁đợc	-13345
achan	-13346
adget	-13347
adian	-13348
ahari	-13349
aisal	-13350
amics	-13351
amien	-13352
angea	-13353
anian	-13354
annon	-13355
anuts	-13356
aquin	-13357
artes	-13358
arthi	-13359
asana	-13360
asota	-13361
attam	-13362
atura	-13363
aungu	-13364
awaka	-13365
berer	-13366
borni	-13367
celot	-13368
child	-13369
chlor	-13370
chuan	-13371
chúng	-13372
codin	-13373
dient	-13374
dorov	-13375
ebren	-13376
edale	-13377
edial	-13378
eeney	-13379
egger	-13380
ellan	-13381
elsea	-13382
encia	-13383
endan	-13384
endro	-13385
ening	-13386
enner	-13387
ental	-13388
esava	-13389
esque	-13390
essig	-13391
eteia	-13392
etmap	-13393
etron	-13394
ewitt	-13395
farin	-13396
fense	-13397
garia	-13398
hiari	-13399
100	-13400
buk	-13401
ibb	-13402
iko	-13403
lel	-13404
rma	-13405
udi	-13406
vez	-13407
▁dn	-13408
▁rỗ	-13409
atta	-13410
atts	-13411
ebbe	-13412
ebok	-13413
elan	-13414
gett	-13415
oose	-13416
phne	-13417
ptom	-13418
side	-13419
umbe	-13420
ylic	-13421
▁213	-13422
▁215	-13423
▁915	-13424
▁ata	-13425
▁cta	-13426
▁cóp	-13427
▁dòm	-13428
▁edx	-13429
▁gee	-13430
▁hèm	-13431
▁kol	-13432
▁mèm	-13433
▁nec	-13434
▁orb	-13435
▁vửa	-13436
▁wuh	-13437
▁đăt	-13438
buktu	-13439
hrain	-13440
icken	-13441
idone	-13442
ields	-13443
ieria	-13444
iffen	-13445
ifica	-13446
igail	-13447
ikeya	-13448
illar	-13449
inect	-13450
iolis	-13451
iopad	-13452
ipcar	-13453
itage	-13454
ittin	-13455
ledge	-13456
lexic	-13457
liard	-13458
light	-13459
mandu	-13460
miral	-13461
ncipe	-13462
neezy	-13463
ngers	-13464
ngill	-13465
nguin	-13466
nipeg	-13467
ocaly	-13468
ocken	-13469
olloh	-13470
olulu	-13471
onium	-13472
onnay	-13473
ookie	-13474
opsin	-13475
opter	-13476
orsch	-13477
ortun	-13478
otesk	-13479
otine	-13480
oturf	-13481
owsky	-13482
paran	-13483
parov	-13484
pring	-13485
queak	-13486
quest	-13487
ramer	-13488
rande	-13489
raska	-13490
relin	-13491
riter	-13492
robie	-13493
score	-13494
smuss	-13495
teryx	-13496
theon	-13497
trand	-13498
uchad	-13499
fty	-13500
jet	-13501
indy	-13502
odes	-13503
odia	-13504
rypt	-13505
▁att	-13506
▁trũ	-13507
▁zim	-13508
ignon	-13509
tners	-13510
ujaim	-13511
ullah	-13512
umber	-13513
urday	-13514
verat	-13515
vitos	-13516
works	-13517
xicam	-13518
xites	-13519
zrahi	-13520
▁0000	-13521
▁1034	-13522
▁1448	-13523
▁1450	-13524
▁1650	-13525
▁1750	-13526
▁1760	-13527
▁1776	-13528
▁1801	-13529
▁1820	-13530
▁1835	-13531
▁1867	-13532
▁1868	-13533
▁1872	-13534
▁1887	-13535
▁1891	-13536
▁1899	-13537
▁1907	-13538
▁1908	-13539
▁1911	-13540
▁1913	-13541
▁1924	-13542
▁1931	-13543
▁1934	-13544
▁1936	-13545
▁1942	-13546
▁2019	-13547
▁2021	-13548
▁2022	-13549
▁2048	-13550
▁2800	-13551
▁4300	-13552
▁5300	-13553
▁7100	-13554
▁7200	-13555
▁9999	-13556
▁aaaa	-13557
▁abby	-13558
▁abdi	-13559
▁acin	-13560
▁aclu	-13561
▁agus	-13562
▁aida	-13563
▁aidg	-13564
▁amar	-13565
▁arby	-13566
▁army	-13567
▁astr	-13568
▁atcg	-13569
▁atom	-13570
▁axet	-13571
▁baja	-13572
▁bake	-13573
▁barn	-13574
▁batt	-13575
▁bela	-13576
▁benz	-13577
▁bier	-13578
▁biều	-13579
▁blih	-13580
▁bose	-13581
▁bric	-13582
▁brid	-13583
▁brig	-13584
▁bulg	-13585
▁buối	-13586
▁buồi	-13587
▁caer	-13588
▁cald	-13589
▁call	-13590
▁cand	-13591
▁cato	-13592
▁cbgb	-13593
▁cepi	-13594
▁ches	-13595
▁chez	-13596
▁chêm	-13597
▁chúi	-13598
▁chún	-13599
▁chầu	-13600
▁chậc	-13601
▁chỉn	-13602
▁chởm	-13603
▁chụm	-13604
▁cnbc	-13605
▁cntt	-13606
▁comm	-13607
▁copd	-13608
▁cour	-13609
▁creo	-13610
▁dahl	-13611
▁dash	-13612
▁dawn	-13613
▁dear	-13614
▁dein	-13615
▁dell	-13616
▁desc	-13617
▁digg	-13618
▁diển	-13619
▁dopa	-13620
▁dozo	-13621
▁dram	-13622
▁duck	-13623
▁dyre	-13624
▁dượt	-13625
▁dửng	-13626
▁epim	-13627
▁evil	-13628
▁evol	-13629
▁exch	-13630
▁fare	-13631
▁faye	-13632
▁film	-13633
▁fisa	-13634
▁five	-13635
▁fomo	-13636
▁fore	-13637
▁four	-13638
▁fund	-13639
▁gage	-13640
▁gaia	-13641
▁gaul	-13642
▁gell	-13643
▁ghém	-13644
▁giga	-13645
▁giãy	-13646
▁giầu	-13647
▁giởi	-13648
▁glen	-13649
▁glut	-13650
▁gobi	-13651
▁goto	-13652
▁gulp	-13653
▁guth	-13654
▁guốc	-13655
▁gông	-13656
▁gọng	-13657
▁hald	-13658
▁hale	-13659
▁hanh	-13660
▁hare	-13661
▁hect	-13662
▁herr	-13663
▁hodg	-13664
▁hoáy	-13665
▁hoản	-13666
▁hsbc	-13667
▁hume	-13668
▁humm	-13669
▁huyn	-13670
▁hích	-13671
▁höll	-13672
▁hĩnh	-13673
▁hẫng	-13674
▁hẳng	-13675
▁hỗng	-13676
▁ibot	-13677
▁idol	-13678
▁issa	-13679
▁itis	-13680
▁jami	-13681
▁jans	-13682
▁jian	-13683
▁jigs	-13684
▁jpeg	-13685
▁kean	-13686
▁keng	-13687
▁kens	-13688
▁keny	-13689
▁khat	-13690
▁kheo	-13691
▁khẩm	-13692
▁khắn	-13693
▁khổi	-13694
▁kilo	-13695
▁kilô	-13696
▁kipp	-13697
▁koch	-13698
▁kosh	-13699
▁kosi	-13700
▁kroc	-13701
▁kuhn	-13702
▁kyle	-13703
▁kình	-13704
▁kệch	-13705
▁laet	-13706
▁lara	-13707
▁lawn	-13708
▁lehi	-13709
▁leic	-13710
▁lemp	-13711
▁lenn	-13712
▁lily	-13713
▁loga	-13714
▁lorr	-13715
▁lost	-13716
▁loud	-13717
▁luce	-13718
▁lula	-13719
▁mack	-13720
▁make	-13721
▁maki	-13722
▁mate	-13723
▁mena	-13724
▁midi	-13725
▁mies	-13726
▁mimi	-13727
▁mish	-13728
▁miều	-13729
▁mona	-13730
▁mooc	-13731
▁mori	-13732
▁moto	-13733
▁mtts	-13734
▁mupp	-13735
▁muth	-13736
▁mybo	-13737
▁myod	-13738
▁mính	-13739
▁múôn	-13740
▁mướn	-13741
▁mướt	-13742
▁mịch	-13743
▁nair	-13744
▁nass	-13745
▁neop	-13746
▁next	-13747
▁ngoa	-13748
▁ngoạ	-13749
▁ngườ	-13750
▁ngổn	-13751
▁ngớt	-13752
▁ngụp	-13753
▁nhâm	-13754
▁nhéo	-13755
▁nhíp	-13756
▁nhùi	-13757
▁nhưg	-13758
▁nhậu	-13759
▁nhắt	-13760
▁nhớt	-13761
▁nhỡn	-13762
▁nicu	-13763
▁nile	-13764
▁nino	-13765
▁niss	-13766
▁niền	-13767
▁noaa	-13768
▁nord	-13769
▁nyan	-13770
▁núng	-13771
▁nươc	-13772
▁nười	-13773
▁nịnh	-13774
▁oort	-13775
▁oppe	-13776
▁owen	-13777
▁paje	-13778
▁palu	-13779
▁past	-13780
▁pccc	-13781
▁peek	-13782
▁pell	-13783
▁peta	-13784
▁phiá	-13785
▁phập	-13786
▁phụt	-13787
▁phủi	-13788
▁phực	-13789
▁piar	-13790
▁ping	-13791
▁pink	-13792
▁plot	-13793
▁pmdd	-13794
▁pnas	-13795
▁pret	-13796
▁pttt	-13797
▁puma	-13798
▁pune	-13799
▁punj	-13800
▁qian	-13801
▁quin	-13802
▁quiz	-13803
▁quạc	-13804
▁quặt	-13805
▁radi	-13806
▁rads	-13807
▁raja	-13808
▁rama	-13809
▁rest	-13810
▁rfid	-13811
▁rico	-13812
▁riết	-13813
▁rosy	-13814
▁sala	-13815
▁sanh	-13816
▁sash	-13817
▁saty	-13818
▁saul	-13819
▁saxe	-13820
▁sead	-13821
▁serv	-13822
▁sett	-13823
▁sexy	-13824
▁shai	-13825
▁shea	-13826
▁shiv	-13827
▁shoo	-13828
▁shuk	-13829
▁sith	-13830
▁slid	-13831
▁smul	-13832
▁sono	-13833
▁soup	-13834
▁spam	-13835
▁spec	-13836
▁spok	-13837
▁sula	-13838
▁sunf	-13839
▁suss	-13840
▁suỵt	-13841
▁symb	-13842
▁syna	-13843
▁sượt	-13844
▁sụng	-13845
▁tell	-13846
▁thau	-13847
▁thou	-13848
▁thoã	-13849
▁thpt	-13850
▁thía	-13851
▁thóp	-13852
▁thùa	-13853
▁thơi	-13854
▁thậy	-13855
▁thọc	-13856
▁thửa	-13857
▁tier	-13858
▁tiển	-13859
▁todd	-13860
▁togo	-13861
▁tomé	-13862
▁tory	-13863
▁tosh	-13864
▁toét	-13865
▁true	-13866
▁trót	-13867
▁trọi	-13868
▁trớn	-13869
▁trức	-13870
▁tuốc	-13871
▁twil	-13872
▁tòng	-13873
▁tượt	-13874
▁vani	-13875
▁venk	-13876
▁viet	-13877
▁vint	-13878
▁voip	-13879
▁vous	-13880
▁vuột	-13881
▁vuợt	-13882
▁vánh	-13883
▁wace	-13884
▁wait	-13885
▁wald	-13886
▁wein	-13887
▁whir	-13888
▁wich	-13889
▁wies	-13890
▁wmap	-13891
▁woai	-13892
▁worl	-13893
▁wyly	-13894
▁xang	-13895
▁xcel	-13896
▁xỉnh	-13897
▁yang	-13898
▁yass	-13899
▁yolo	-13900
▁zers	-13901
▁zoom	-13902
▁zulu	-13903
▁ôliu	-13904
▁ôzôn	-13905
▁đoản	-13906
▁đìều	-13907
▁đòng	-13908
▁đạng	-13909
▁đựoc	-13910
adishu	-13911
ahertz	-13912
aloosa	-13913
amines	-13914
anella	-13915
anzito	-13916
artner	-13917
askara	-13918
ateful	-13919
bodera	-13920
brandt	-13921
bridos	-13922
cacbon	-13923
ceptin	-13924
chanan	-13925
chcock	-13926
cissus	-13927
cortex	-13928
dalene	-13929
diving	-13930
dleton	-13931
dullah	-13932
egrass	-13933
emagne	-13934
ephone	-13935
escent	-13936
eskind	-13937
estown	-13938
ethane	-13939
etzung	-13940
gregor	-13941
harata	-13942
iathan	-13943
ihouse	-13944
insula	-13945
intyre	-13946
irambo	-13947
istics	-13948
itchik	-13949
izumab	-13950
liding	-13951
lingon	-13952
logues	-13953
mitomo	-13954
mobile	-13955
nataka	-13956
nezzar	-13957
nisone	-13958
ochond	-13959
opolis	-13960
ormack	-13961
raksha	-13962
rannus	-13963
ribati	-13964
ribiqu	-13965
terest	-13966
tetris	-13967
tsdale	-13968
ullate	-13969
urture	-13970
ushing	-13971
vantes	-13972
weiser	-13973
wright	-13974
zynski	-13975
ázquez	-13976
▁17500	-13977
▁32000	-13978
▁57000	-13979
▁66000	-13980
▁83000	-13981
▁ababa	-13982
▁acids	-13983
▁acorn	-13984
▁addis	-13985
▁aerov	-13986
▁afrig	-13987
▁ailey	-13988
▁aless	-13989
▁andré	-13990
▁angry	-13991
▁anita	-13992
▁armen	-13993
▁artie	-13994
▁aspen	-13995
▁astro	-13996
▁avril	-13997
▁babel	-13998
▁baidu	-13999
▁bambi	-14000
▁banks	-14001
▁beeps	-14002
▁bejew	-14003
▁belle	-14004
▁berth	-14005
▁bioph	-14006
▁birth	-14007
▁bjorn	-14008
▁blogs	-14009
▁bolte	-14010
▁borde	-14011
▁bored	-14012
▁bowie	-14013
▁brené	-14014
▁bruck	-14015
▁bueno	-14016
▁buffy	-14017
▁byrne	-14018
▁cards	-14019
▁carta	-14020
▁catch	-14021
▁cheka	-14022
▁cheng	-14023
▁chiat	-14024
▁chiểu	-14025
▁chlam	-14026
▁chlor	-14027
▁chrom	-14028
▁chạng	-14029
▁chảng	-14030
▁chẵng	-14031
▁cindy	-14032
▁cisco	-14033
▁clara	-14034
▁class	-14035
▁clone	-14036
▁colin	-14037
▁compa	-14038
▁couch	-14039
▁crazy	-14040
▁creek	-14041
▁crich	-14042
▁crips	-14043
▁cyark	-14044
▁dante	-14045
▁darth	-14046
▁davos	-14047
▁demis	-14048
▁deter	-14049
▁dhabi	-14050
▁dhaka	-14051
▁dijon	-14052
▁dodge	-14053
▁doerr	-14054
▁domit	-14055
▁donne	-14056
▁dorch	-14057
▁doris	-14058
▁eagle	-14059
▁earle	-14060
▁eddie	-14061
▁ekman	-14062
▁erika	-14063
▁erwin	-14064
▁esper	-14065
▁eugen	-14066
▁evans	-14067
▁falls	-14068
▁fidel	-14069
▁fifth	-14070
▁filet	-14071
▁fitch	-14072
▁foley	-14073
▁forte	-14074
▁fours	-14075
▁fredo	-14076
▁frost	-14077
▁fulla	-14078
▁garry	-14079
▁gbame	-14080
▁geese	-14081
▁giêsu	-14082
▁glaxo	-14083
▁gleam	-14084
▁going	-14085
▁golia	-14086
▁golub	-14087
▁gombe	-14088
▁grady	-14089
▁graph	-14090
▁grill	-14091
▁groot	-14092
▁gross	-14093
▁gufti	-14094
▁gusta	-14095
▁haber	-14096
▁hades	-14097
▁hayek	-14098
▁hayes	-14099
▁healy	-14100
▁hello	-14101
▁hertz	-14102
▁hicks	-14103
▁hijaz	-14104
▁homun	-14105
▁hunts	-14106
▁hutch	-14107
▁ipads	-14108
▁ipods	-14109
▁irvin	-14110
▁issac	-14111
▁jabba	-14112
▁jared	-14113
▁jolla	-14114
▁katie	-14115
▁katya	-14116
▁khoáy	-14117
▁khắng	-14118
▁khỉnh	-14119
▁khộng	-14120
▁knopf	-14121
▁lewes	-14122
▁lexus	-14123
▁linda	-14124
▁liver	-14125
▁lives	-14126
▁loang	-14127
▁logan	-14128
▁loveg	-14129
▁luhan	-14130
▁lunch	-14131
▁lélia	-14132
▁maeda	-14133
▁magma	-14134
▁magna	-14135
▁mahal	-14136
▁major	-14137
▁maker	-14138
▁manal	-14139
▁marty	-14140
▁mason	-14141
▁mcgon	-14142
▁meier	-14143
▁melen	-14144
▁melod	-14145
▁messi	-14146
▁mikey	-14147
▁milky	-14148
▁minda	-14149
▁modul	-14150
▁monet	-14151
▁monty	-14152
▁moody	-14153
▁moria	-14154
▁moshe	-14155
▁myers	-14156
▁nacho	-14157
▁natal	-14158
▁nerve	-14159
▁nghía	-14160
▁nghỉa	-14161
▁ngiên	-14162
▁ngiệm	-14163
▁nguwo	-14164
▁ngáng	-14165
▁ngưới	-14166
▁nhiếu	-14167
▁nhiệp	-14168
▁nhoài	-14169
▁nhuốc	-14170
▁nhành	-14171
▁nhăng	-14172
▁nhếch	-14173
▁nhửng	-14174
▁niken	-14175
▁ninth	-14176
▁noora	-14177
▁novak	-14178
▁octop	-14179
▁olive	-14180
▁olson	-14181
▁omaha	-14182
▁otodo	-14183
▁paige	-14184
▁paley	-14185
▁parad	-14186
▁patee	-14187
▁percy	-14188
▁perez	-14189
▁petra	-14190
▁pette	-14191
▁phage	-14192
▁phnom	-14193
▁phone	-14194
▁pixel	-14195
▁pogue	-14196
▁polis	-14197
▁polyp	-14198
▁porto	-14199
▁pratt	-14200
▁produ	-14201
▁pseud	-14202
▁pshoo	-14203
▁quinn	-14204
▁quánh	-14205
▁rabbi	-14206
▁raman	-14207
▁ramen	-14208
▁rayan	-14209
▁reese	-14210
▁reill	-14211
▁roboc	-14212
▁robyn	-14213
▁rosem	-14214
▁rossy	-14215
▁round	-14216
▁ruben	-14217
▁rupal	-14218
▁rusty	-14219
▁rôbốt	-14220
▁sasha	-14221
▁scala	-14222
▁scots	-14223
▁sedol	-14224
▁serif	-14225
▁seven	-14226
▁shall	-14227
▁shand	-14228
▁shell	-14229
▁shift	-14230
▁shura	-14231
▁sidra	-14232
▁sikhs	-14233
▁sincl	-14234
▁skill	-14235
▁slack	-14236
▁sloan	-14237
▁smite	-14238
▁sonny	-14239
▁sound	-14240
▁stawi	-14241
▁sting	-14242
▁stony	-14243
▁store	-14244
▁study	-14245
▁sutra	-14246
▁sweet	-14247
▁table	-14248
▁tampa	-14249
▁tarka	-14250
▁terry	-14251
▁these	-14252
▁thiến	-14253
▁three	-14254
▁thuât	-14255
▁tikal	-14256
▁timor	-14257
▁toang	-14258
▁tocil	-14259
▁truân	-14260
▁trypt	-14261
▁trành	-14262
▁trạnh	-14263
▁trằng	-14264
▁trịnh	-14265
▁turin	-14266
▁tyson	-14267
▁unger	-14268
▁usman	-14269
▁waldo	-14270
▁walts	-14271
▁waltz	-14272
▁wayne	-14273
▁weber	-14274
▁webmd	-14275
▁wheat	-14276
▁whoom	-14277
▁widow	-14278
▁willy	-14279
▁worth	-14280
▁xiềng	-14281
▁xoàng	-14282
▁yahli	-14283
▁yanis	-14284
▁zapat	-14285
▁zumra	-14286
▁điiều	-14287
advisor	-14288
agrande	-14289
berries	-14290
ception	-14291
dington	-14292
edition	-14293
efeller	-14294
emaster	-14295
esville	-14296
formers	-14297
houette	-14298
isterre	-14299
lemaine	-14300
lusconi	-14301
obacter	-14302
smussen	-14303
tichini	-14304
đápchưa	-14305
▁155000	-14306
▁180000	-14307
▁abacha	-14308
▁abbott	-14309
▁accord	-14310
▁agathe	-14311
▁agumbe	-14312
▁agusta	-14313
▁airpix	-14314
▁aleppo	-14315
▁alisch	-14316
▁ananth	-14317
▁anatot	-14318
▁anissa	-14319
▁ariely	-14320
▁atonia	-14321
▁aurora	-14322
▁babush	-14323
▁bacter	-14324
▁bailey	-14325
▁balkhi	-14326
▁banner	-14327
▁barney	-14328
▁beloit	-14329
▁benoit	-14330
▁bering	-14331
▁bharat	-14332
▁booker	-14333
▁boothe	-14334
▁botero	-14335
▁bourke	-14336
▁brasil	-14337
▁buddha	-14338
▁bungee	-14339
▁butter	-14340
▁canaan	-14341
▁cantor	-14342
▁capric	-14343
▁caribe	-14344
▁carton	-14345
▁centre	-14346
▁change	-14347
▁chavez	-14348
▁chiêng	-14349
▁choạng	-14350
▁cinema	-14351
▁clance	-14352
▁claron	-14353
▁cobalt	-14354
▁coltan	-14355
▁connie	-14356
▁copper	-14357
▁cosmos	-14358
▁cradle	-14359
▁crunch	-14360
▁custer	-14361
▁cyprus	-14362
▁damien	-14363
▁daphne	-14364
▁daptom	-14365
▁darwln	-14366
▁dayton	-14367
▁declan	-14368
▁delphi	-14369
▁diffee	-14370
▁diybio	-14371
▁dmitry	-14372
▁dodson	-14373
▁dorado	-14374
▁dorset	-14375
▁draper	-14376
▁drones	-14377
▁duddly	-14378
▁dustin	-14379
▁eagles	-14380
▁eggers	-14381
▁ellroy	-14382
▁ellsey	-14383
▁epipen	-14384
▁esvelt	-14385
▁etylen	-14386
▁europe	-14387
▁explor	-14388
▁factor	-14389
▁faizan	-14390
▁family	-14391
▁favela	-14392
▁fields	-14393
▁finkle	-14394
▁fluxon	-14395
▁flying	-14396
▁forest	-14397
▁format	-14398
▁foster	-14399
▁frankl	-14400
▁friday	-14401
▁fusion	-14402
▁gambia	-14403
▁ganges	-14404
▁garner	-14405
▁gehrig	-14406
▁gneezy	-14407
▁golden	-14408
▁gorgon	-14409
▁greene	-14410
▁habibi	-14411
▁hadiza	-14412
▁harare	-14413
▁harbor	-14414
▁hawken	-14415
▁herald	-14416
▁hermia	-14417
▁hilary	-14418
▁hillis	-14419
▁hinton	-14420
▁hippie	-14421
▁hotdog	-14422
▁hunger	-14423
▁indust	-14424
▁isreal	-14425
▁italia	-14426
▁itunes	-14427
▁jacobs	-14428
▁jaisal	-14429
▁jehane	-14430
▁jetman	-14431
▁joanne	-14432
▁jungle	-14433
▁kaiser	-14434
▁kelley	-14435
▁kenobi	-14436
▁kenyon	-14437
▁keynes	-14438
▁khaled	-14439
▁khalid	-14440
▁khalil	-14441
▁kinect	-14442
▁kwendi	-14443
▁lakoff	-14444
▁landau	-14445
▁laurel	-14446
▁laurie	-14447
▁leader	-14448
▁legion	-14449
▁lepage	-14450
▁lessig	-14451
▁litter	-14452
▁livest	-14453
▁lorenz	-14454
▁lovins	-14455
▁loyola	-14456
▁lympho	-14457
▁macron	-14458
▁madela	-14459
▁madras	-14460
▁maezza	-14461
▁magyar	-14462
▁malibu	-14463
▁malory	-14464
▁maniac	-14465
▁mantra	-14466
▁manuel	-14467
▁marcos	-14468
▁marder	-14469
▁marion	-14470
▁mcgrew	-14471
▁memory	-14472
▁michal	-14473
▁millen	-14474
▁milner	-14475
▁mimosa	-14476
▁minute	-14477
▁mirren	-14478
▁mister	-14479
▁mixing	-14480
▁mobius	-14481
▁moholy	-14482
▁mojave	-14483
▁motors	-14484
▁munich	-14485
▁muslim	-14486
▁nanoty	-14487
▁nansen	-14488
▁newark	-14489
▁nickel	-14490
▁novaes	-14491
▁nơtron	-14492
▁obiang	-14493
▁opioid	-14494
▁oxalat	-14495
▁pajama	-14496
▁paldin	-14497
▁palmer	-14498
▁pamela	-14499
▁pangea	-14500
▁papert	-14501
▁paramo	-14502
▁patton	-14503
▁pavlov	-14504
▁paypal	-14505
▁pepfar	-14506
▁perasa	-14507
▁peruse	-14508
▁philly	-14509
▁phipps	-14510
▁phuơng	-14511
▁pierce	-14512
▁plains	-14513
▁police	-14514
▁polime	-14515
▁poupon	-14516
▁powell	-14517
▁propan	-14518
▁puerto	-14519
▁purine	-14520
▁quinin	-14521
▁rafael	-14522
▁raheem	-14523
▁random	-14524
▁rashid	-14525
▁reebok	-14526
▁ridley	-14527
▁risper	-14528
▁robbie	-14529
▁rookie	-14530
▁rooney	-14531
▁rousse	-14532
▁rovers	-14533
▁ruslan	-14534
▁résumé	-14535
▁safdie	-14536
▁sandor	-14537
▁sarand	-14538
▁sarcom	-14539
▁scalia	-14540
▁seatle	-14541
▁sekhri	-14542
▁semler	-14543
▁seneca	-14544
▁sesame	-14545
▁sexton	-14546
▁shaker	-14547
▁shekel	-14548
▁shirin	-14549
▁shoney	-14550
▁sietas	-14551
▁silvio	-14552
▁simons	-14553
▁sirena	-14554
▁sitcom	-14555
▁siyath	-14556
▁slayer	-14557
▁snoopy	-14558
▁solove	-14559
▁sports	-14560
▁sprezz	-14561
▁squeak	-14562
▁staten	-14563
▁steffi	-14564
▁stella	-14565
▁stereo	-14566
▁streep	-14567
▁strept	-14568
▁sudoku	-14569
▁sugata	-14570
▁summer	-14571
▁talmud	-14572
▁tedmed	-14573
▁things	-14574
▁thorne	-14575
▁thuờng	-14576
▁tilley	-14577
▁tinker	-14578
▁travis	-14579
▁tyrann	-14580
▁vaclav	-14581
▁vanity	-14582
▁vibrio	-14583
▁vieira	-14584
▁walken	-14585
▁walton	-14586
▁weston	-14587
▁wiener	-14588
▁wikile	-14589
▁woohoo	-14590
▁wookie	-14591
▁wuddly	-14592
▁yamuna	-14593
▁yankee	-14594
▁yaourt	-14595
▁ziploc	-14596
▁zodiac	-14597
bblebine	-14598
bererana	-14599
chlorate	-14600
elliform	-14601
esterone	-14602
glycemia	-14603
ocotylus	-14604
otaxites	-14605
▁abidjan	-14606
▁abigail	-14607
▁admiral	-14608
▁aerosol	-14609
▁amazone	-14610
▁andrews	-14611
▁angelou	-14612
▁apocaly	-14613
▁aptamer	-14614
▁audubon	-14615
▁bahrain	-14616
▁baroque	-14617
▁barrier	-14618
▁battery	-14619
▁bauhaus	-14620
▁bayview	-14621
▁beijing	-14622
▁bennett	-14623
▁berkley	-14624
▁biafran	-14625
▁bigelow	-14626
▁biology	-14627
▁boomers	-14628
▁borough	-14629
▁boswana	-14630
▁bradley	-14631
▁brandon	-14632
▁brendan	-14633
▁brosnan	-14634
▁cacilda	-14635
▁capsule	-14636
▁carolyn	-14637
▁ceramic	-14638
▁cheetah	-14639
▁chelsea	-14640
▁chicken	-14641
▁chrissy	-14642
▁colombo	-14643
▁connery	-14644
▁cricket	-14645
▁darknet	-14646
▁dbpedia	-14647
▁defense	-14648
▁derrius	-14649
▁deutsch	-14650
▁dickson	-14651
▁digital	-14652
▁diopter	-14653
▁dominic	-14654
▁dropbox	-14655
▁dynamic	-14656
▁eletron	-14657
▁entebbe	-14658
▁etiopia	-14659
▁extreme	-14660
▁falling	-14661
▁fareeda	-14662
▁favelas	-14663
▁fincher	-14664
▁fleming	-14665
▁foreign	-14666
▁forrest	-14667
▁fortran	-14668
▁fractal	-14669
▁gallery	-14670
▁gamific	-14671
▁ganesha	-14672
▁gelatin	-14673
▁generis	-14674
▁ghrelin	-14675
▁grameen	-14676
▁grotesk	-14677
▁guthrie	-14678
▁găngxtơ	-14679
▁haemoph	-14680
▁haldane	-14681
▁halifax	-14682
▁hancock	-14683
▁hansard	-14684
▁heading	-14685
▁hendrix	-14686
▁hercles	-14687
▁hermann	-14688
▁hershey	-14689
▁hexanol	-14690
▁history	-14691
▁hockney	-14692
▁holocen	-14693
▁horizon	-14694
▁hospice	-14695
▁insider	-14696
▁iridium	-14697
▁joaquin	-14698
▁jumping	-14699
▁kaesava	-14700
▁kailash	-14701
▁kampala	-14702
▁karaoke	-14703
▁khalida	-14704
▁khuyếch	-14705
▁kipling	-14706
▁kirsten	-14707
▁klingon	-14708
▁kortney	-14709
▁kraemer	-14710
▁kristin	-14711
▁lakshmi	-14712
▁ledgett	-14713
▁lorenzo	-14714
▁malthus	-14715
▁marmite	-14716
▁marshup	-14717
▁martini	-14718
▁mathias	-14719
▁maurice	-14720
▁maynard	-14721
▁mckenna	-14722
▁mcnally	-14723
▁mcrobie	-14724
▁mellody	-14725
▁mercury	-14726
▁messina	-14727
▁methane	-14728
▁micheal	-14729
▁mizrahi	-14730
▁mouflon	-14731
▁márquez	-14732
▁nations	-14733
▁neoteny	-14734
▁niagara	-14735
▁nicolas	-14736
▁noujaim	-14737
▁offline	-14738
▁okolloh	-14739
▁ophelia	-14740
▁othello	-14741
▁outlook	-14742
▁paladin	-14743
▁panisse	-14744
▁parabôn	-14745
▁parikma	-14746
▁partner	-14747
▁partons	-14748
▁peanuts	-14749
▁penguin	-14750
▁picorna	-14751
▁plastic	-14752
▁porsche	-14753
▁present	-14754
▁preston	-14755
▁prickly	-14756
▁proctor	-14757
▁prosper	-14758
▁prôtêin	-14759
▁pudding	-14760
▁punnett	-14761
▁pythago	-14762
▁quentin	-14763
▁redwood	-14764
▁retweet	-14765
▁reuters	-14766
▁robards	-14767
▁rolling	-14768
▁romania	-14769
▁rosalie	-14770
▁rushing	-14771
▁saatchi	-14772
▁sabbath	-14773
▁salatin	-14774
▁sanford	-14775
▁sanwich	-14776
▁sarkozy	-14777
▁sashimi	-14778
▁saviour	-14779
▁shannon	-14780
▁shermer	-14781
▁shriram	-14782
▁sigmund	-14783
▁sirleaf	-14784
▁sistine	-14785
▁spittin	-14786
▁srebren	-14787
▁station	-14788
▁steinem	-14789
▁strauss	-14790
▁studios	-14791
▁sunitha	-14792
▁sweeney	-14793
▁systems	-14794
▁tabasco	-14795
▁talking	-14796
▁templar	-14797
▁theodor	-14798
▁thrones	-14799
▁todorov	-14800
▁trinity	-14801
▁tyrique	-14802
▁valenti	-14803
▁vampire	-14804
▁vicodin	-14805
▁wachter	-14806
▁walking	-14807
▁walters	-14808
▁wasichu	-14809
▁weiffen	-14810
▁western	-14811
▁whipcar	-14812
▁whitley	-14813
▁wichita	-14814
▁wimsatt	-14815
▁witness	-14816
▁yarmouk	-14817
▁zaatari	-14818
▁zaraeeb	-14819
▁zenoune	-14820
aeopteryx	-14821
orschoose	-14822
rhodopsin	-14823
ribiquete	-14824
streetmap	-14825
▁amedabad	-14826
▁amstrong	-14827
▁anghiari	-14828
▁appachan	-14829
▁applause	-14830
▁avengers	-14831
▁axetylen	-14832
▁bangoora	-14833
▁barbecue	-14834
▁bertrand	-14835
▁bhaskara	-14836
▁bordeaux	-14837
▁brownlee	-14838
▁buchanan	-14839
▁bulgaria	-14840
▁caerleon	-14841
▁canadian	-14842
▁capetown	-14843
▁centimet	-14844
▁champion	-14845
▁chinanet	-14846
▁chisholm	-14847
▁citywalk	-14848
▁collider	-14849
▁congress	-14850
▁coriolis	-14851
▁crescent	-14852
▁crichton	-14853
▁cristine	-14854
▁crossing	-14855
▁dearborn	-14856
▁dynamics	-14857
▁everdeen	-14858
▁exchange	-14859
▁famillia	-14860
▁fernanda	-14861
▁football	-14862
▁frideric	-14863
▁gigabyte	-14864
▁gradient	-14865
▁grateful	-14866
▁hadfield	-14867
▁heritage	-14868
▁honolulu	-14869
▁hubertus	-14870
▁instruct	-14871
▁jacobson	-14872
▁julliard	-14873
▁kadinsky	-14874
▁kahneman	-14875
▁kasparov	-14876
▁kauffman	-14877
▁khatanga	-14878
▁kiribati	-14879
▁krispies	-14880
▁kubodera	-14881
▁laetitia	-14882
▁lancelot	-14883
▁laughing	-14884
▁laughter	-14885
▁lawndale	-14886
▁lorraine	-14887
▁lysander	-14888
▁mahattan	-14889
▁maverick	-14890
▁mcintyre	-14891
▁michaela	-14892
▁michelin	-14893
▁micrômét	-14894
▁mohammed	-14895
▁monopoly	-14896
▁morrison	-14897
▁muqattam	-14898
▁nebraska	-14899
▁nebuchad	-14900
▁neoprene	-14901
▁networks	-14902
▁nickname	-14903
▁nicotine	-14904
▁nigieria	-14905
▁pacifica	-14906
▁paraguay	-14907
▁parikrma	-14908
▁partners	-14909
▁patients	-14910
▁pentagon	-14911
▁petabyte	-14912
▁pretoria	-14913
▁príncipe	-14914
▁resverat	-14915
▁richmond	-14916
▁rosedale	-14917
▁sandberg	-14918
▁sandiego	-14919
▁sarasota	-14920
▁saturday	-14921
▁schocken	-14922
▁scoville	-14923
▁selinger	-14924
▁settlers	-14925
▁shivdutt	-14926
▁sinclair	-14927
▁smullyan	-14928
▁spelling	-14929
▁stefanie	-14930
▁suavitos	-14931
▁sumitomo	-14932
▁superior	-14933
▁superman	-14934
▁takaungu	-14935
▁thatcher	-14936
▁theaster	-14937
▁theremin	-14938
▁timbuktu	-14939
▁tranzito	-14940
▁twilight	-14941
▁valencia	-14942
▁vaseline	-14943
▁warfarin	-14944
▁winnipeg	-14945
▁wuhahaha	-14946
hemoglobin	-14947
▁adventist	-14948
▁ampullate	-14949
▁aquaporin	-14950
▁artemisia	-14951
▁astroturf	-14952
▁bejeweled	-14953
▁bluegrass	-14954
▁boomerang	-14955
▁budweiser	-14956
▁caledonia	-14957
▁carbonate	-14958
▁cardiopad	-14959
▁cervantes	-14960
▁champaran	-14961
▁chlamydia	-14962
▁denisovan	-14963
▁descartes	-14964
▁dialogues	-14965
▁duckworth	-14966
▁etheridge	-14967
▁extremoph	-14968
▁fulbright	-14969
▁greenwald	-14970
▁herceptin	-14971
▁hitchcock	-14972
▁inception	-14973
▁interaxon	-14974
▁jaisalmer	-14975
▁jianchuan	-14976
▁karnataka	-14977
▁kartikeya	-14978
▁kathmandu	-14979
▁leicester	-14980
▁leviathan	-14981
▁libeskind	-14982
▁listening	-14983
▁lithuania	-14984
▁litterati	-14985
▁louisiana	-14986
▁lovegrove	-14987
▁macgregor	-14988
▁magdalene	-14989
▁mccormack	-14990
▁mcdonalds	-14991
▁microglia	-14992
▁minecraft	-14993
▁mishawaka	-14994
▁missisipi	-14995
▁mitochond	-14996
▁mogadishu	-14997
▁muybridge	-14998
▁narcissus	-14999
▁neocortex	-15000
▁oppenheim	-15001
▁palmpilot	-15002
▁peerzadas	-15003
▁pendleton	-15004
▁peninsula	-15005
▁pinterest	-15006
▁piroxicam	-15007
▁plutonium	-15008
▁ramanujan	-15009
▁rasmussen	-15010
▁rembrandt	-15011
▁rochester	-15012
▁rosenberg	-15013
▁saidullah	-15014
▁samraksha	-15015
▁satyarthi	-15016
▁seadragon	-15017
▁simonides	-15018
▁skydiving	-15019
▁slideshow	-15020
▁southwest	-15021
▁stickybot	-15022
▁stonewall	-15023
▁telescope	-15024
▁terabytes	-15025
▁todmorden	-15026
▁velázquez	-15027
▁vitruvian	-15028
▁washinton	-15029
▁watergate	-15030
▁wikihouse	-15031
▁wordpress	-15032
▁worldwide	-15033
▁adventists	-15034
▁anatotitan	-15035
▁appalachia	-15036
▁berlusconi	-15037
▁campanella	-15038
▁cartwright	-15039
▁centennial	-15040
▁chardonnay	-15041
▁compressed	-15042
▁connectome	-15043
▁daptomycin	-15044
▁dorchester	-15045
▁epimetheus	-15046
▁finisterre	-15047
▁generation	-15048
▁homunculus	-15049
▁hutchinson	-15050
▁kensington	-15051
▁michoacana	-15052
▁millennium	-15053
▁neonurture	-15054
▁nothingism	-15055
▁nyamirambo	-15056
▁peripeteia	-15057
▁persephone	-15058
▁pettengill	-15059
▁prednisone	-15060
▁rustichini	-15061
▁silhouette	-15062
▁siyathemba	-15063
▁streetview	-15064
▁technology	-15065
▁tuscaloosa	-15066
▁typography	-15067
▁waterhouse	-15068
▁zersetzung	-15069
▁castlemaine	-15070
▁charlemagne	-15071
▁charlestown	-15072
▁corporation	-15073
▁deinococcus	-15074
▁demosthenes	-15075
▁haemophilus	-15076
▁hippocrates	-15077
▁hydrocacbon	-15078
▁mahabharata	-15079
▁microphones	-15080
▁paragliding	-15081
▁perchlorate	-15082
▁phillipines	-15083
▁radiodurans	-15084
▁risperidone	-15085
▁rockefeller	-15086
▁schrodinger	-15087
▁sprezzatura	-15088
▁stubblebine	-15089
▁tembererana	-15090
▁tocilizumab	-15091
▁tripadvisor	-15092
▁villagrande	-15093
▁weiffenbach	-15094
▁wonderbread	-15095
▁architecture	-15096
▁blackberries	-15097
▁chiribiquete	-15098
▁couchsurfing	-15099
▁donorschoose	-15100
▁flagelliform	-15101
▁gamification	-15102
▁hectocotylus	-15103
▁masterpieces	-15104
▁nanotyrannus	-15105
▁peterborough	-15106
▁progesterone	-15107
▁prototaxites	-15108
▁schwarzchild	-15109
▁soloveitchik	-15110
▁transformers	-15111
▁turkmenistan	-15112
▁aerovironment	-15113
▁archaeopteryx	-15114
▁hyperglycemia	-15115
▁openstreetmap	-15116
▁nebuchadnezzar	-15117
123	-15118
125	-15119
197	-15120
489	-15121
871	-15122
axo	-15123
cci	-15124
cía	-15125
của	-15126
div	-15127
ehr	-15128
hub	-15129
ixe	-15130
jaw	-15131
nbc	-15132
ofi	-15133
oji	-15134
ouw	-15135
poe	-15136
trở	-15137
uwa	-15138
vue	-15139
wto	-15140
zzz	-15141
úât	-15142
▁âý	-15143
▁อร	-15144
▁ỉn	-15145
▁ủa	-15146
1978	-15147
2262	-15148
acea	-15149
algo	-15150
alyi	-15151
anjo	-15152
assi	-15153
avet	-15154
awlt	-15155
awww	-15156
bani	-15157
baya	-15158
bezi	-15159
bisa	-15160
brey	-15161
ciél	-15162
clip	-15163
dern	-15164
dies	-15165
dike	-15166
eads	-15167
efly	-15168
eluj	-15169
ency	-15170
ercy	-15171
eyaw	-15172
face	-15173
film	-15174
font	-15175
gous	-15176
grim	-15177
hoff	-15178
ival	-15179
kank	-15180
karz	-15181
kier	-15182
kika	-15183
life	-15184
luth	-15185
luwe	-15186
lyde	-15187
mark	-15188
mpur	-15189
namb	-15190
nefj	-15191
niak	-15192
ocht	-15193
oids	-15194
oldt	-15195
otho	-15196
ouin	-15197
ouri	-15198
padi	-15199
hli	-15200
asty	-15201
bias	-15202
dile	-15203
fiel	-15204
imov	-15205
inov	-15206
okov	-15207
olog	-15208
ooby	-15209
osek	-15210
otov	-15211
plac	-15212
qawi	-15213
rakh	-15214
rawa	-15215
rdin	-15216
rens	-15217
roux	-15218
royd	-15219
rush	-15220
ryns	-15221
skin	-15222
solf	-15223
sote	-15224
tory	-15225
ttro	-15226
tual	-15227
uazu	-15228
ucho	-15229
ugos	-15230
uket	-15231
ukin	-15232
uppy	-15233
varo	-15234
vity	-15235
wamy	-15236
wesi	-15237
wink	-15238
zier	-15239
zzol	-15240
▁002	-15241
▁1⁄2	-15242
▁267	-15243
▁315	-15244
▁316	-15245
▁345	-15246
▁370	-15247
▁375	-15248
▁378	-15249
▁389	-15250
▁413	-15251
▁440	-15252
▁445	-15253
▁448	-15254
▁498	-15255
▁539	-15256
▁540	-15257
▁610	-15258
▁678	-15259
▁690	-15260
▁716	-15261
▁722	-15262
▁aja	-15263
▁bcc	-15264
▁csi	-15265
▁dwe	-15266
▁ebb	-15267
▁eps	-15268
▁eti	-15269
▁exu	-15270
▁eze	-15271
▁faa	-15272
▁grc	-15273
▁gru	-15274
▁grừ	-15275
▁gwe	-15276
▁gía	-15277
▁iac	-15278
▁irc	-15279
▁ird	-15280
▁itu	-15281
▁kyu	-15282
▁lăp	-15283
▁mhc	-15284
▁mmr	-15285
▁mys	-15286
▁mât	-15287
▁măc	-15288
▁mưc	-15289
▁nkn	-15290
▁nyt	-15291
▁nểu	-15292
▁nủa	-15293
▁oll	-15294
▁osi	-15295
▁pcr	-15296
▁peh	-15297
▁ppm	-15298
▁pug	-15299
tto	-15300
whi	-15301
▁én	-15302
aida	-15303
date	-15304
esda	-15305
giây	-15306
igha	-15307
imba	-15308
pery	-15309
▁boh	-15310
▁dzh	-15311
▁gsi	-15312
▁hén	-15313
▁pda	-15314
▁rct	-15315
▁rek	-15316
▁rho	-15317
▁rko	-15318
▁smo	-15319
▁sàm	-15320
▁sờn	-15321
▁tbd	-15322
▁tóp	-15323
▁unt	-15324
▁uớc	-15325
▁vơí	-15326
▁weh	-15327
▁wtf	-15328
▁xiv	-15329
▁xvi	-15330
▁xxx	-15331
▁xúm	-15332
▁xẹo	-15333
▁yuc	-15334
▁zuz	-15335
▁đẹo	-15336
24583	-15337
acier	-15338
addin	-15339
agoya	-15340
aheim	-15341
aidab	-15342
aires	-15343
akoff	-15344
alice	-15345
aluma	-15346
alyst	-15347
amiey	-15348
amoud	-15349
amute	-15350
andiw	-15351
aniuk	-15352
antar	-15353
antay	-15354
aravi	-15355
arbus	-15356
arius	-15357
assie	-15358
astin	-15359
ature	-15360
awlty	-15361
azeal	-15362
bassa	-15363
belgu	-15364
brick	-15365
buron	-15366
carth	-15367
celos	-15368
cerin	-15369
chugu	-15370
cohol	-15371
dence	-15372
drell	-15373
drive	-15374
duate	-15375
ebouw	-15376
ebuoy	-15377
edder	-15378
elium	-15379
ensch	-15380
epres	-15381
erony	-15382
eship	-15383
etzel	-15384
force	-15385
gnost	-15386
harto	-15387
hnder	-15388
hound	-15389
ibbut	-15390
iburn	-15391
ichst	-15392
icult	-15393
idyar	-15394
ignal	-15395
ihari	-15396
ilale	-15397
ilogy	-15398
issat	-15399
tef	-15400
ante	-15401
apen	-15402
aper	-15403
dite	-15404
leyn	-15405
luck	-15406
moke	-15407
rain	-15408
rose	-15409
teig	-15410
undi	-15411
▁232	-15412
▁457	-15413
▁crp	-15414
▁guz	-15415
▁guỹ	-15416
▁jap	-15417
▁lse	-15418
▁lốm	-15419
▁mct	-15420
▁neu	-15421
▁plu	-15422
ables	-15423
atsby	-15424
emlin	-15425
graph	-15426
incar	-15427
irapt	-15428
itiba	-15429
ities	-15430
itsyn	-15431
itude	-15432
karia	-15433
kheet	-15434
kroyd	-15435
lenol	-15436
lings	-15437
lives	-15438
loway	-15439
menow	-15440
mpton	-15441
ngato	-15442
nheit	-15443
night	-15444
ociat	-15445
ohack	-15446
oides	-15447
okhar	-15448
oliso	-15449
onnes	-15450
ontas	-15451
opadh	-15452
openh	-15453
ophor	-15454
oprot	-15455
orrah	-15456
otchi	-15457
otype	-15458
ource	-15459
panet	-15460
power	-15461
ppucc	-15462
pster	-15463
queen	-15464
radiv	-15465
ratic	-15466
rench	-15467
reude	-15468
riott	-15469
ripps	-15470
risti	-15471
robot	-15472
roger	-15473
rogio	-15474
rynin	-15475
sense	-15476
shade	-15477
shaft	-15478
shape	-15479
sinia	-15480
sinki	-15481
skill	-15482
slist	-15483
smoke	-15484
staff	-15485
taire	-15486
tambo	-15487
tario	-15488
tenet	-15489
timon	-15490
ulate	-15491
undus	-15492
urier	-15493
uriyo	-15494
urney	-15495
usiku	-15496
utain	-15497
utics	-15498
utzen	-15499
chk	-15500
ede	-15501
eld	-15502
ruz	-15503
sou	-15504
▁kö	-15505
▁éo	-15506
▁đj	-15507
dijo	-15508
eche	-15509
eith	-15510
elet	-15511
ibel	-15512
metz	-15513
pace	-15514
port	-15515
sler	-15516
▁216	-15517
▁757	-15518
▁979	-15519
▁bet	-15520
▁dvr	-15521
▁gis	-15522
▁hyp	-15523
▁ith	-15524
▁rsv	-15525
▁tọc	-15526
▁ạnh	-15527
ffith	-15528
ipede	-15529
ocles	-15530
otsie	-15531
phine	-15532
ppler	-15533
riage	-15534
ussou	-15535
vante	-15536
verty	-15537
watts	-15538
which	-15539
woman	-15540
world	-15541
yanka	-15542
yllis	-15543
▁0001	-15544
▁1020	-15545
▁1110	-15546
▁1543	-15547
▁1770	-15548
▁1775	-15549
▁1787	-15550
▁1814	-15551
▁1838	-15552
▁1859	-15553
▁1865	-15554
▁1877	-15555
▁1886	-15556
▁1921	-15557
▁1922	-15558
▁1938	-15559
▁1951	-15560
▁2054	-15561
▁2070	-15562
▁2700	-15563
▁2776	-15564
▁2897	-15565
▁3800	-15566
▁3900	-15567
▁4572	-15568
▁4600	-15569
▁5500	-15570
▁5624	-15571
▁8649	-15572
▁9600	-15573
▁abub	-15574
▁ahen	-15575
▁ajax	-15576
▁ambi	-15577
▁anto	-15578
▁anuj	-15579
▁apoe	-15580
▁aqua	-15581
▁araf	-15582
▁asha	-15583
▁asia	-15584
▁asil	-15585
▁atms	-15586
▁atxy	-15587
▁auke	-15588
▁aval	-15589
▁awak	-15590
▁axel	-15591
▁azmi	-15592
▁bait	-15593
▁baku	-15594
▁bami	-15595
▁beek	-15596
▁belt	-15597
▁bend	-15598
▁bene	-15599
kw	-15600
hít	-15601
mét	-15602
nar	-15603
oru	-15604
▁fc	-15605
▁hễ	-15606
chis	-15607
kyll	-15608
xton	-15609
êhít	-15610
▁164	-15611
▁244	-15612
▁762	-15613
▁afa	-15614
▁apl	-15615
▁bes	-15616
▁bấu	-15617
▁bệt	-15618
▁deq	-15619
▁dim	-15620
▁dix	-15621
▁lọn	-15622
▁lộp	-15623
▁nut	-15624
▁rợp	-15625
▁sẩn	-15626
▁trố	-15627
▁vig	-15628
▁xúp	-15629
▁épu	-15630
▁đẫy	-15631
▁ịch	-15632
ertes	-15633
journ	-15634
đêhít	-15635
▁bast	-15636
▁beno	-15637
▁bism	-15638
▁blas	-15639
▁blee	-15640
▁borl	-15641
▁bria	-15642
▁bute	-15643
▁café	-15644
▁casp	-15645
▁cerf	-15646
▁chug	-15647
▁chât	-15648
▁chôm	-15649
▁ciel	-15650
▁cisa	-15651
▁ciud	-15652
▁clou	-15653
▁cobb	-15654
▁coop	-15655
▁coxs	-15656
▁crai	-15657
▁craw	-15658
▁cret	-15659
▁cult	-15660
▁danz	-15661
▁deli	-15662
▁deqo	-15663
▁devi	-15664
▁dill	-15665
▁dogs	-15666
▁durr	-15667
▁ency	-15668
▁esca	-15669
▁etch	-15670
▁euna	-15671
▁fant	-15672
▁faro	-15673
▁farr	-15674
▁feki	-15675
▁feld	-15676
▁figh	-15677
▁finn	-15678
▁flan	-15679
▁foko	-15680
▁gach	-15681
▁gael	-15682
▁gerh	-15683
▁ghén	-15684
▁gina	-15685
▁girl	-15686
▁giza	-15687
▁giậm	-15688
▁glob	-15689
▁goer	-15690
▁grab	-15691
▁gyro	-15692
▁hawi	-15693
▁hazl	-15694
▁heme	-15695
▁herb	-15696
▁holy	-15697
▁horn	-15698
▁hoạc	-15699
aso	-15700
dne	-15701
eri	-15702
isé	-15703
phô	-15704
uar	-15705
urg	-15706
▁ij	-15707
▁og	-15708
amia	-15709
atia	-15710
ayam	-15711
ectơ	-15712
etel	-15713
luse	-15714
ways	-15715
▁333	-15716
▁aes	-15717
▁cồm	-15718
▁det	-15719
▁gẫn	-15720
▁hiđ	-15721
▁ntn	-15722
▁pga	-15723
▁rov	-15724
▁tuk	-15725
▁tux	-15726
▁vaj	-15727
▁yin	-15728
▁yuy	-15729
aring	-15730
erere	-15731
xerit	-15732
▁7800	-15733
▁avun	-15734
▁diểm	-15735
▁elle	-15736
▁faso	-15737
▁fraz	-15738
▁ftse	-15739
▁graf	-15740
▁hull	-15741
▁hulu	-15742
▁humb	-15743
▁huxt	-15744
▁hướm	-15745
▁hẵng	-15746
▁hừng	-15747
▁icle	-15748
▁ihub	-15749
▁ilul	-15750
▁imax	-15751
▁ishi	-15752
▁iter	-15753
▁jesu	-15754
▁jins	-15755
▁jong	-15756
▁judo	-15757
▁kama	-15758
▁kazu	-15759
▁keem	-15760
▁kern	-15761
▁kesh	-15762
▁kfar	-15763
▁khều	-15764
▁khịt	-15765
▁kich	-15766
▁kiss	-15767
▁klan	-15768
▁klin	-15769
▁klux	-15770
▁koro	-15771
▁kros	-15772
▁kump	-15773
▁kuro	-15774
▁lakh	-15775
▁lary	-15776
▁leaf	-15777
▁leno	-15778
▁linz	-15779
▁liti	-15780
▁liêt	-15781
▁liệm	-15782
▁loel	-15783
▁loẹt	-15784
▁lulu	-15785
▁lụât	-15786
▁madu	-15787
▁magd	-15788
▁mako	-15789
▁malt	-15790
▁mats	-15791
▁maur	-15792
▁mbas	-15793
▁mcch	-15794
▁meal	-15795
▁merr	-15796
▁mesa	-15797
▁moan	-15798
▁moby	-15799
▁×	-15800
teo	-15801
xol	-15802
▁dọ	-15803
anza	-15804
awar	-15805
ixel	-15806
reid	-15807
word	-15808
▁246	-15809
▁bẹt	-15810
▁deo	-15811
▁duv	-15812
▁dát	-15813
▁loè	-15814
▁lôn	-15815
▁moj	-15816
▁nhn	-15817
▁nập	-15818
▁rày	-15819
▁svu	-15820
▁thố	-15821
▁toq	-15822
▁tậm	-15823
▁vcd	-15824
▁xẩm	-15825
▁xắt	-15826
anzib	-15827
eping	-15828
ereen	-15829
teoit	-15830
▁1874	-15831
▁1897	-15832
▁audi	-15833
▁bean	-15834
▁fehr	-15835
▁fram	-15836
▁gess	-15837
▁giơi	-15838
▁giập	-15839
▁khúm	-15840
▁krug	-15841
▁magn	-15842
▁moca	-15843
▁mode	-15844
▁modi	-15845
▁mund	-15846
▁near	-15847
▁nexi	-15848
▁nghé	-15849
▁ngấp	-15850
▁ngụa	-15851
▁nhin	-15852
▁nhnw	-15853
▁nhâp	-15854
▁nhép	-15855
▁nhều	-15856
▁nhởn	-15857
▁nhợt	-15858
▁nonh	-15859
▁nutt	-15860
▁néry	-15861
▁nướu	-15862
▁nững	-15863
▁obsc	-15864
▁odin	-15865
▁olds	-15866
▁only	-15867
▁orde	-15868
▁otta	-15869
▁pain	-15870
▁pann	-15871
▁paso	-15872
▁pawa	-15873
▁pcbs	-15874
▁perf	-15875
▁phew	-15876
▁phuc	-15877
▁phít	-15878
▁pick	-15879
▁pigs	-15880
▁pike	-15881
▁pizz	-15882
▁plas	-15883
▁plus	-15884
▁pohn	-15885
▁pomp	-15886
▁pool	-15887
▁popa	-15888
▁pops	-15889
▁pull	-15890
▁rasp	-15891
▁rene	-15892
▁resh	-15893
▁reyk	-15894
▁reyn	-15895
▁rigo	-15896
▁rohw	-15897
▁rudy	-15898
▁rybc	-15899
kb	-15900
aul	-15901
bau	-15902
fes	-15903
oev	-15904
yết	-15905
▁wm	-15906
aryl	-15907
danh	-15908
egel	-15909
iểng	-15910
kian	-15911
otro	-15912
paul	-15913
pola	-15914
vier	-15915
zaar	-15916
▁caí	-15917
▁cul	-15918
▁dọi	-15919
▁gút	-15920
▁kai	-15921
▁mtf	-15922
▁nảo	-15923
▁raz	-15924
▁rếu	-15925
▁ttn	-15926
▁tếu	-15927
▁ypo	-15928
▁độp	-15929
acher	-15930
ahang	-15931
alisa	-15932
chand	-15933
itive	-15934
rhiza	-15935
stoev	-15936
uncil	-15937
varia	-15938
▁case	-15939
▁choi	-15940
▁diêu	-15941
▁dọng	-15942
▁guan	-15943
▁hmmm	-15944
▁khau	-15945
▁lemm	-15946
▁mala	-15947
▁meta	-15948
▁phon	-15949
▁qyết	-15950
▁rướn	-15951
▁safw	-15952
▁salk	-15953
▁sarn	-15954
▁sate	-15955
▁sauv	-15956
▁sbir	-15957
▁scha	-15958
▁send	-15959
▁sequ	-15960
▁sese	-15961
▁shod	-15962
▁sick	-15963
▁silk	-15964
▁smar	-15965
▁smil	-15966
▁smok	-15967
▁smol	-15968
▁sobs	-15969
▁soóc	-15970
▁suez	-15971
▁susl	-15972
▁sylv	-15973
▁sõng	-15974
▁sắng	-15975
▁taim	-15976
▁teri	-15977
▁thel	-15978
▁thày	-15979
▁thỏm	-15980
▁thụi	-15981
▁tiếu	-15982
▁toto	-15983
▁truc	-15984
▁trâm	-15985
▁trìn	-15986
▁tríc	-15987
▁trẻo	-15988
▁trệu	-15989
▁trịa	-15990
▁tấng	-15991
▁umbc	-15992
▁unab	-15993
▁uric	-15994
▁uvul	-15995
▁uých	-15996
▁venn	-15997
▁viêt	-15998
▁viểt	-15999
ás	-16000
øl	-16001
▁ỡ	-16002
▁€	-16003
ilt	-16004
jal	-16005
oga	-16006
▁xờ	-16007
angi	-16008
ario	-16009
chev	-16010
chin	-16011
doch	-16012
egra	-16013
hale	-16014
idou	-16015
iệnh	-16016
riam	-16017
tsch	-16018
usia	-16019
▁467	-16020
▁haf	-16021
▁hok	-16022
▁hoè	-16023
▁nột	-16024
▁rat	-16025
▁raw	-16026
▁rađ	-16027
▁ril	-16028
▁rôm	-16029
▁váo	-16030
▁wer	-16031
▁xờm	-16032
ayvon	-16033
estat	-16034
▁chấy	-16035
▁dres	-16036
▁hoff	-16037
▁kaki	-16038
▁keel	-16039
▁luca	-16040
▁miro	-16041
▁miso	-16042
▁morn	-16043
▁nhặc	-16044
▁niếm	-16045
▁nựng	-16046
▁phay	-16047
▁poás	-16048
▁quền	-16049
▁sans	-16050
▁vsau	-16051
▁vảng	-16052
▁vậng	-16053
▁wade	-16054
▁wals	-16055
▁weir	-16056
▁wire	-16057
▁wise	-16058
▁wyss	-16059
▁xcốt	-16060
▁xkey	-16061
▁xúât	-16062
▁xược	-16063
▁xệch	-16064
▁yami	-16065
▁yarr	-16066
▁yidd	-16067
▁yuan	-16068
▁zako	-16069
▁đjnh	-16070
226212	-16071
245837	-16072
abucks	-16073
acious	-16074
ahatch	-16075
aleuca	-16076
alliku	-16077
angled	-16078
apixel	-16079
arasht	-16080
arides	-16081
artney	-16082
atinum	-16083
atonin	-16084
atross	-16085
aupadi	-16086
ausesc	-16087
avirus	-16088
busier	-16089
caprio	-16090
catraz	-16091
celium	-16092
ckyard	-16093
codile	-16094
culter	-16095
derick	-16096
eaawww	-16097
egraph	-16098
eleine	-16099
hl	-16100
zt	-16101
ẹm	-16102
▁ậ	-16103
▁ự	-16104
bek	-16105
uji	-16106
▁hử	-16107
▁io	-16108
▁lầ	-16109
▁nx	-16110
▁xệ	-16111
▁xữ	-16112
enon	-16113
ents	-16114
gras	-16115
kirk	-16116
mson	-16117
phải	-16118
sson	-16119
urra	-16120
zbek	-16121
▁880	-16122
▁bim	-16123
▁cón	-16124
▁dỗi	-16125
▁nxb	-16126
▁phã	-16127
▁pik	-16128
▁rệu	-16129
▁tậu	-16130
▁viô	-16131
▁vvv	-16132
▁zol	-16133
udini	-16134
▁1210	-16135
▁chời	-16136
▁crag	-16137
▁didi	-16138
▁dran	-16139
▁elis	-16140
▁frog	-16141
▁ghos	-16142
▁kras	-16143
▁lững	-16144
▁pets	-16145
▁sent	-16146
▁slam	-16147
▁thui	-16148
▁trấu	-16149
▁trối	-16150
▁viôl	-16151
elujah	-16152
emaker	-16153
emberg	-16154
emenya	-16155
enburg	-16156
endish	-16157
ennale	-16158
ensing	-16159
entats	-16160
ernick	-16161
ertino	-16162
escafe	-16163
estero	-16164
etooth	-16165
everin	-16166
everly	-16167
eville	-16168
feller	-16169
flower	-16170
forest	-16171
forman	-16172
freude	-16173
funkel	-16174
gebouw	-16175
ground	-16176
henius	-16177
huahua	-16178
idades	-16179
[...]
