<unk>	0
<s>	0
</s>	0
▁t	-0
▁a	-1
▁th	-2
▁i	-3
▁s	-4
▁w	-5
▁the	-6
re	-7
▁o	-8
in	-9
at	-10
er	-11
nd	-12
ou	-13
▁c	-14
▁b	-15
▁m	-16
▁h	-17
ing	-18
▁and	-19
en	-20
▁to	-21
▁p	-22
▁f	-23
▁d	-24
on	-25
es	-26
▁l	-27
an	-28
or	-29
▁of	-30
al	-31
▁in	-32
▁n	-33
ed	-34
is	-35
▁y	-36
it	-37
ar	-38
▁that	-39
▁we	-40
▁g	-41
om	-42
▁you	-43
▁wh	-44
as	-45
le	-46
ic	-47
▁it	-48
ve	-49
▁e	-50
▁re	-51
us	-52
▁be	-53
ll	-54
ow	-55
▁is	-56
ly	-57
ut	-58
ion	-59
ot	-60
et	-61
▁on	-62
▁ha	-63
ent	-64
ct	-65
ld	-66
▁this	-67
ver	-68
gh	-69
ay	-70
▁so	-71
se	-72
▁st	-73
ur	-74
id	-75
st	-76
▁do	-77
ro	-78
▁he	-79
ke	-80
▁for	-81
ch	-82
ce	-83
▁li	-84
▁they	-85
ra	-86
ght	-87
▁was	-88
▁an	-89
ir	-90
im	-91
▁are	-92
op	-93
▁u	-94
ith	-95
▁go	-96
▁have	-97
▁but	-98
th	-99
▁k	-100
▁with	-101
am	-102
▁se	-103
ally	-104
▁ab	-105
▁what	-106
ri	-107
▁as	-108
▁mo	-109
ol	-110
▁j	-111
ation	-112
▁sh	-113
out	-114
▁wor	-115
▁ne	-116
▁me	-117
▁nt	-118
▁can	-119
▁ch	-120
▁com	-121
▁not	-122
ould	-123
▁at	-124
ad	-125
ere	-126
▁about	-127
use	-128
ant	-129
ers	-130
very	-131
▁all	-132
ge	-133
▁there	-134
ill	-135
ust	-136
▁my	-137
ul	-138
▁som	-139
il	-140
pp	-141
▁ex	-142
▁or	-143
oo	-144
▁de	-145
▁pe	-146
▁pro	-147
ter	-148
▁fr	-149
▁con	-150
▁peop	-151
▁one	-152
▁people	-153
▁like	-154
art	-155
um	-156
ck	-157
ear	-158
▁our	-159
▁if	-160
▁bec	-161
ate	-162
est	-163
ess	-164
ause	-165
▁ma	-166
ity	-167
ure	-168
▁al	-169
ig	-170
▁us	-171
▁from	-172
▁v	-173
ist	-174
▁la	-175
nt	-176
ive	-177
▁kn	-178
qu	-179
ble	-180
▁just	-181
▁te	-182
▁now	-183
if	-184
ies	-185
ink	-186
▁when	-187
▁out	-188
rou	-189
▁sp	-190
▁int	-191
all	-192
ect	-193
ind	-194
▁these	-195
▁who	-196
▁know	-197
un	-198
od	-199
ook	-200
▁r	-201
▁because	-202
os	-203
▁them	-204
▁thing	-205
▁pl	-206
▁think	-207
▁how	-208
▁up	-209
▁see	-210
ort	-211
▁your	-212
▁get	-213
▁some	-214
her	-215
▁by	-216
▁more	-217
ci	-218
one	-219
▁had	-220
▁year	-221
▁tim	-222
el	-223
▁im	-224
▁their	-225
▁sa	-226
▁going	-227
▁very	-228
ain	-229
▁1	-230
▁act	-231
ich	-232
▁would	-233
em	-234
▁tr	-235
▁su	-236
▁were	-237
ught	-238
og	-239
▁en	-240
00	-241
▁ta	-242
ine	-243
▁look	-244
and	-245
ie	-246
▁ve	-247
ame	-248
ment	-249
▁work	-250
ast	-251
our	-252
▁comp	-253
iv	-254
▁want	-255
▁le	-256
▁every	-257
▁which	-258
▁ca	-259
▁really	-260
ard	-261
▁here	-262
ous	-263
ughter	-264
iz	-265
act	-266
ack	-267
▁world	-268
ose	-269
▁ev	-270
reat	-271
▁man	-272
▁time	-273
▁way	-274
▁laughter	-275
▁then	-276
hing	-277
▁un	-278
▁oth	-279
ually	-280
▁per	-281
ight	-282
res	-283
▁will	-284
▁qu	-285
▁has	-286
▁no	-287
▁could	-288
ions	-289
ag	-290
per	-291
▁fe	-292
ans	-293
▁say	-294
ide	-295
ong	-296
red	-297
ence	-298
ild	-299
ud	-300
▁ri	-301
▁ag	-302
▁into	-303
▁where	-304
▁other	-305
pt	-306
▁than	-307
▁did	-308
ace	-309
▁am	-310
▁tw	-311
▁co	-312
age	-313
king	-314
▁years	-315
▁somet	-316
▁actually	-317
▁things	-318
▁cl	-319
nder	-320
▁any	-321
▁she	-322
▁af	-323
ore	-324
itt	-325
ach	-326
iff	-327
▁been	-328
ab	-329
▁make	-330
▁need	-331
▁well	-332
▁right	-333
ical	-334
▁diff	-335
fe	-336
▁over	-337
▁happ	-338
▁new	-339
▁start	-340
▁ro	-341
▁ar	-342
▁po	-343
pl	-344
so	-345
▁2	-346
▁fir	-347
▁part	-348
▁dis	-349
ice	-350
▁two	-351
▁those	-352
▁lo	-353
▁app	-354
▁first	-355
ea	-356
▁something	-357
▁chan	-358
▁bu	-359
round	-360
ree	-361
▁said	-362
ite	-363
ry	-364
ory	-365
▁back	-366
▁call	-367
orm	-368
own	-369
▁even	-370
sel	-371
▁imp	-372
ount	-373
ber	-374
▁also	-375
▁most	-376
▁tal	-377
ving	-378
ens	-379
▁differe	-380
▁ac	-381
ia	-382
▁ad	-383
ult	-384
ves	-385
▁got	-386
ass	-387
▁pr	-388
ff	-389
ater	-390
▁cont	-391
▁bet	-392
ound	-393
▁his	-394
▁id	-395
▁her	-396
end	-397
ple	-398
ces	-399
▁bl	-400
▁mu	-401
olog	-402
ue	-403
▁life	-404
cent	-405
▁day	-406
▁res	-407
▁lot	-408
▁only	-409
way	-410
▁ph	-411
ome	-412
ru	-413
ign	-414
ap	-415
▁hum	-416
▁many	-417
ep	-418
▁much	-419
are	-420
▁under	-421
▁kind	-422
rain	-423
ated	-424
▁litt	-425
▁sy	-426
▁little	-427
ations	-428
▁let	-429
ody	-430
▁take	-431
ip	-432
vel	-433
▁des	-434
able	-435
co	-436
▁real	-437
ish	-438
▁good	-439
ms	-440
▁does	-441
rough	-442
▁em	-443
▁comm	-444
▁different	-445
other	-446
▁may	-447
ood	-448
ph	-449
ase	-450
ick	-451
ire	-452
▁ind	-453
▁around	-454
▁being	-455
▁ra	-456
▁pre	-457
du	-458
▁sc	-459
▁tell	-460
int	-461
ents	-462
▁through	-463
▁why	-464
ell	-465
ict	-466
ress	-467
▁inc	-468
ning	-469
▁down	-470
▁same	-471
▁off	-472
ether	-473
▁too	-474
ors	-475
▁sm	-476
cess	-477
ob	-478
▁put	-479
▁gen	-480
▁use	-481
ance	-482
▁inter	-483
▁thou	-484
wn	-485
ath	-486
form	-487
als	-488
day	-489
▁fl	-490
▁wom	-491
ade	-492
▁happen	-493
▁ll	-494
▁proble	-495
▁try	-496
▁show	-497
▁mar	-498
▁pers	-499
ang	-500
ful	-501
▁human	-502
▁count	-503
ved	-504
▁great	-505
xt	-506
▁big	-507
▁fact	-508
▁br	-509
vers	-510
▁child	-511
▁come	-512
▁wr	-513
▁talk	-514
igh	-515
▁car	-516
▁dec	-517
ting	-518
ower	-519
urn	-520
▁fa	-521
stem	-522
be	-523
ile	-524
ys	-525
ren	-526
lect	-527
▁rem	-528
▁find	-529
▁three	-530
ary	-531
▁col	-532
▁lear	-533
▁tra	-534
▁quest	-535
▁after	-536
▁stud	-537
▁sur	-538
▁doing	-539
▁gr	-540
▁gu	-541
thing	-542
ject	-543
▁again	-544
▁percent	-545
self	-546
▁bel	-547
▁exper	-548
▁ear	-549
ible	-550
▁hel	-551
▁system	-552
▁should	-553
▁long	-554
▁feel	-555
▁build	-556
fore	-557
▁tech	-558
ons	-559
ically	-560
▁bas	-561
ks	-562
▁called	-563
▁sim	-564
▁inv	-565
▁spe	-566
ating	-567
ities	-568
▁end	-569
body	-570
▁own	-571
▁inst	-572
▁bo	-573
▁today	-574
ord	-575
▁made	-576
▁appl	-577
ious	-578
ric	-579
ial	-580
cial	-581
▁techn	-582
kes	-583
▁help	-584
▁fo	-585
ition	-586
illion	-587
ual	-588
ates	-589
▁underst	-590
▁person	-591
bl	-592
oss	-593
▁import	-594
ft	-595
▁gra	-596
▁brain	-597
▁change	-598
we	-599
▁mean	-600
▁sch	-601
ics	-602
▁him	-603
▁ke	-604
ology	-605
▁ask	-606
▁pu	-607
ib	-608
ize	-609
▁ob	-610
▁gl	-611
▁started	-612
▁last	-613
▁sci	-614
ty	-615
▁rel	-616
▁might	-617
▁important	-618
▁idea	-619
ily	-620
▁thought	-621
▁before	-622
▁cons	-623
▁play	-624
▁cour	-625
▁high	-626
▁better	-627
ac	-628
▁another	-629
▁never	-630
▁give	-631
▁pol	-632
▁understand	-633
ise	-634
▁plan	-635
▁belie	-636
▁power	-637
▁old	-638
▁turn	-639
▁num	-640
▁creat	-641
▁still	-642
▁cr	-643
con	-644
▁exp	-645
▁mon	-646
ility	-647
▁3	-648
▁fam	-649
▁kid	-650
▁women	-651
▁ins	-652
erest	-653
▁exam	-654
ool	-655
▁applause	-656
▁each	-657
▁tog	-658
▁together	-659
▁fu	-660
▁hand	-661
▁imag	-662
ution	-663
▁problem	-664
ists	-665
▁interest	-666
▁sol	-667
▁ter	-668
▁trans	-669
▁commun	-670
ian	-671
▁point	-672
▁ent	-673
ars	-674
▁hu	-675
gan	-676
les	-677
ope	-678
▁produ	-679
▁story	-680
▁school	-681
▁learn	-682
▁med	-683
▁found	-684
ough	-685
▁next	-686
ction	-687
oth	-688
atch	-689
▁rep	-690
▁att	-691
▁dat	-692
alth	-693
▁went	-694
▁few	-695
▁rec	-696
cond	-697
▁20	-698
ited	-699
▁design	-700
▁eng	-701
▁able	-702
ular	-703
▁water	-704
▁question	-705
▁bit	-706
▁cent	-707
▁love	-708
▁tri	-709
▁sl	-710
▁place	-711
eric	-712
▁pat	-713
te	-714
▁course	-715
erg	-716
uc	-717
ward	-718
▁maybe	-719
▁its	-720
▁ago	-721
ert	-722
ween	-723
▁ser	-724
▁between	-725
▁data	-726
ience	-727
▁fin	-728
▁ext	-729
▁mom	-730
mo	-731
▁second	-732
arch	-733
iss	-734
read	-735
▁ed	-736
ized	-737
▁min	-738
▁di	-739
▁art	-740
▁mus	-741
▁came	-742
▁americ	-743
ced	-744
ather	-745
ix	-746
cept	-747
▁op	-748
ros	-749
ness	-750
ways	-751
▁word	-752
▁used	-753
ense	-754
▁four	-755
▁read	-756
▁met	-757
▁hard	-758
▁comple	-759
▁children	-760
gin	-761
ered	-762
▁19	-763
▁mod	-764
ines	-765
▁el	-766
ave	-767
▁nat	-768
▁str	-769
ger	-770
ak	-771
▁care	-772
▁cre	-773
▁eff	-774
ram	-775
▁looking	-776
▁grow	-777
▁live	-778
▁fri	-779
▁small	-780
▁wo	-781
velop	-782
▁example	-783
ale	-784
yp	-785
av	-786
▁less	-787
ings	-788
ures	-789
ets	-790
▁uni	-791
▁comput	-792
▁develop	-793
▁wanted	-794
▁far	-795
▁beh	-796
▁chang	-797
▁always	-798
▁done	-799
▁health	-800
▁inform	-801
▁gener	-802
▁light	-803
▁giv	-804
oney	-805
▁move	-806
selves	-807
▁sort	-808
▁supp	-809
▁everything	-810
▁partic	-811
▁away	-812
ably	-813
ark	-814
▁ever	-815
ific	-816
▁thinking	-817
iness	-818
▁technology	-819
az	-820
▁ok	-821
▁bi	-822
▁resp	-823
▁sk	-824
ative	-825
cy	-826
▁believe	-827
▁poss	-828
▁war	-829
▁trying	-830
ute	-831
▁number	-832
▁10	-833
▁whole	-834
▁compan	-835
▁ho	-836
▁kids	-837
▁5	-838
ism	-839
▁million	-840
▁reas	-841
▁friend	-842
▁fut	-843
ross	-844
▁wal	-845
▁working	-846
fect	-847
ments	-848
▁five	-849
ead	-850
cer	-851
▁cor	-852
▁lar	-853
▁run	-854
▁home	-855
hip	-856
▁stu	-857
conom	-858
ational	-859
▁pres	-860
gg	-861
▁expl	-862
ail	-863
ps	-864
▁lead	-865
▁econom	-866
▁cou	-867
▁cell	-868
▁times	-869
▁acc	-870
▁sing	-871
▁country	-872
▁open	-873
ote	-874
▁bus	-875
▁means	-876
▁money	-877
▁mind	-878
000	-879
▁using	-880
▁information	-881
▁book	-882
ruct	-883
▁future	-884
its	-885
▁job	-886
nect	-887
sw	-888
▁publ	-889
▁organ	-890
ten	-891
▁prog	-892
ural	-893
▁grou	-894
▁z	-895
▁conf	-896
▁food	-897
▁mat	-898
ew	-899
▁enough	-900
ird	-901
ock	-902
ries	-903
▁space	-904
▁sub	-905
▁spec	-906
ork	-907
ories	-908
▁prob	-909
▁earth	-910
▁cle	-911
▁answ	-912
ues	-913
▁4	-914
ract	-915
vern	-916
▁form	-917
▁getting	-918
▁making	-919
▁left	-920
▁dri	-921
▁create	-922
▁vis	-923
▁hal	-924
▁took	-925
ner	-926
ven	-927
▁best	-928
▁reg	-929
▁energ	-930
▁sw	-931
ital	-932
▁become	-933
irl	-934
▁govern	-935
▁keep	-936
▁cur	-937
▁afric	-938
▁youn	-939
here	-940
▁doll	-941
ention	-942
▁head	-943
▁wa	-944
▁set	-945
▁teach	-946
▁intern	-947
▁project	-948
▁add	-949
▁cam	-950
▁elect	-951
▁social	-952
▁dep	-953
▁sound	-954
▁month	-955
▁remem	-956
tern	-957
▁told	-958
▁talking	-959
▁process	-960
oy	-961
▁rese	-962
▁while	-963
▁energy	-964
▁gre	-965
▁pret	-966
▁family	-967
ouse	-968
eas	-969
▁lives	-970
▁without	-971
ied	-972
▁par	-973
▁wee	-974
▁val	-975
ately	-976
▁room	-977
▁connect	-978
▁anim	-979
▁half	-980
iting	-981
▁pict	-982
▁ref	-983
▁glob	-984
ices	-985
▁men	-986
▁comes	-987
led	-988
▁hour	-989
▁stand	-990
▁probably	-991
ont	-992
▁fun	-993
▁happened	-994
aut	-995
▁moment	-996
▁research	-997
ier	-998
▁body	-999
▁opp	-1000
▁stop	-1001
iew	-1002
angu	-1003
▁sign	-1004
▁eas	-1005
▁hist	-1006
▁dist	-1007
▁langu	-1008
▁girl	-1009
▁young	-1010
▁contro	-1011
▁face	-1012
▁anything	-1013
▁mem	-1014
▁remember	-1015
▁pa	-1016
▁sense	-1017
ertain	-1018
▁else	-1019
▁makes	-1020
ety	-1021
ever	-1022
▁quite	-1023
▁imagine	-1024
uring	-1025
aces	-1026
▁prot	-1027
▁interesting	-1028
ne	-1029
▁cap	-1030
▁building	-1031
▁coming	-1032
▁typ	-1033
▁pop	-1034
▁pass	-1035
cus	-1036
▁science	-1037
ts	-1038
▁char	-1039
▁env	-1040
▁music	-1041
▁pretty	-1042
▁bad	-1043
▁mid	-1044
▁allow	-1045
▁such	-1046
▁begin	-1047
▁def	-1048
▁vide	-1049
▁side	-1050
▁bre	-1051
oc	-1052
▁city	-1053
▁mark	-1054
ided	-1055
▁having	-1056
most	-1057
ality	-1058
▁experience	-1059
▁watch	-1060
▁top	-1061
▁soci	-1062
▁ord	-1063
nce	-1064
ream	-1065
▁equ	-1066
▁list	-1067
▁both	-1068
▁once	-1069
▁beaut	-1070
ince	-1071
arent	-1072
▁cult	-1073
▁phys	-1074
▁reason	-1075
▁yet	-1076
ortun	-1077
▁sure	-1078
▁asked	-1079
▁countries	-1080
▁aut	-1081
▁across	-1082
iron	-1083
▁mach	-1084
▁ways	-1085
▁educ	-1086
▁later	-1087
rib	-1088
▁scient	-1089
▁business	-1090
▁spea	-1091
▁rob	-1092
▁det	-1093
▁environ	-1094
▁ey	-1095
▁inf	-1096
▁hear	-1097
ants	-1098
▁study	-1099
lf	-1100
▁single	-1101
na	-1102
imes	-1103
▁sit	-1104
▁someone	-1105
▁whether	-1106
▁fig	-1107
▁fore	-1108
▁level	-1109
▁planet	-1110
▁100	-1111
▁saw	-1112
allen	-1113
▁hope	-1114
▁stuff	-1115
▁public	-1116
lly	-1117
ogra	-1118
▁seen	-1119
▁almost	-1120
▁dollars	-1121
▁days	-1122
▁test	-1123
▁amaz	-1124
▁says	-1125
▁air	-1126
▁land	-1127
▁happens	-1128
▁goes	-1129
▁answer	-1130
ient	-1131
▁black	-1132
▁simple	-1133
▁states	-1134
▁polit	-1135
▁global	-1136
oice	-1137
▁case	-1138
▁saying	-1139
▁phot	-1140
▁living	-1141
▁bring	-1142
▁often	-1143
▁effect	-1144
ots	-1145
llow	-1146
▁ass	-1147
▁jo	-1148
▁instead	-1149
▁pie	-1150
▁unt	-1151
ousand	-1152
▁thousand	-1153
▁mil	-1154
ready	-1155
ization	-1156
▁already	-1157
ken	-1158
orn	-1159
▁rest	-1160
olution	-1161
▁yes	-1162
▁wrong	-1163
▁challen	-1164
▁200	-1165
▁model	-1166
▁age	-1167
▁computer	-1168
▁class	-1169
osed	-1170
▁prof	-1171
▁exact	-1172
▁nothing	-1173
▁lab	-1174
▁treat	-1175
▁thank	-1176
iter	-1177
▁myself	-1178
ef	-1179
▁community	-1180
▁particular	-1181
▁sex	-1182
gs	-1183
▁pri	-1184
ilt	-1185
▁complete	-1186
▁ge	-1187
where	-1188
▁possible	-1189
▁problems	-1190
pr	-1191
cing	-1192
▁inside	-1193
▁six	-1194
ash	-1195
▁ris	-1196
pe	-1197
▁suc	-1198
med	-1199
▁sou	-1200
no	-1201
▁adv	-1202
verse	-1203
▁looked	-1204
▁dire	-1205
▁group	-1206
▁language	-1207
▁since	-1208
▁state	-1209
▁words	-1210
▁law	-1211
▁video	-1212
dle	-1213
▁heart	-1214
▁history	-1215
less	-1216
▁wonder	-1217
man	-1218
▁certain	-1219
▁mor	-1220
▁pain	-1221
ivid	-1222
ages	-1223
▁incre	-1224
▁billion	-1225
aps	-1226
ron	-1227
itive	-1228
▁woman	-1229
▁within	-1230
▁control	-1231
io	-1232
▁basically	-1233
▁night	-1234
▁sometimes	-1235
▁environment	-1236
ien	-1237
ott	-1238
▁cra	-1239
▁6	-1240
▁contin	-1241
imate	-1242
▁loc	-1243
▁exc	-1244
▁9	-1245
▁self	-1246
▁ideas	-1247
ulation	-1248
▁15	-1249
ury	-1250
pect	-1251
▁true	-1252
▁iss	-1253
▁sec	-1254
ograph	-1255
▁united	-1256
unch	-1257
ering	-1258
▁matter	-1259
▁walk	-1260
▁entire	-1261
▁mag	-1262
▁free	-1263
▁fund	-1264
▁africa	-1265
▁friends	-1266
cle	-1267
▁everybody	-1268
▁team	-1269
▁disco	-1270
▁until	-1271
▁everyone	-1272
▁bab	-1273
▁cost	-1274
▁looks	-1275
▁const	-1276
▁line	-1277
▁months	-1278
▁must	-1279
▁kill	-1280
▁figure	-1281
▁picture	-1282
▁cal	-1283
utes	-1284
▁product	-1285
rem	-1286
bers	-1287
▁aud	-1288
ivity	-1289
ior	-1290
▁god	-1291
▁vir	-1292
▁large	-1293
ield	-1294
land	-1295
▁nor	-1296
▁stories	-1297
rop	-1298
▁7	-1299
ank	-1300
▁middle	-1301
▁ret	-1302
▁house	-1303
ond	-1304
▁es	-1305
▁har	-1306
den	-1307
▁incred	-1308
▁learned	-1309
ange	-1310
▁guy	-1311
ision	-1312
▁though	-1313
▁beautif	-1314
ndred	-1315
▁result	-1316
▁amazing	-1317
▁hundred	-1318
▁individ	-1319
▁heard	-1320
▁stre	-1321
ying	-1322
▁order	-1323
▁somebody	-1324
▁cancer	-1325
▁questions	-1326
get	-1327
▁dr	-1328
▁che	-1329
▁against	-1330
side	-1331
▁pay	-1332
ired	-1333
ina	-1334
▁aw	-1335
▁spend	-1336
▁government	-1337
ared	-1338
omes	-1339
▁mic	-1340
▁news	-1341
▁parent	-1342
▁colle	-1343
▁vi	-1344
ined	-1345
▁oh	-1346
▁name	-1347
▁net	-1348
▁meet	-1349
▁mother	-1350
▁cond	-1351
▁works	-1352
▁follow	-1353
▁past	-1354
▁exactly	-1355
▁decided	-1356
▁abs	-1357
row	-1358
▁knew	-1359
▁red	-1360
▁third	-1361
ern	-1362
▁30	-1363
▁learning	-1364
▁taking	-1365
▁species	-1366
▁dru	-1367
▁front	-1368
ogn	-1369
li	-1370
▁bro	-1371
▁8	-1372
▁train	-1373
uck	-1374
ins	-1375
icult	-1376
▁hours	-1377
▁invest	-1378
▁company	-1379
▁pos	-1380
▁beautiful	-1381
▁step	-1382
▁ourselves	-1383
▁education	-1384
▁miss	-1385
▁built	-1386
▁success	-1387
▁green	-1388
▁listen	-1389
▁places	-1390
lud	-1391
▁couple	-1392
▁others	-1393
▁share	-1394
▁nature	-1395
▁av	-1396
▁fil	-1397
▁ted	-1398
vious	-1399
▁trad	-1400
▁huge	-1401
▁collect	-1402
▁bra	-1403
ental	-1404
▁experim	-1405
▁society	-1406
▁gets	-1407
▁internet	-1408
▁themselves	-1409
▁became	-1410
▁american	-1411
ption	-1412
▁pred	-1413
▁mater	-1414
▁based	-1415
etic	-1416
▁engine	-1417
line	-1418
▁dra	-1419
▁fre	-1420
▁prov	-1421
▁ones	-1422
▁turns	-1423
atic	-1424
▁view	-1425
▁difficult	-1426
▁mass	-1427
▁students	-1428
ime	-1429
▁happening	-1430
air	-1431
▁quick	-1432
wards	-1433
ames	-1434
▁mill	-1435
▁hold	-1436
▁minutes	-1437
▁opportun	-1438
versity	-1439
ctor	-1440
▁rather	-1441
itting	-1442
▁along	-1443
ape	-1444
▁deep	-1445
▁clear	-1446
▁struct	-1447
br	-1448
▁ben	-1449
▁norm	-1450
ident	-1451
▁completely	-1452
▁50	-1453
▁dev	-1454
▁indust	-1455
bs	-1456
▁support	-1457
▁ant	-1458
ients	-1459
▁meas	-1460
▁behav	-1461
▁object	-1462
ming	-1463
▁arch	-1464
▁tool	-1465
▁program	-1466
▁protect	-1467
ished	-1468
▁relations	-1469
▁itself	-1470
▁jour	-1471
▁rev	-1472
▁math	-1473
▁mess	-1474
▁animals	-1475
▁dig	-1476
aster	-1477
▁deal	-1478
ability	-1479
▁low	-1480
▁super	-1481
gest	-1482
▁rad	-1483
ional	-1484
ides	-1485
▁fail	-1486
▁cells	-1487
ones	-1488
▁speak	-1489
▁da	-1490
▁expect	-1491
▁close	-1492
▁focus	-1493
▁oce	-1494
▁pur	-1495
▁sun	-1496
▁leg	-1497
ator	-1498
▁death	-1499
ither	-1500
▁companies	-1501
ians	-1502
▁neur	-1503
▁dream	-1504
▁reach	-1505
▁piece	-1506
▁america	-1507
▁kinds	-1508
▁century	-1509
ives	-1510
▁okay	-1511
▁viol	-1512
▁wind	-1513
▁worked	-1514
ules	-1515
▁dem	-1516
▁ste	-1517
▁emot	-1518
ease	-1519
▁least	-1520
▁pot	-1521
▁ident	-1522
▁during	-1523
▁machine	-1524
▁game	-1525
itch	-1526
▁complex	-1527
▁mot	-1528
▁exist	-1529
▁appro	-1530
▁eur	-1531
▁south	-1532
▁thousands	-1533
sy	-1534
ling	-1535
▁short	-1536
▁relationship	-1537
erv	-1538
ush	-1539
▁ple	-1540
ological	-1541
elt	-1542
▁universe	-1543
▁created	-1544
▁chr	-1545
ats	-1546
▁early	-1547
▁recent	-1548
ases	-1549
▁white	-1550
▁market	-1551
ster	-1552
ples	-1553
▁inno	-1554
▁disease	-1555
▁yourself	-1556
▁bott	-1557
▁field	-1558
▁grand	-1559
▁lots	-1560
ented	-1561
▁given	-1562
▁takes	-1563
▁changed	-1564
idence	-1565
haps	-1566
▁coll	-1567
▁gave	-1568
▁systems	-1569
▁perhaps	-1570
ane	-1571
▁yea	-1572
olved	-1573
cc	-1574
▁chem	-1575
▁yeah	-1576
▁needs	-1577
ret	-1578
istic	-1579
▁humans	-1580
▁finally	-1581
▁perfect	-1582
aring	-1583
▁stay	-1584
▁happy	-1585
▁cir	-1586
acter	-1587
▁outside	-1588
▁liter	-1589
ider	-1590
▁parents	-1591
ral	-1592
▁needed	-1593
astic	-1594
▁common	-1595
▁includ	-1596
face	-1597
ibly	-1598
▁behind	-1599
▁convers	-1600
ellig	-1601
▁natural	-1602
▁eyes	-1603
▁sent	-1604
ination	-1605
▁leave	-1606
▁fem	-1607
▁eight	-1608
▁moving	-1609
▁guys	-1610
▁perform	-1611
▁ele	-1612
▁felt	-1613
▁hands	-1614
▁culture	-1615
▁difference	-1616
▁12	-1617
▁ill	-1618
▁serv	-1619
▁event	-1620
▁sle	-1621
▁sens	-1622
▁powerful	-1623
ential	-1624
▁maj	-1625
▁netw	-1626
▁york	-1627
att	-1628
▁er	-1629
▁full	-1630
▁behavior	-1631
▁week	-1632
▁seven	-1633
fu	-1634
▁easy	-1635
▁squ	-1636
▁arg	-1637
▁impro	-1638
▁amount	-1639
▁longer	-1640
ially	-1641
▁taken	-1642
▁cities	-1643
▁reality	-1644
▁bri	-1645
▁tot	-1646
▁var	-1647
▁poor	-1648
▁north	-1649
▁fight	-1650
ison	-1651
▁lim	-1652
▁tem	-1653
▁pick	-1654
▁ap	-1655
▁fall	-1656
▁bar	-1657
▁tre	-1658
▁oper	-1659
▁innov	-1660
▁scale	-1661
utions	-1662
▁strong	-1663
pped	-1664
▁known	-1665
▁europe	-1666
ub	-1667
▁local	-1668
▁pract	-1669
▁access	-1670
▁recogn	-1671
▁cut	-1672
▁media	-1673
▁seeing	-1674
ges	-1675
▁size	-1676
▁china	-1677
ror	-1678
ump	-1679
▁communic	-1680
▁obvious	-1681
▁intellig	-1682
▁demo	-1683
▁fear	-1684
▁surv	-1685
▁major	-1686
sych	-1687
▁absol	-1688
▁phone	-1689
▁wall	-1690
▁extrem	-1691
▁record	-1692
▁turned	-1693
▁ability	-1694
ature	-1695
osp	-1696
▁impact	-1697
▁risk	-1698
▁repres	-1699
▁fish	-1700
▁extra	-1701
▁famil	-1702
▁realized	-1703
▁ess	-1704
▁blue	-1705
▁image	-1706
▁absolute	-1707
▁micro	-1708
▁whatever	-1709
▁eat	-1710
cious	-1711
▁explain	-1712
verage	-1713
▁psych	-1714
▁surpr	-1715
▁population	-1716
ply	-1717
ilar	-1718
▁requ	-1719
▁political	-1720
▁sud	-1721
vered	-1722
cially	-1723
▁win	-1724
▁priv	-1725
▁term	-1726
▁either	-1727
ze	-1728
ney	-1729
▁sil	-1730
▁send	-1731
▁climate	-1732
▁beginning	-1733
▁cy	-1734
▁voice	-1735
▁ocean	-1736
▁near	-1737
▁blood	-1738
▁consum	-1739
▁direct	-1740
▁audience	-1741
▁emb	-1742
▁simply	-1743
▁pattern	-1744
room	-1745
▁box	-1746
▁area	-1747
▁challenge	-1748
ised	-1749
▁national	-1750
▁personal	-1751
pid	-1752
▁enc	-1753
▁break	-1754
▁instit	-1755
▁democ	-1756
▁born	-1757
▁feeling	-1758
▁predict	-1759
oud	-1760
▁mult	-1761
▁weeks	-1762
▁25	-1763
▁occ	-1764
inary	-1765
▁spent	-1766
gen	-1767
uth	-1768
ising	-1769
▁interact	-1770
▁sour	-1771
zy	-1772
▁color	-1773
▁special	-1774
ploy	-1775
▁civ	-1776
▁sat	-1777
ibility	-1778
▁meaning	-1779
▁opportunity	-1780
▁path	-1781
▁tried	-1782
▁gone	-1783
▁father	-1784
▁numbers	-1785
els	-1786
lish	-1787
▁ori	-1788
▁press	-1789
▁leaders	-1790
▁patients	-1791
▁attention	-1792
▁sleep	-1793
vor	-1794
▁obs	-1795
▁experien	-1796
▁respons	-1797
▁18	-1798
▁situ	-1799
▁caus	-1800
▁feed	-1801
▁travel	-1802
▁sitting	-1803
▁fly	-1804
▁scre	-1805
▁sudden	-1806
▁growing	-1807
itect	-1808
▁vers	-1809
▁began	-1810
▁architect	-1811
▁non	-1812
▁terms	-1813
ode	-1814
itions	-1815
▁medic	-1816
ton	-1817
▁prom	-1818
▁redu	-1819
ium	-1820
▁camp	-1821
▁desc	-1822
▁lost	-1823
urb	-1824
▁unf	-1825
▁dark	-1826
▁sym	-1827
fully	-1828
▁approach	-1829
▁girls	-1830
▁parts	-1831
▁economy	-1832
ged	-1833
hood	-1834
ators	-1835
▁rock	-1836
▁trust	-1837
ression	-1838
▁present	-1839
▁profess	-1840
▁die	-1841
▁mov	-1842
▁dest	-1843
▁similar	-1844
▁sum	-1845
izing	-1846
▁resour	-1847
ah	-1848
ledge	-1849
▁fast	-1850
▁prop	-1851
▁stra	-1852
▁hosp	-1853
▁stat	-1854
up	-1855
rent	-1856
▁camer	-1857
▁robot	-1858
▁giving	-1859
lt	-1860
▁seems	-1861
▁truth	-1862
▁surface	-1863
ively	-1864
▁movement	-1865
mer	-1866
▁40	-1867
▁ground	-1868
▁quickly	-1869
bon	-1870
▁wonderful	-1871
▁medical	-1872
▁pull	-1873
▁likely	-1874
▁key	-1875
▁sea	-1876
▁books	-1877
▁center	-1878
xy	-1879
ake	-1880
▁buy	-1881
▁vol	-1882
▁measure	-1883
rodu	-1884
▁economic	-1885
▁dna	-1886
▁experiment	-1887
bo	-1888
anger	-1889
▁bill	-1890
▁cool	-1891
▁nice	-1892
▁understanding	-1893
que	-1894
▁conv	-1895
▁scientists	-1896
ife	-1897
▁compl	-1898
▁millions	-1899
ains	-1900
rought	-1901
▁favor	-1902
▁value	-1903
▁write	-1904
▁average	-1905
▁baby	-1906
▁anyone	-1907
▁telling	-1908
erm	-1909
ateg	-1910
▁forest	-1911
▁street	-1912
▁realize	-1913
▁structure	-1914
▁hy	-1915
▁est	-1916
▁alone	-1917
▁shows	-1918
▁changes	-1919
ighb	-1920
▁neighb	-1921
▁dom	-1922
▁hon	-1923
▁opt	-1924
▁espe	-1925
▁soon	-1926
▁extreme	-1927
▁morning	-1928
▁especially	-1929
ove	-1930
urs	-1931
▁slow	-1932
▁paper	-1933
▁imm	-1934
▁rele	-1935
ler	-1936
▁rich	-1937
▁photograph	-1938
ried	-1939
▁mal	-1940
▁areas	-1941
▁starting	-1942
▁ton	-1943
▁dead	-1944
▁rate	-1945
▁incredible	-1946
▁forward	-1947
ted	-1948
▁sn	-1949
▁worth	-1950
app	-1951
▁hundreds	-1952
▁individual	-1953
▁arm	-1954
lec	-1955
▁bur	-1956
▁hor	-1957
▁circ	-1958
▁india	-1959
▁smart	-1960
▁stage	-1961
▁growth	-1962
▁fire	-1963
▁insp	-1964
▁running	-1965
▁transform	-1966
▁interested	-1967
hor	-1968
▁draw	-1969
▁suff	-1970
▁civil	-1971
oices	-1972
▁foot	-1973
▁deg	-1974
bit	-1975
▁ach	-1976
▁current	-1977
iny	-1978
oid	-1979
▁carbon	-1980
acy	-1981
▁comb	-1982
▁201	-1983
▁div	-1984
▁development	-1985
▁text	-1986
▁depend	-1987
▁emp	-1988
▁post	-1989
▁normal	-1990
▁literally	-1991
▁sal	-1992
▁playing	-1993
par	-1994
▁sho	-1995
▁polic	-1996
ows	-1997
▁nobody	-1998
▁tend	-1999
▁wrote	-2000
▁aff	-2001
▁cop	-2002
▁lea	-2003
▁compet	-2004
▁changing	-2005
▁absolutely	-2006
ging	-2007
▁road	-2008
▁plant	-2009
▁bottom	-2010
ards	-2011
▁spread	-2012
▁knowledge	-2013
ites	-2014
ouch	-2015
▁react	-2016
▁asking	-2017
▁choo	-2018
▁stru	-2019
▁hot	-2020
ences	-2021
ration	-2022
▁chance	-2023
▁online	-2024
fort	-2025
▁ce	-2026
icated	-2027
▁sounds	-2028
entially	-2029
he	-2030
▁ice	-2031
▁benef	-2032
▁guess	-2033
▁serious	-2034
▁evolution	-2035
▁bal	-2036
▁dou	-2037
▁issue	-2038
▁brought	-2039
▁choice	-2040
old	-2041
▁neg	-2042
ters	-2043
▁affect	-2044
▁physical	-2045
▁report	-2046
cl	-2047
▁soft	-2048
▁sever	-2049
▁english	-2050
▁electric	-2051
▁ir	-2052
ades	-2053
▁type	-2054
▁generation	-2055
arr	-2056
▁prin	-2057
▁images	-2058
ned	-2059
por	-2060
▁lif	-2061
▁repl	-2062
▁terri	-2063
▁evidence	-2064
ials	-2065
▁main	-2066
▁force	-2067
▁aid	-2068
▁relig	-2069
▁memory	-2070
ances	-2071
iod	-2072
▁skill	-2073
usion	-2074
▁save	-2075
asc	-2076
▁mathem	-2077
▁search	-2078
▁talked	-2079
amed	-2080
▁boy	-2081
▁fundam	-2082
▁solution	-2083
▁oil	-2084
▁period	-2085
ware	-2086
▁poll	-2087
▁groups	-2088
▁industry	-2089
▁material	-2090
▁revolution	-2091
▁conversation	-2092
ustain	-2093
▁attack	-2094
▁university	-2095
ung	-2096
▁anal	-2097
▁solve	-2098
▁several	-2099
▁recently	-2100
ma	-2101
▁breat	-2102
▁clos	-2103
▁jobs	-2104
▁concept	-2105
▁block	-2106
ased	-2107
imin	-2108
▁ball	-2109
▁gives	-2110
▁crit	-2111
▁achie	-2112
▁activ	-2113
▁proper	-2114
▁theory	-2115
▁capital	-2116
▁violence	-2117
oms	-2118
▁check	-2119
▁tools	-2120
ilities	-2121
book	-2122
▁ine	-2123
▁defin	-2124
▁bir	-2125
aged	-2126
ency	-2127
▁din	-2128
▁goog	-2129
▁among	-2130
▁except	-2131
ggest	-2132
▁cars	-2133
▁safe	-2134
▁suggest	-2135
phere	-2136
lu	-2137
▁produce	-2138
▁film	-2139
▁office	-2140
▁account	-2141
gn	-2142
com	-2143
▁vac	-2144
▁tele	-2145
iant	-2146
▁fur	-2147
▁clean	-2148
▁molec	-2149
to	-2150
vent	-2151
▁seem	-2152
▁basic	-2153
▁sustain	-2154
▁solar	-2155
▁bigger	-2156
unt	-2157
▁origin	-2158
ony	-2159
ped	-2160
▁showed	-2161
▁college	-2162
▁technolog	-2163
▁communities	-2164
▁ah	-2165
▁ult	-2166
▁drug	-2167
▁action	-2168
▁intelligence	-2169
une	-2170
▁sell	-2171
▁vill	-2172
▁general	-2173
▁rece	-2174
▁star	-2175
▁rules	-2176
ny	-2177
▁modern	-2178
▁flo	-2179
▁issues	-2180
▁creating	-2181
▁computers	-2182
ensive	-2183
▁becomes	-2184
▁towards	-2185
▁60	-2186
▁plants	-2187
▁miles	-2188
▁touch	-2189
▁gal	-2190
▁fair	-2191
▁table	-2192
▁reasons	-2193
▁stress	-2194
ify	-2195
isions	-2196
▁rights	-2197
sc	-2198
racy	-2199
ucle	-2200
▁ann	-2201
▁ast	-2202
▁please	-2203
▁patient	-2204
ero	-2205
ift	-2206
▁jud	-2207
▁mis	-2208
▁nine	-2209
▁accept	-2210
▁notice	-2211
uals	-2212
▁situation	-2213
oph	-2214
▁hit	-2215
▁animal	-2216
▁del	-2217
▁danger	-2218
▁colleag	-2219
▁discovered	-2220
oring	-2221
▁inde	-2222
▁lived	-2223
▁subject	-2224
▁developed	-2225
▁syn	-2226
▁avail	-2227
▁network	-2228
▁phil	-2229
▁nucle	-2230
▁google	-2231
▁alg	-2232
▁drive	-2233
▁ready	-2234
▁screen	-2235
ires	-2236
asing	-2237
pping	-2238
▁grad	-2239
▁knows	-2240
let	-2241
▁eye	-2242
▁positive	-2243
▁cause	-2244
▁crazy	-2245
▁threat	-2246
▁chemical	-2247
▁resources	-2248
ule	-2249
▁bed	-2250
▁birth	-2251
▁putting	-2252
▁mars	-2253
▁represent	-2254
▁web	-2255
ument	-2256
▁track	-2257
▁source	-2258
▁hospital	-2259
yn	-2260
chan	-2261
ctors	-2262
gth	-2263
▁led	-2264
▁pen	-2265
arily	-2266
▁emerg	-2267
▁speed	-2268
▁writing	-2269
ther	-2270
▁adm	-2271
▁drugs	-2272
▁games	-2273
▁prison	-2274
inese	-2275
▁shape	-2276
▁watching	-2277
ified	-2278
▁wait	-2279
▁mount	-2280
▁designed	-2281
▁potential	-2282
ival	-2283
▁bey	-2284
▁dam	-2285
▁door	-2286
▁tiny	-2287
▁wish	-2288
▁choose	-2289
▁transp	-2290
▁totally	-2291
ug	-2292
▁waste	-2293
▁brains	-2294
▁progress	-2295
ived	-2296
▁lau	-2297
▁log	-2298
▁biggest	-2299
▁improve	-2300
▁los	-2301
ulate	-2302
urity	-2303
▁developing	-2304
▁cris	-2305
ishing	-2306
▁necess	-2307
▁increase	-2308
by	-2309
▁cit	-2310
▁flow	-2311
▁adult	-2312
▁standing	-2313
▁tradition	-2314
▁eventually	-2315
▁technologies	-2316
ously	-2317
▁employ	-2318
▁chinese	-2319
omet	-2320
▁fix	-2321
▁higher	-2322
▁police	-2323
▁involved	-2324
▁pan	-2325
odies	-2326
▁died	-2327
▁fill	-2328
▁luck	-2329
▁visual	-2330
▁schools	-2331
▁function	-2332
▁11	-2333
ners	-2334
▁mechan	-2335
▁consider	-2336
▁character	-2337
▁conscious	-2338
▁doctor	-2339
▁ec	-2340
▁flu	-2341
▁tas	-2342
▁beyond	-2343
▁favorite	-2344
iction	-2345
▁cloud	-2346
▁anybody	-2347
▁continue	-2348
▁available	-2349
▁rid	-2350
ister	-2351
▁taught	-2352
▁digital	-2353
▁journey	-2354
▁suddenly	-2355
aw	-2356
vert	-2357
▁assum	-2358
▁effic	-2359
▁student	-2360
▁x	-2361
0000	-2362
▁ang	-2363
▁tom	-2364
▁virt	-2365
▁walking	-2366
▁decision	-2367
▁incredibly	-2368
▁results	-2369
▁deb	-2370
▁tur	-2371
▁freed	-2372
apt	-2373
ude	-2374
▁bank	-2375
▁capt	-2376
▁message	-2377
▁supposed	-2378
▁strateg	-2379
▁son	-2380
▁interv	-2381
▁pictures	-2382
▁certainly	-2383
▁port	-2384
▁citiz	-2385
▁minds	-2386
▁strugg	-2387
▁african	-2388
eal	-2389
antly	-2390
▁particip	-2391
ext	-2392
▁wants	-2393
▁worse	-2394
▁robots	-2395
▁perspect	-2396
ee	-2397
▁dan	-2398
▁prim	-2399
▁families	-2400
nal	-2401
▁goal	-2402
▁cross	-2403
▁virus	-2404
▁female	-2405
erve	-2406
rage	-2407
▁feet	-2408
▁starts	-2409
▁innovation	-2410
uit	-2411
▁particularly	-2412
▁80	-2413
▁gas	-2414
▁sam	-2415
erence	-2416
▁aware	-2417
▁compass	-2418
rest	-2419
▁sold	-2420
▁wife	-2421
osphere	-2422
▁context	-2423
▁quality	-2424
▁president	-2425
how	-2426
uly	-2427
zz	-2428
medi	-2429
▁mist	-2430
▁finding	-2431
▁including	-2432
sequ	-2433
▁cat	-2434
▁role	-2435
▁zero	-2436
▁camera	-2437
▁security	-2438
▁pet	-2439
▁tar	-2440
itten	-2441
verty	-2442
▁indeed	-2443
▁reading	-2444
rast	-2445
▁ger	-2446
▁map	-2447
▁song	-2448
▁tells	-2449
▁above	-2450
▁meant	-2451
▁movie	-2452
▁obviously	-2453
▁link	-2454
▁concer	-2455
▁however	-2456
▁unfortun	-2457
eg	-2458
▁race	-2459
▁skin	-2460
ground	-2461
▁secret	-2462
▁everywhere	-2463
ik	-2464
onse	-2465
▁encou	-2466
▁income	-2467
▁allowed	-2468
▁laugh	-2469
▁return	-2470
▁poverty	-2471
▁respect	-2472
ley	-2473
▁push	-2474
▁apart	-2475
▁named	-2476
▁14	-2477
▁dim	-2478
▁mob	-2479
▁grew	-2480
▁response	-2481
abor	-2482
▁service	-2483
▁studies	-2484
▁neighbor	-2485
▁lay	-2486
▁onto	-2487
▁west	-2488
▁international	-2489
wh	-2490
▁16	-2491
▁princi	-2492
▁usually	-2493
▁democracy	-2494
▁individuals	-2495
ery	-2496
lex	-2497
▁vision	-2498
▁discover	-2499
▁finan	-2500
▁plastic	-2501
▁buildings	-2502
▁somewhere	-2503
nds	-2504
lict	-2505
▁ban	-2506
▁dad	-2507
▁code	-2508
▁king	-2509
▁magn	-2510
▁match	-2511
▁minute	-2512
▁mathemat	-2513
▁decisions	-2514
▁lad	-2515
▁desp	-2516
▁farm	-2517
▁lose	-2518
▁liber	-2519
▁separ	-2520
▁somehow	-2521
▁machines	-2522
▁recognize	-2523
rad	-2524
more	-2525
▁diag	-2526
imp	-2527
cuss	-2528
▁199	-2529
▁lower	-2530
▁shown	-2531
▁faster	-2532
▁sexual	-2533
▁medicine	-2534
▁speaking	-2535
▁straight	-2536
▁compassion	-2537
▁scientific	-2538
▁don	-2539
▁pack	-2540
▁appear	-2541
▁infect	-2542
▁further	-2543
▁creative	-2544
▁examples	-2545
▁connected	-2546
for	-2547
▁hop	-2548
▁meth	-2549
▁bodies	-2550
▁immedi	-2551
▁freedom	-2552
▁showing	-2553
go	-2554
soci	-2555
▁eth	-2556
▁deli	-2557
▁loved	-2558
▁temper	-2559
▁wealth	-2560
▁comfort	-2561
▁extraord	-2562
▁specific	-2563
▁happiness	-2564
▁perspective	-2565
▁organization	-2566
iar	-2567
▁hur	-2568
urban	-2569
▁stri	-2570
ission	-2571
▁carry	-2572
▁babies	-2573
▁manage	-2574
▁respond	-2575
▁dro	-2576
▁bird	-2577
▁conc	-2578
▁americans	-2579
▁fundamental	-2580
ech	-2581
▁late	-2582
▁detail	-2583
▁doctors	-2584
▁passion	-2585
▁signific	-2586
iced	-2587
▁coun	-2588
▁male	-2589
▁purp	-2590
▁moved	-2591
▁excited	-2592
▁healthy	-2593
ox	-2594
iet	-2595
come	-2596
cient	-2597
▁brit	-2598
▁wild	-2599
ruction	-2600
▁journal	-2601
▁rand	-2602
▁beings	-2603
▁consequ	-2604
▁introdu	-2605
▁humanity	-2606
▁electricity	-2607
ured	-2608
▁sad	-2609
rated	-2610
▁spir	-2611
▁town	-2612
▁author	-2613
▁ep	-2614
orts	-2615
▁bat	-2616
others	-2617
▁associ	-2618
izations	-2619
▁13	-2620
ring	-2621
▁kept	-2622
▁tree	-2623
▁offic	-2624
of	-2625
oke	-2626
cise	-2627
isms	-2628
light	-2629
▁cart	-2630
▁fant	-2631
ressed	-2632
▁policy	-2633
▁software	-2634
ai	-2635
ese	-2636
▁tv	-2637
rate	-2638
▁trees	-2639
▁extremely	-2640
▁architecture	-2641
▁rain	-2642
▁career	-2643
▁detect	-2644
▁nation	-2645
▁activity	-2646
▁fit	-2647
▁ran	-2648
ently	-2649
▁refu	-2650
▁bunch	-2651
▁lines	-2652
▁imposs	-2653
hn	-2654
ims	-2655
▁cold	-2656
▁anyway	-2657
▁crisis	-2658
▁engage	-2659
▁reflect	-2660
▁essentially	-2661
▁17	-2662
▁fort	-2663
▁drink	-2664
▁labor	-2665
▁training	-2666
▁70	-2667
icle	-2668
▁park	-2669
▁milit	-2670
▁stars	-2671
▁forget	-2672
rab	-2673
rap	-2674
▁enj	-2675
▁corre	-2676
▁teachers	-2677
oming	-2678
ought	-2679
▁multi	-2680
▁print	-2681
▁stick	-2682
▁successful	-2683
▁atm	-2684
istan	-2685
▁genes	-2686
▁influ	-2687
▁older	-2688
▁launch	-2689
▁anymore	-2690
▁written	-2691
fer	-2692
idge	-2693
▁bud	-2694
▁east	-2695
▁patterns	-2696
▁sky	-2697
ining	-2698
▁board	-2699
▁gender	-2700
▁points	-2701
▁complicated	-2702
▁performance	-2703
▁loss	-2704
▁planets	-2705
▁unfortunately	-2706
▁90	-2707
▁determ	-2708
▁models	-2709
▁terror	-2710
▁transl	-2711
▁discuss	-2712
▁materials	-2713
ex	-2714
▁cook	-2715
▁fram	-2716
▁page	-2717
▁enjoy	-2718
▁graph	-2719
▁quant	-2720
▁worry	-2721
▁christ	-2722
▁killed	-2723
▁nuclear	-2724
akes	-2725
fact	-2726
nces	-2727
▁cry	-2728
▁hom	-2729
▁san	-2730
orith	-2731
▁arri	-2732
▁achieve	-2733
▁algorith	-2734
▁products	-2735
▁treatment	-2736
▁fasc	-2737
▁fine	-2738
▁mine	-2739
▁dimens	-2740
▁remark	-2741
▁central	-2742
▁choices	-2743
▁impossible	-2744
xic	-2745
istics	-2746
▁disapp	-2747
▁german	-2748
▁content	-2749
▁provide	-2750
eth	-2751
uss	-2752
lier	-2753
ored	-2754
▁scen	-2755
▁truly	-2756
▁device	-2757
▁diseas	-2758
▁refuge	-2759
▁square	-2760
▁continu	-2761
▁meeting	-2762
▁den	-2763
▁oxy	-2764
▁adapt	-2765
▁types	-2766
▁distrib	-2767
▁univers	-2768
▁exciting	-2769
▁upon	-2770
▁glass	-2771
▁oppos	-2772
▁genetic	-2773
▁village	-2774
▁conflict	-2775
▁practice	-2776
inct	-2777
used	-2778
▁bom	-2779
▁dog	-2780
▁nut	-2781
▁swe	-2782
▁cases	-2783
▁sorts	-2784
▁skills	-2785
▁mention	-2786
▁teacher	-2787
▁willing	-2788
aur	-2789
▁gala	-2790
▁none	-2791
▁sequ	-2792
▁autom	-2793
▁gradu	-2794
▁collabor	-2795
▁fat	-2796
▁gene	-2797
▁john	-2798
▁driving	-2799
▁od	-2800
ball	-2801
oles	-2802
▁clin	-2803
▁vict	-2804
▁honest	-2805
ec	-2806
▁fra	-2807
▁whe	-2808
▁broad	-2809
▁trick	-2810
imately	-2811
▁remind	-2812
▁clearly	-2813
▁diseases	-2814
▁listening	-2815
ops	-2816
ube	-2817
emic	-2818
▁boys	-2819
itation	-2820
amm	-2821
▁apply	-2822
▁urban	-2823
▁afford	-2824
▁weight	-2825
▁pressure	-2826
50	-2827
rial	-2828
▁hair	-2829
▁ended	-2830
▁mental	-2831
▁largest	-2832
▁strange	-2833
▁experiences	-2834
amp	-2835
cul	-2836
apan	-2837
▁ten	-2838
aging	-2839
▁cust	-2840
▁shot	-2841
▁larger	-2842
▁terrible	-2843
▁japan	-2844
▁bacter	-2845
▁speech	-2846
▁smaller	-2847
▁disc	-2848
▁cover	-2849
▁colleagues	-2850
ffe	-2851
▁kil	-2852
▁mou	-2853
▁yell	-2854
iation	-2855
▁alive	-2856
▁blind	-2857
▁demand	-2858
▁version	-2859
▁extraordinary	-2860
▁chea	-2861
▁roll	-2862
uments	-2863
▁random	-2864
▁card	-2865
▁heav	-2866
▁values	-2867
▁objects	-2868
▁military	-2869
▁dram	-2870
▁hero	-2871
▁prep	-2872
▁peace	-2873
▁earlier	-2874
ana	-2875
▁21	-2876
ffic	-2877
aries	-2878
▁final	-2879
▁himself	-2880
▁daughter	-2881
▁dangerous	-2882
ales	-2883
▁impl	-2884
▁shap	-2885
▁raise	-2886
▁throw	-2887
iot	-2888
▁2000	-2889
▁descri	-2890
▁levels	-2891
ray	-2892
omen	-2893
rams	-2894
▁198	-2895
▁hiv	-2896
▁inse	-2897
▁belief	-2898
▁saving	-2899
▁biology	-2900
▁waiting	-2901
▁position	-2902
▁governments	-2903
sh	-2904
bes	-2905
itted	-2906
▁webs	-2907
▁chris	-2908
▁email	-2909
▁magic	-2910
▁party	-2911
▁worst	-2912
men	-2913
▁mi	-2914
▁exh	-2915
▁alth	-2916
atives	-2917
▁costs	-2918
▁decades	-2919
▁although	-2920
▁greatest	-2921
▁financial	-2922
▁interview	-2923
▁immediately	-2924
▁sand	-2925
▁catch	-2926
▁forms	-2927
▁helped	-2928
▁series	-2929
▁contrib	-2930
▁facebook	-2931
▁direction	-2932
▁solutions	-2933
rep	-2934
atory	-2935
gress	-2936
▁jump	-2937
▁trou	-2938
▁store	-2939
▁allows	-2940
▁pieces	-2941
▁critical	-2942
▁projects	-2943
▁therefore	-2944
▁challenges	-2945
▁ut	-2946
▁lat	-2947
iding	-2948
▁beat	-2949
▁harm	-2950
inated	-2951
▁surve	-2952
▁describ	-2953
▁citizens	-2954
▁conditions	-2955
▁increasing	-2956
▁cru	-2957
aking	-2958
oting	-2959
▁motiv	-2960
▁neurons	-2961
▁doc	-2962
▁sor	-2963
▁init	-2964
▁phen	-2965
▁site	-2966
▁slight	-2967
▁emotional	-2968
rupt	-2969
atell	-2970
eless	-2971
phone	-2972
▁smell	-2973
▁actual	-2974
▁justice	-2975
▁painting	-2976
▁institutions	-2977
▁relationships	-2978
▁ahead	-2979
▁hearing	-2980
dom	-2981
ked	-2982
ises	-2983
▁hus	-2984
ologists	-2985
▁conserv	-2986
▁surround	-2987
▁throughout	-2988
lebr	-2989
▁sus	-2990
iling	-2991
▁prote	-2992
▁telev	-2993
▁celebr	-2994
▁satell	-2995
▁switch	-2996
atically	-2997
▁private	-2998
▁condition	-2999
▁production	-3000
acity	-3001
▁whose	-3002
▁island	-3003
▁method	-3004
▁services	-3005
owd	-3006
resh	-3007
ricult	-3008
▁spect	-3009
▁address	-3010
▁agricult	-3011
▁atmosphere	-3012
lo	-3013
ama	-3014
ips	-3015
back	-3016
olve	-3017
▁fuel	-3018
▁mouth	-3019
▁decide	-3020
▁walked	-3021
▁brother	-3022
▁workers	-3023
▁vul	-3024
antic	-3025
epend	-3026
▁hall	-3027
▁moral	-3028
▁despite	-3029
▁politics	-3030
▁connection	-3031
put	-3032
itor	-3033
▁gun	-3034
itude	-3035
▁arab	-3036
▁base	-3037
▁forth	-3038
▁occur	-3039
▁decade	-3040
▁nearly	-3041
▁massive	-3042
▁stopped	-3043
band	-3044
ceed	-3045
▁laws	-3046
▁enorm	-3047
▁integ	-3048
▁river	-3049
▁mostly	-3050
ended	-3051
▁hell	-3052
▁becoming	-3053
▁expensive	-3054
▁creativity	-3055
oper	-3056
▁cla	-3057
▁habit	-3058
ologist	-3059
▁easier	-3060
▁region	-3061
▁greater	-3062
▁purpose	-3063
▁seconds	-3064
aign	-3065
▁hous	-3066
▁vacc	-3067
▁range	-3068
▁unique	-3069
ches	-3070
attle	-3071
▁noise	-3072
▁eating	-3073
▁remain	-3074
▁campaign	-3075
▁fantastic	-3076
▁mr	-3077
arian	-3078
▁swim	-3079
▁feels	-3080
▁destro	-3081
▁landsc	-3082
▁shared	-3083
▁knowing	-3084
▁temperature	-3085
ndon	-3086
▁ver	-3087
▁rise	-3088
▁dance	-3089
▁surger	-3090
▁ancient	-3091
▁mission	-3092
▁noticed	-3093
▁television	-3094
▁organizations	-3095
amic	-3096
ffee	-3097
▁wes	-3098
▁harv	-3099
▁narr	-3100
▁teen	-3101
▁legal	-3102
▁pound	-3103
▁beauty	-3104
▁effects	-3105
▁neighborhood	-3106
key	-3107
▁ai	-3108
ancy	-3109
▁pal	-3110
▁plat	-3111
▁prevent	-3112
▁phenomen	-3113
itter	-3114
▁host	-3115
▁radio	-3116
▁closer	-3117
▁answers	-3118
▁physics	-3119
▁popular	-3120
oon	-3121
raid	-3122
▁hyd	-3123
▁tit	-3124
▁bord	-3125
▁trade	-3126
▁afraid	-3127
▁custom	-3128
▁vulner	-3129
▁identity	-3130
▁environmental	-3131
iger	-3132
orks	-3133
wise	-3134
▁sick	-3135
▁tough	-3136
▁invent	-3137
▁reduce	-3138
▁express	-3139
▁directly	-3140
▁classroom	-3141
anc	-3142
bol	-3143
aced	-3144
uted	-3145
▁dyn	-3146
▁tax	-3147
▁tor	-3148
▁gold	-3149
▁coffee	-3150
▁spirit	-3151
▁understood	-3152
rew	-3153
oint	-3154
▁hey	-3155
▁artist	-3156
▁broken	-3157
▁opposite	-3158
ees	-3159
uct	-3160
▁500	-3161
▁held	-3162
▁moon	-3163
▁sorry	-3164
▁corner	-3165
▁evolved	-3166
▁anywhere	-3167
ios	-3168
▁esc	-3169
▁muse	-3170
ications	-3171
▁western	-3172
▁bacteria	-3173
▁effective	-3174
▁remarkable	-3175
anced	-3176
iforn	-3177
▁repe	-3178
▁californ	-3179
▁following	-3180
▁scientist	-3181
▁differently	-3182
ays	-3183
ipp	-3184
met	-3185
▁ur	-3186
water	-3187
▁aust	-3188
▁avoid	-3189
▁cooper	-3190
▁london	-3191
▁physic	-3192
▁instance	-3193
▁programs	-3194
▁biological	-3195
cks	-3196
▁egg	-3197
▁rom	-3198
▁bees	-3199
▁vast	-3200
▁demon	-3201
▁stren	-3202
▁useful	-3203
▁volunt	-3204
▁familiar	-3205
▁languages	-3206
sem	-3207
▁mut	-3208
rench	-3209
▁hole	-3210
▁causes	-3211
▁helping	-3212
▁negative	-3213
▁ultimately	-3214
val	-3215
▁tum	-3216
ement	-3217
orrow	-3218
▁museum	-3219
▁philos	-3220
▁resist	-3221
▁select	-3222
▁members	-3223
▁addition	-3224
▁standard	-3225
▁california	-3226
unk	-3227
▁ign	-3228
▁joy	-3229
▁total	-3230
inating	-3231
▁husband	-3232
▁independ	-3233
▁strength	-3234
▁surprising	-3235
▁traditional	-3236
umb	-3237
▁et	-3238
ened	-3239
▁marri	-3240
▁myster	-3241
▁spaces	-3242
▁sharing	-3243
▁cultural	-3244
▁invented	-3245
▁engineering	-3246
▁24	-3247
rene	-3248
▁hyp	-3249
othes	-3250
▁grav	-3251
▁heat	-3252
▁twice	-3253
▁altern	-3254
▁dollar	-3255
▁streets	-3256
▁survive	-3257
▁various	-3258
▁relative	-3259
▁teaching	-3260
▁mix	-3261
▁tun	-3262
▁spot	-3263
▁weird	-3264
▁drop	-3265
▁task	-3266
▁weap	-3267
▁shock	-3268
▁dreams	-3269
yle	-3270
▁197	-3271
▁floor	-3272
▁societ	-3273
▁capacity	-3274
cri	-3275
ulf	-3276
▁ken	-3277
arter	-3278
▁fing	-3279
▁scan	-3280
▁court	-3281
▁paral	-3282
▁price	-3283
▁famous	-3284
▁passed	-3285
▁thanks	-3286
▁yellow	-3287
▁emotions	-3288
▁mos	-3289
▁unc	-3290
▁visit	-3291
▁target	-3292
▁attract	-3293
▁matters	-3294
▁responsibility	-3295
iles	-3296
▁fol	-3297
▁uses	-3298
▁shift	-3299
▁electr	-3300
▁published	-3301
bi	-3302
▁odd	-3303
▁traffic	-3304
▁washing	-3305
▁diversity	-3306
▁efficient	-3307
▁significant	-3308
▁fed	-3309
ufact	-3310
▁lack	-3311
▁puzz	-3312
▁wood	-3313
▁optim	-3314
▁depression	-3315
▁industrial	-3316
bel	-3317
ids	-3318
imb	-3319
bles	-3320
▁mamm	-3321
▁agree	-3322
ception	-3323
ication	-3324
▁summer	-3325
zil	-3326
▁exer	-3327
▁trem	-3328
▁accom	-3329
▁breast	-3330
▁dinner	-3331
▁artists	-3332
▁explore	-3333
▁moments	-3334
▁website	-3335
▁slightly	-3336
set	-3337
ste	-3338
iety	-3339
ping	-3340
▁disp	-3341
▁hang	-3342
▁paid	-3343
▁tast	-3344
▁apple	-3345
▁frequ	-3346
▁parad	-3347
▁desire	-3348
▁insect	-3349
▁contain	-3350
▁related	-3351
▁manufact	-3352
▁ends	-3353
▁forg	-3354
▁musl	-3355
▁below	-3356
▁crowd	-3357
▁aspect	-3358
▁brazil	-3359
▁corpor	-3360
▁possibly	-3361
▁spending	-3362
son	-3363
tle	-3364
erson	-3365
▁blog	-3366
▁legs	-3367
▁seed	-3368
▁bought	-3369
▁crimin	-3370
▁correct	-3371
▁emotion	-3372
▁holding	-3373
▁believed	-3374
▁communication	-3375
otyp	-3376
▁veh	-3377
▁iron	-3378
▁russ	-3379
▁dying	-3380
▁supply	-3381
▁studying	-3382
cies	-3383
tery	-3384
▁bag	-3385
▁fac	-3386
▁afgh	-3387
▁spin	-3388
▁basis	-3389
▁highly	-3390
▁creates	-3391
▁demonst	-3392
▁produced	-3393
nel	-3394
▁rule	-3395
▁funny	-3396
▁helps	-3397
reprene	-3398
▁histor	-3399
▁oxygen	-3400
▁played	-3401
▁researchers	-3402
▁isl	-3403
▁1000	-3404
▁gain	-3405
▁rare	-3406
▁chair	-3407
▁rough	-3408
▁adults	-3409
▁partner	-3410
▁mountain	-3411
▁enter	-3412
▁photo	-3413
▁afghan	-3414
▁belong	-3415
▁enormous	-3416
▁networks	-3417
▁transport	-3418
▁entreprene	-3419
▁leadership	-3420
▁je	-3421
▁mir	-3422
▁pun	-3423
iring	-3424
▁gard	-3425
▁join	-3426
yl	-3427
aria	-3428
▁inj	-3429
eness	-3430
inist	-3431
▁mort	-3432
▁valu	-3433
icking	-3434
▁rapid	-3435
▁active	-3436
▁depart	-3437
▁gotten	-3438
▁mobile	-3439
▁forever	-3440
▁communicate	-3441
fl	-3442
itely	-3443
▁hate	-3444
▁raised	-3445
▁surgery	-3446
▁partners	-3447
▁strategy	-3448
▁molecules	-3449
enn	-3450
omy	-3451
▁300	-3452
stein	-3453
▁chur	-3454
▁flag	-3455
▁milk	-3456
▁shar	-3457
▁antib	-3458
▁embra	-3459
issions	-3460
▁accord	-3461
▁events	-3462
▁concent	-3463
▁failure	-3464
▁missing	-3465
bert	-3466
empt	-3467
▁ira	-3468
▁mad	-3469
▁nan	-3470
ening	-3471
rogen	-3472
▁cand	-3473
▁chick	-3474
▁cycle	-3475
▁names	-3476
▁breath	-3477
▁degree	-3478
▁expand	-3479
▁majority	-3480
▁profound	-3481
▁sustainable	-3482
▁consequences	-3483
▁opportunities	-3484
izes	-3485
▁frank	-3486
▁giant	-3487
▁offer	-3488
▁lights	-3489
▁entirely	-3490
▁feelings	-3491
▁rh	-3492
▁gay	-3493
▁acad	-3494
▁tens	-3495
▁wide	-3496
▁fully	-3497
▁deeply	-3498
▁leading	-3499
▁ug	-3500
cope	-3501
▁lock	-3502
▁consid	-3503
▁benefits	-3504
▁describe	-3505
▁inspired	-3506
▁multiple	-3507
ysis	-3508
▁196	-3509
ables	-3510
board	-3511
▁brill	-3512
▁democr	-3513
▁flight	-3514
▁seemed	-3515
▁techni	-3516
▁focused	-3517
▁nations	-3518
▁tremend	-3519
▁fighting	-3520
▁construct	-3521
▁otherwise	-3522
lled	-3523
▁bang	-3524
▁bound	-3525
▁recon	-3526
▁contact	-3527
▁background	-3528
▁eg	-3529
rees	-3530
▁fro	-3531
bling	-3532
istry	-3533
▁bear	-3534
▁iraq	-3535
▁reco	-3536
▁displ	-3537
▁equal	-3538
▁faces	-3539
▁lucky	-3540
ructure	-3541
▁effort	-3542
▁artific	-3543
▁benefit	-3544
▁restaur	-3545
▁conference	-3546
▁experiments	-3547
aff	-3548
oun	-3549
eral	-3550
▁burn	-3551
▁pill	-3552
▁bridge	-3553
▁brings	-3554
▁leaving	-3555
athy	-3556
cest	-3557
▁won	-3558
▁cred	-3559
▁canad	-3560
▁pleas	-3561
▁french	-3562
▁master	-3563
ulations	-3564
▁trouble	-3565
▁volunte	-3566
▁importantly	-3567
▁possibility	-3568
▁responsible	-3569
▁amb	-3570
right	-3571
▁boat	-3572
▁thri	-3573
▁10000	-3574
▁calls	-3575
▁diagn	-3576
▁ancest	-3577
▁lesson	-3578
▁sector	-3579
▁signal	-3580
▁marriage	-3581
▁original	-3582
zen	-3583
▁dav	-3584
▁und	-3585
ctions	-3586
▁analy	-3587
▁window	-3588
▁childhood	-3589
▁particles	-3590
▁foundation	-3591
ius	-3592
ager	-3593
eter	-3594
▁ske	-3595
estic	-3596
▁adop	-3597
▁exec	-3598
▁myth	-3599
▁poet	-3600
ulated	-3601
▁bread	-3602
▁stuck	-3603
▁compon	-3604
▁opened	-3605
▁professor	-3606
▁definition	-3607
ij	-3608
cles	-3609
icles	-3610
idden	-3611
▁shut	-3612
▁appre	-3613
▁commer	-3614
▁flying	-3615
▁therap	-3616
▁according	-3617
▁landscape	-3618
ils	-3619
ctic	-3620
▁dar	-3621
▁wis	-3622
▁core	-3623
▁date	-3624
▁recy	-3625
▁accur	-3626
▁simpl	-3627
▁sister	-3628
▁infrast	-3629
▁billions	-3630
▁investment	-3631
ae	-3632
▁uk	-3633
▁gar	-3634
▁pig	-3635
▁saf	-3636
▁shr	-3637
▁easily	-3638
▁letter	-3639
▁studied	-3640
ification	-3641
▁religion	-3642
▁societies	-3643
ogen	-3644
vere	-3645
work	-3646
▁cogn	-3647
▁folks	-3648
▁metap	-3649
▁caught	-3650
▁failed	-3651
▁voices	-3652
▁turning	-3653
▁virtual	-3654
▁suffering	-3655
▁structures	-3656
vant	-3657
▁mer	-3658
force	-3659
▁edge	-3660
▁meat	-3661
▁walls	-3662
▁advant	-3663
▁markets	-3664
▁watched	-3665
▁purs	-3666
▁birds	-3667
▁inequ	-3668
▁round	-3669
ruption	-3670
▁reject	-3671
▁balance	-3672
▁destroy	-3673
▁require	-3674
pro	-3675
urd	-3676
anda	-3677
iest	-3678
▁fle	-3679
▁geor	-3680
▁prou	-3681
▁seas	-3682
▁coast	-3683
▁double	-3684
▁photos	-3685
▁unless	-3686
▁infrastructure	-3687
enty	-3688
▁bul	-3689
▁reb	-3690
▁fold	-3691
▁weak	-3692
▁invis	-3693
▁magaz	-3694
▁wheel	-3695
▁symbol	-3696
▁transm	-3697
▁counter	-3698
▁figured	-3699
▁foreign	-3700
▁twitter	-3701
▁congress	-3702
▁distance	-3703
▁statistics	-3704
like	-3705
▁ath	-3706
▁cro	-3707
▁hunt	-3708
▁isol	-3709
▁rout	-3710
▁daily	-3711
▁mouse	-3712
▁pregn	-3713
▁waves	-3714
▁disord	-3715
▁harder	-3716
arm	-3717
ief	-3718
leg	-3719
▁due	-3720
▁note	-3721
▁pair	-3722
▁shop	-3723
itable	-3724
▁talks	-3725
▁desert	-3726
▁fields	-3727
▁movies	-3728
▁appreci	-3729
▁trained	-3730
▁previous	-3731
▁perfectly	-3732
▁constantly	-3733
▁necessarily	-3734
bled	-3735
house	-3736
▁lifet	-3737
▁calcul	-3738
▁forces	-3739
▁losing	-3740
▁wearing	-3741
▁electron	-3742
▁vote	-3743
▁brand	-3744
▁risks	-3745
▁truck	-3746
ifically	-3747
▁mothers	-3748
▁brilliant	-3749
▁engineers	-3750
▁artificial	-3751
▁mathematics	-3752
▁consciousness	-3753
▁mit	-3754
▁rot	-3755
iable	-3756
▁arms	-3757
▁gent	-3758
▁ment	-3759
▁tiss	-3760
atures	-3761
elling	-3762
▁crime	-3763
▁grade	-3764
▁instr	-3765
▁intel	-3766
▁bright	-3767
▁calling	-3768
▁confidence	-3769
▁generations	-3770
irt	-3771
cell	-3772
▁aids	-3773
▁lies	-3774
▁mich	-3775
▁nerv	-3776
▁argue	-3777
▁grown	-3778
▁slide	-3779
▁convin	-3780
▁slowly	-3781
▁attempt	-3782
▁married	-3783
▁platform	-3784
▁received	-3785
▁emissions	-3786
▁associated	-3787
mar	-3788
▁nav	-3789
▁pow	-3790
▁sen	-3791
esome	-3792
▁diet	-3793
▁cheap	-3794
▁click	-3795
▁niger	-3796
▁steps	-3797
▁stock	-3798
▁subst	-3799
▁interp	-3800
▁meters	-3801
▁curious	-3802
▁compared	-3803
▁struggle	-3804
▁philosoph	-3805
▁collective	-3806
ses	-3807
▁rub	-3808
▁tons	-3809
▁zone	-3810
▁mexic	-3811
▁austral	-3812
▁germany	-3813
▁illness	-3814
▁antibiot	-3815
▁bringing	-3816
▁organisms	-3817
▁phenomenon	-3818
pa	-3819
kers	-3820
ront	-3821
▁fif	-3822
▁row	-3823
icate	-3824
▁asia	-3825
▁intu	-3826
▁liqu	-3827
ushing	-3828
▁plane	-3829
▁trial	-3830
instein	-3831
ography	-3832
▁degrees	-3833
▁investig	-3834
▁religious	-3835
▁surprised	-3836
▁tremendous	-3837
▁professional	-3838
pper	-3839
▁david	-3840
▁facts	-3841
▁frust	-3842
▁leads	-3843
▁filled	-3844
▁stream	-3845
▁malaria	-3846
▁nervous	-3847
▁typical	-3848
▁afghanistan	-3849
osy	-3850
ties	-3851
▁400	-3852
▁etc	-3853
▁lin	-3854
▁smo	-3855
agers	-3856
inate	-3857
▁paul	-3858
▁plus	-3859
▁lunch	-3860
▁maint	-3861
▁quiet	-3862
▁synth	-3863
▁galaxy	-3864
▁neuros	-3865
▁concern	-3866
▁deliver	-3867
▁kilomet	-3868
▁everyday	-3869
▁described	-3870
▁differences	-3871
▁experienced	-3872
▁conversations	-3873
cop	-3874
igr	-3875
load	-3876
▁ble	-3877
▁band	-3878
▁empt	-3879
▁grandm	-3880
▁leader	-3881
▁limited	-3882
▁einstein	-3883
▁finished	-3884
▁intellect	-3885
▁necessary	-3886
ya	-3887
reg	-3888
ued	-3889
▁35	-3890
eper	-3891
iers	-3892
ores	-3893
oted	-3894
▁alt	-3895
essed	-3896
ulous	-3897
▁bomb	-3898
▁rein	-3899
▁soil	-3900
ashion	-3901
▁prize	-3902
▁shame	-3903
osystem	-3904
▁notion	-3905
▁option	-3906
▁awesome	-3907
▁british	-3908
▁experts	-3909
▁worried	-3910
▁agriculture	-3911
▁competition	-3912
▁fascinating	-3913
la	-3914
emy	-3915
▁dol	-3916
▁coal	-3917
▁copy	-3918
▁defe	-3919
▁epid	-3920
▁tall	-3921
▁trip	-3922
acters	-3923
▁brown	-3924
▁crash	-3925
▁goals	-3926
▁homes	-3927
▁horri	-3928
▁rates	-3929
▁astron	-3930
▁ecosystem	-3931
▁influence	-3932
▁characters	-3933
quit	-3934
rict	-3935
▁dry	-3936
aling	-3937
▁mart	-3938
▁wave	-3939
idents	-3940
▁uncle	-3941
▁church	-3942
▁terrif	-3943
▁farmers	-3944
▁letters	-3945
▁promise	-3946
▁regular	-3947
▁station	-3948
▁currently	-3949
▁civilization	-3950
har	-3951
▁jew	-3952
▁pros	-3953
▁wake	-3954
▁wear	-3955
▁novel	-3956
▁satis	-3957
▁leaves	-3958
▁phones	-3959
▁quantum	-3960
▁argument	-3961
▁european	-3962
wood	-3963
▁reve	-3964
▁faith	-3965
▁proud	-3966
▁trill	-3967
▁exists	-3968
▁gather	-3969
▁gentle	-3970
▁command	-3971
▁radical	-3972
▁normally	-3973
▁reaction	-3974
▁refugees	-3975
▁intelligent	-3976
ests	-3977
▁tow	-3978
icing	-3979
▁libr	-3980
▁poem	-3981
▁claim	-3982
▁estab	-3983
▁closed	-3984
▁fortun	-3985
▁fourth	-3986
▁genome	-3987
▁remote	-3988
▁fashion	-3989
▁politic	-3990
▁setting	-3991
▁succeed	-3992
▁elements	-3993
▁comfortable	-3994
ears	-3995
▁gap	-3996
gment	-3997
▁kore	-3998
▁stood	-3999
▁fairly	-4000
▁indian	-4001
▁unlike	-4002
▁devices	-4003
▁keeping	-4004
cast	-4005
▁fal	-4006
▁mel	-4007
apers	-4008
ropri	-4009
▁fresh	-4010
▁prior	-4011
▁teles	-4012
▁weapons	-4013
▁exercise	-4014
▁followed	-4015
▁creatures	-4016
▁imagination	-4017
bb	-4018
asa	-4019
ypt	-4020
isco	-4021
rael	-4022
▁ven	-4023
▁hurt	-4024
▁opin	-4025
▁soul	-4026
▁battle	-4027
▁caused	-4028
▁hidden	-4029
▁motion	-4030
▁highest	-4031
▁options	-4032
▁surprise	-4033
▁discovery	-4034
▁washington	-4035
▁loud	-4036
▁perm	-4037
▁ship	-4038
▁dolph	-4039
▁colors	-4040
▁expert	-4041
▁fellow	-4042
▁reward	-4043
▁videos	-4044
▁capable	-4045
▁invited	-4046
▁survival	-4047
▁mentioned	-4048
▁businesses	-4049
ax	-4050
ding	-4051
▁org	-4052
▁hide	-4053
▁stim	-4054
urally	-4055
▁chimp	-4056
▁climb	-4057
▁motor	-4058
▁perce	-4059
▁define	-4060
▁finish	-4061
▁illust	-4062
▁israel	-4063
▁complexity	-4064
▁department	-4065
▁ves	-4066
▁tour	-4067
▁added	-4068
▁assem	-4069
▁dinos	-4070
▁franc	-4071
▁pages	-4072
▁circum	-4073
▁damage	-4074
▁courage	-4075
▁engineer	-4076
▁requires	-4077
▁algorithm	-4078
▁employees	-4079
▁invisible	-4080
▁satellite	-4081
sa	-4082
ume	-4083
▁sug	-4084
▁horm	-4085
▁warm	-4086
▁charge	-4087
▁commit	-4088
▁managed	-4089
▁advanced	-4090
▁mistakes	-4091
▁advantage	-4092
▁institution	-4093
ript	-4094
▁bee	-4095
celer	-4096
▁ange	-4097
▁sides	-4098
▁forced	-4099
▁liquid	-4100
▁paying	-4101
▁equival	-4102
▁forests	-4103
▁insight	-4104
▁release	-4105
▁theater	-4106
▁treated	-4107
▁criminal	-4108
▁lifetime	-4109
▁metaphor	-4110
▁hopefully	-4111
▁operating	-4112
ky	-4113
mp	-4114
bal	-4115
oes	-4116
▁pm	-4117
ston	-4118
ength	-4119
▁agre	-4120
▁exch	-4121
▁unit	-4122
▁whom	-4123
▁yout	-4124
▁empty	-4125
▁heads	-4126
▁honey	-4127
▁limit	-4128
▁minim	-4129
▁spoke	-4130
▁driver	-4131
▁safety	-4132
▁vessel	-4133
▁cultures	-4134
▁magazine	-4135
▁separate	-4136
▁chemicals	-4137
▁cognitive	-4138
▁concerned	-4139
▁vulnerable	-4140
cil	-4141
▁gam	-4142
uries	-4143
▁grass	-4144
▁arrived	-4145
▁youtube	-4146
▁identify	-4147
▁sentence	-4148
▁il	-4149
▁gri	-4150
▁tap	-4151
▁cort	-4152
▁soph	-4153
▁equip	-4154
▁metal	-4155
▁prost	-4156
▁begins	-4157
▁circle	-4158
▁clouds	-4159
▁pounds	-4160
▁acceler	-4161
▁election	-4162
▁microbes	-4163
▁planning	-4164
▁thoughts	-4165
▁inequality	-4166
▁environments	-4167
ques	-4168
iving	-4169
nding	-4170
place	-4171
▁dial	-4172
▁hung	-4173
▁seat	-4174
▁egypt	-4175
▁infin	-4176
▁stupid	-4177
▁wisdom	-4178
▁expected	-4179
▁designing	-4180
cra	-4181
▁ax	-4182
odes	-4183
uing	-4184
wide	-4185
▁jail	-4186
▁shif	-4187
rating	-4188
▁colon	-4189
▁march	-4190
▁moves	-4191
▁actions	-4192
▁insects	-4193
cket	-4194
mark	-4195
▁cha	-4196
▁era	-4197
print	-4198
▁shel	-4199
▁puzzle	-4200
▁thinks	-4201
ibilities	-4202
▁creation	-4203
▁seriously	-4204
▁consumption	-4205
cut	-4206
rum	-4207
cers	-4208
▁bub	-4209
▁fab	-4210
▁gut	-4211
▁ped	-4212
▁poo	-4213
▁abst	-4214
▁bone	-4215
▁doub	-4216
connect	-4217
▁observ	-4218
▁status	-4219
▁gravity	-4220
▁privile	-4221
▁feedback	-4222
▁valuable	-4223
▁grandmother	-4224
iat	-4225
ino	-4226
ubl	-4227
hold	-4228
▁bow	-4229
▁fis	-4230
▁inh	-4231
▁spl	-4232
ipped	-4233
▁blow	-4234
▁hill	-4235
▁remo	-4236
▁swed	-4237
itness	-4238
▁honor	-4239
▁pitch	-4240
▁facing	-4241
▁chicken	-4242
▁empathy	-4243
▁sequence	-4244
▁increased	-4245
▁activities	-4246
▁commercial	-4247
▁definitely	-4248
omm	-4249
eared	-4250
▁flat	-4251
▁hack	-4252
▁kick	-4253
▁suic	-4254
▁thin	-4255
ndered	-4256
▁broke	-4257
▁shoes	-4258
▁sympt	-4259
▁debate	-4260
▁picked	-4261
▁regard	-4262
▁script	-4263
▁precise	-4264
▁replace	-4265
▁specifically	-4266
▁23	-4267
ford	-4268
▁lie	-4269
▁que	-4270
▁army	-4271
▁iran	-4272
▁qual	-4273
▁solid	-4274
▁teams	-4275
▁assist	-4276
▁mirror	-4277
▁survey	-4278
▁article	-4279
▁contract	-4280
▁importance	-4281
▁principles	-4282
gl	-4283
▁99	-4284
▁ju	-4285
▁anx	-4286
▁nar	-4287
▁thr	-4288
▁foss	-4289
▁tail	-4290
▁atoms	-4291
▁micros	-4292
▁conduct	-4293
▁organic	-4294
▁sources	-4295
▁equipment	-4296
▁alternative	-4297
anze	-4298
▁unp	-4299
ament	-4300
▁pure	-4301
oration	-4302
▁amazon	-4303
▁toward	-4304
▁accompl	-4305
▁battery	-4306
▁privacy	-4307
▁reprodu	-4308
▁tomorrow	-4309
▁chimpanze	-4310
▁pollution	-4311
▁equivalent	-4312
ker	-4313
▁wel	-4314
ander	-4315
▁evil	-4316
▁load	-4317
▁wire	-4318
forest	-4319
▁illeg	-4320
▁teeth	-4321
▁users	-4322
▁advent	-4323
▁oceans	-4324
▁sports	-4325
▁killing	-4326
▁whenever	-4327
▁technical	-4328
▁management	-4329
bre	-4330
fit	-4331
▁22	-4332
▁aug	-4333
▁cow	-4334
▁ens	-4335
throp	-4336
▁roof	-4337
▁airpl	-4338
▁exhib	-4339
▁paint	-4340
▁prove	-4341
▁cameras	-4342
▁drawing	-4343
▁funding	-4344
▁include	-4345
▁graduate	-4346
▁maintain	-4347
▁continent	-4348
▁essential	-4349
af	-4350
esth	-4351
▁decl	-4352
▁lapt	-4353
▁eleph	-4354
▁films	-4355
▁holes	-4356
▁rural	-4357
▁advice	-4358
▁assign	-4359
▁garden	-4360
▁rocket	-4361
ographic	-4362
▁selling	-4363
▁accident	-4364
▁designers	-4365
▁wondering	-4366
▁corruption	-4367
▁kilometers	-4368
▁restaurant	-4369
ih	-4370
ike	-4371
rit	-4372
care	-4373
esis	-4374
ocol	-4375
roph	-4376
▁adj	-4377
▁mas	-4378
▁arts	-4379
▁bath	-4380
▁traum	-4381
comfort	-4382
▁budget	-4383
▁former	-4384
▁muscle	-4385
▁spring	-4386
▁versus	-4387
▁capture	-4388
▁defined	-4389
▁dynamic	-4390
▁designer	-4391
▁equality	-4392
▁interpret	-4393
▁universal	-4394
▁connections	-4395
zing	-4396
▁ide	-4397
encies	-4398
▁quote	-4399
▁attach	-4400
▁blocks	-4401
▁canada	-4402
▁incent	-4403
▁member	-4404
▁compare	-4405
▁opening	-4406
▁signals	-4407
▁analysis	-4408
▁existence	-4409
▁processes	-4410
▁expression	-4411
▁increasingly	-4412
dy	-4413
ami	-4414
▁75	-4415
▁gd	-4416
gged	-4417
iors	-4418
▁ren	-4419
itals	-4420
▁tick	-4421
▁kitch	-4422
▁shall	-4423
▁toile	-4424
▁tumor	-4425
▁mexico	-4426
▁element	-4427
▁testing	-4428
abilities	-4429
▁launched	-4430
▁resource	-4431
▁trillion	-4432
▁meaningful	-4433
▁intellectual	-4434
mon	-4435
und	-4436
▁si	-4437
▁cos	-4438
anted	-4439
asion	-4440
neath	-4441
▁cure	-4442
▁gall	-4443
▁pole	-4444
▁sees	-4445
▁shad	-4446
itarian	-4447
▁button	-4448
▁deeper	-4449
▁height	-4450
▁pulled	-4451
▁harvard	-4452
▁protein	-4453
▁roughly	-4454
▁carefully	-4455
▁algorithms	-4456
▁considered	-4457
▁underneath	-4458
▁hol	-4459
iency	-4460
lling	-4461
▁auth	-4462
▁gift	-4463
ensity	-4464
▁angry	-4465
▁beach	-4466
▁categ	-4467
▁chain	-4468
▁crack	-4469
▁polar	-4470
▁resil	-4471
▁sight	-4472
▁worlds	-4473
▁england	-4474
▁singing	-4475
▁violent	-4476
▁witness	-4477
▁generate	-4478
▁property	-4479
▁distribution	-4480
aks	-4481
now	-4482
▁bg	-4483
irty	-4484
osis	-4485
otic	-4486
▁rat	-4487
▁diss	-4488
▁lady	-4489
▁mira	-4490
▁snow	-4491
ipping	-4492
terday	-4493
▁brief	-4494
▁domin	-4495
▁saved	-4496
▁scene	-4497
ulating	-4498
▁driven	-4499
▁marine	-4500
▁falling	-4501
▁appropri	-4502
▁memories	-4503
▁convinced	-4504
▁neighbors	-4505
▁yesterday	-4506
▁situations	-4507
lin	-4508
▁45	-4509
▁gh	-4510
▁lu	-4511
▁na	-4512
airs	-4513
fish	-4514
whel	-4515
▁gdp	-4516
▁vent	-4517
▁awful	-4518
▁manip	-4519
▁desper	-4520
▁dealing	-4521
▁mistake	-4522
▁messages	-4523
▁overwhel	-4524
▁required	-4525
▁mortality	-4526
esh	-4527
mas	-4528
head	-4529
▁ber	-4530
▁ing	-4531
▁las	-4532
▁vib	-4533
usive	-4534
▁bare	-4535
▁sites	-4536
▁veget	-4537
▁credit	-4538
▁details	-4539
▁lessons	-4540
▁weather	-4541
ka	-4542
ok	-4543
aly	-4544
▁ii	-4545
ault	-4546
icit	-4547
▁sem	-4548
▁lawy	-4549
▁auton	-4550
▁curve	-4551
▁fewer	-4552
▁genet	-4553
▁islam	-4554
▁memor	-4555
▁topic	-4556
osition	-4557
▁factor	-4558
▁george	-4559
▁tissue	-4560
▁players	-4561
▁reached	-4562
▁apparent	-4563
▁circumst	-4564
▁encourage	-4565
▁entertain	-4566
▁institute	-4567
▁organized	-4568
▁principle	-4569
▁typically	-4570
▁represents	-4571
▁independent	-4572
han	-4573
rete	-4574
▁pil	-4575
▁wow	-4576
oxide	-4577
▁alex	-4578
▁gree	-4579
▁inev	-4580
▁lect	-4581
▁mile	-4582
▁syri	-4583
▁abuse	-4584
▁ideal	-4585
▁liked	-4586
▁serve	-4587
iration	-4588
▁breathe	-4589
▁kitchen	-4590
▁neither	-4591
▁silence	-4592
▁warming	-4593
▁ordinary	-4594
▁producing	-4595
mak	-4596
oom	-4597
xim	-4598
ares	-4599
▁van	-4600
icity	-4601
▁dots	-4602
▁fell	-4603
▁flex	-4604
▁poly	-4605
▁prev	-4606
▁reef	-4607
▁stem	-4608
▁hyper	-4609
▁invol	-4610
▁judge	-4611
▁forgot	-4612
▁symmet	-4613
▁factory	-4614
▁rapidly	-4615
▁suppose	-4616
▁australia	-4617
▁movements	-4618
▁worldwide	-4619
30	-4620
amb	-4621
pet	-4622
win	-4623
▁py	-4624
▁asp	-4625
▁tro	-4626
▁puts	-4627
▁aging	-4628
▁boxes	-4629
▁flies	-4630
▁heavy	-4631
▁keeps	-4632
▁obser	-4633
▁reven	-4634
▁taste	-4635
▁escape	-4636
▁review	-4637
▁shapes	-4638
▁whereas	-4639
▁hydrogen	-4640
▁economics	-4641
▁perception	-4642
▁transition	-4643
▁♪	-4644
iped	-4645
▁ack	-4646
▁atl	-4647
▁dust	-4648
▁nurs	-4649
cience	-4650
ession	-4651
▁concl	-4652
▁contem	-4653
▁houses	-4654
▁reform	-4655
▁republ	-4656
▁scared	-4657
▁britain	-4658
▁cutting	-4659
▁install	-4660
▁domestic	-4661
▁pleasure	-4662
▁effectively	-4663
ago	-4664
och	-4665
rel	-4666
keys	-4667
pher	-4668
▁sla	-4669
▁bran	-4670
▁eggs	-4671
▁nasa	-4672
▁wars	-4673
iosity	-4674
ortion	-4675
▁coral	-4676
▁sugar	-4677
▁100000	-4678
▁advert	-4679
▁muslim	-4680
▁depends	-4681
▁dioxide	-4682
▁equally	-4683
▁factors	-4684
▁sending	-4685
▁awareness	-4686
▁chemistry	-4687
▁sophistic	-4688
▁antibiotics	-4689
▁politicians	-4690
▁potentially	-4691
▁conservation	-4692
ta	-4693
onym	-4694
▁sco	-4695
▁toy	-4696
craft	-4697
▁fake	-4698
▁murd	-4699
▁rely	-4700
father	-4701
▁layer	-4702
▁sweet	-4703
▁medium	-4704
▁consist	-4705
▁engaged	-4706
▁illegal	-4707
▁epidemic	-4708
▁existing	-4709
▁instruct	-4710
▁republic	-4711
▁ancestors	-4712
aled	-4713
aust	-4714
heim	-4715
▁unk	-4716
angers	-4717
ptions	-4718
▁horiz	-4719
▁signs	-4720
▁thick	-4721
▁prefer	-4722
▁cartoon	-4723
▁library	-4724
▁younger	-4725
▁document	-4726
▁authority	-4727
ym	-4728
abled	-4729
▁glam	-4730
▁lying	-4731
▁mosquit	-4732
▁solving	-4733
▁spectrum	-4734
▁francisco	-4735
▁fundament	-4736
▁protected	-4737
▁introduced	-4738
▁profession	-4739
▁participate	-4740
▁mathematical	-4741
▁possibilities	-4742
zed	-4743
▁ru	-4744
aked	-4745
oses	-4746
▁arr	-4747
▁cast	-4748
▁lens	-4749
▁mand	-4750
ifying	-4751
▁chart	-4752
▁estim	-4753
▁false	-4754
▁navig	-4755
▁steve	-4756
▁monkey	-4757
▁valley	-4758
▁variety	-4759
▁dramatic	-4760
▁soldiers	-4761
▁interests	-4762
▁dimensional	-4763
▁photographs	-4764
icy	-4765
gets	-4766
▁150	-4767
▁ded	-4768
▁oct	-4769
▁voc	-4770
▁bits	-4771
▁desk	-4772
▁lone	-4773
▁suit	-4774
pected	-4775
▁antic	-4776
▁barri	-4777
▁digit	-4778
▁horse	-4779
▁inner	-4780
▁james	-4781
▁plate	-4782
▁shark	-4783
▁toler	-4784
▁border	-4785
▁player	-4786
▁recomm	-4787
▁suffer	-4788
▁embrace	-4789
▁northern	-4790
▁southern	-4791
▁symptoms	-4792
▁colleague	-4793
▁narrative	-4794
▁naturally	-4795
▁relatively	-4796
▁combination	-4797
▁construction	-4798
▁0	-4799
off	-4800
inal	-4801
uses	-4802
▁ham	-4803
▁jer	-4804
▁sir	-4805
▁fert	-4806
stream	-4807
▁decre	-4808
▁kenya	-4809
▁refer	-4810
▁clinic	-4811
▁divide	-4812
▁fossil	-4813
▁france	-4814
▁joined	-4815
▁offered	-4816
▁vehicle	-4817
▁birthday	-4818
▁director	-4819
▁location	-4820
▁curiosity	-4821
▁mountains	-4822
▁electrical	-4823
▁properties	-4824
▁entrepreneurs	-4825
rog	-4826
umn	-4827
ingu	-4828
▁cosm	-4829
▁jack	-4830
▁pref	-4831
▁ring	-4832
▁surf	-4833
ension	-4834
▁admit	-4835
▁explo	-4836
▁smile	-4837
▁acknow	-4838
▁season	-4839
▁attacks	-4840
▁millenn	-4841
▁parking	-4842
▁receive	-4843
▁carrying	-4844
▁constant	-4845
▁disaster	-4846
▁pregnant	-4847
▁released	-4848
▁interaction	-4849
rs	-4850
rim	-4851
▁dut	-4852
▁nur	-4853
eline	-4854
point	-4855
▁dish	-4856
▁frag	-4857
▁subm	-4858
▁ridic	-4859
▁scary	-4860
▁weigh	-4861
▁explan	-4862
▁handle	-4863
▁organs	-4864
▁severe	-4865
▁sphere	-4866
▁causing	-4867
▁channel	-4868
▁covered	-4869
▁monkeys	-4870
▁mystery	-4871
▁primary	-4872
▁quarter	-4873
▁vaccine	-4874
▁viruses	-4875
▁brothers	-4876
▁prepared	-4877
▁behaviors	-4878
▁convention	-4879
▁dimensions	-4880
cipl	-4881
resp	-4882
▁cub	-4883
▁lic	-4884
▁wat	-4885
▁biom	-4886
icious	-4887
▁faced	-4888
▁input	-4889
▁negot	-4890
▁shoot	-4891
▁surge	-4892
▁tests	-4893
▁senses	-4894
▁classes	-4895
▁abstract	-4896
▁exchange	-4897
▁hypothes	-4898
▁meetings	-4899
▁relevant	-4900
▁hospitals	-4901
▁traveling	-4902
▁fundamentally	-4903
20	-4904
do	-4905
ara	-4906
ica	-4907
rom	-4908
▁du	-4909
▁hi	-4910
nown	-4911
uits	-4912
xies	-4913
▁phr	-4914
▁uns	-4915
▁mall	-4916
▁nose	-4917
▁ride	-4918
estyle	-4919
lement	-4920
▁trend	-4921
▁framew	-4922
▁burning	-4923
▁closely	-4924
▁refugee	-4925
▁victims	-4926
▁consumer	-4927
▁internal	-4928
▁prototyp	-4929
▁passionate	-4930
▁challenging	-4931
hi	-4932
box	-4933
▁mc	-4934
iate	-4935
▁scr	-4936
▁grid	-4937
▁mont	-4938
▁obst	-4939
▁silk	-4940
▁alien	-4941
▁doubt	-4942
▁label	-4943
▁recyc	-4944
▁staff	-4945
▁arrest	-4946
▁evolve	-4947
▁fisher	-4948
▁trials	-4949
▁applied	-4950
▁aspects	-4951
▁nigeria	-4952
▁anderson	-4953
▁horrible	-4954
▁stronger	-4955
▁generally	-4956
▁increases	-4957
▁telescope	-4958
▁grandfather	-4959
▁evolutionary	-4960
eng	-4961
abet	-4962
cend	-4963
etch	-4964
ogue	-4965
▁bes	-4966
comes	-4967
orous	-4968
▁anat	-4969
▁prem	-4970
▁runs	-4971
▁seek	-4972
arrass	-4973
ounced	-4974
urance	-4975
▁notes	-4976
▁polio	-4977
▁tired	-4978
ishment	-4979
▁candid	-4980
▁compar	-4981
▁elimin	-4982
▁immune	-4983
▁linked	-4984
▁perman	-4985
▁defense	-4986
▁empower	-4987
▁intense	-4988
▁regions	-4989
▁contrast	-4990
▁centuries	-4991
▁embarrass	-4992
▁molecular	-4993
▁efficiency	-4994
▁physically	-4995
gu	-4996
▁sna	-4997
gging	-4998
uting	-4999
▁susp	-5000
▁chrom	-5001
▁union	-5002
▁wound	-5003
▁length	-5004
▁feature	-5005
▁emerging	-5006
▁galaxies	-5007
▁obsessed	-5008
▁policies	-5009
▁constrain	-5010
▁intention	-5011
▁components	-5012
ole	-5013
pan	-5014
aren	-5015
uary	-5016
▁jan	-5017
▁acqu	-5018
▁gray	-5019
▁span	-5020
▁unex	-5021
▁user	-5022
heimer	-5023
▁accum	-5024
▁brave	-5025
▁flood	-5026
▁fruit	-5027
▁youth	-5028
▁extend	-5029
▁poetry	-5030
▁sharks	-5031
▁amounts	-5032
▁clothes	-5033
▁finance	-5034
▁liberal	-5035
▁visible	-5036
▁romantic	-5037
▁collected	-5038
▁depending	-5039
▁disappear	-5040
▁sensitive	-5041
▁mathematic	-5042
▁surrounded	-5043
▁manufacturing	-5044
▁psychological	-5045
anes	-5046
apse	-5047
▁pac	-5048
▁pip	-5049
erves	-5050
iment	-5051
▁corn	-5052
▁pian	-5053
▁reci	-5054
▁tack	-5055
isters	-5056
profit	-5057
rition	-5058
ternal	-5059
llywood	-5060
▁sample	-5061
▁encoura	-5062
▁suicide	-5063
▁wanting	-5064
▁confront	-5065
▁japanese	-5066
▁swimming	-5067
▁functions	-5068
▁statement	-5069
▁performing	-5070
▁psychology	-5071
ded	-5072
abol	-5073
oons	-5074
port	-5075
▁pin	-5076
riend	-5077
▁ages	-5078
▁boss	-5079
ateful	-5080
▁chron	-5081
▁clock	-5082
▁imper	-5083
▁occup	-5084
▁proof	-5085
▁steel	-5086
▁assume	-5087
▁boston	-5088
▁bottle	-5089
▁hoping	-5090
▁ingred	-5091
▁ladies	-5092
▁remove	-5093
▁shaped	-5094
▁spider	-5095
▁borders	-5096
▁herself	-5097
▁pushing	-5098
▁raising	-5099
▁windows	-5100
▁affected	-5101
▁clinical	-5102
▁complain	-5103
▁drinking	-5104
▁infected	-5105
▁outcomes	-5106
▁reaching	-5107
▁confident	-5108
▁customers	-5109
▁collection	-5110
▁healthcare	-5111
▁sophisticated	-5112
aurs	-5113
▁bay	-5114
▁raw	-5115
▁wik	-5116
▁joke	-5117
▁lift	-5118
▁root	-5119
▁chose	-5120
▁doors	-5121
▁hotel	-5122
▁plays	-5123
▁renew	-5124
▁roads	-5125
▁stone	-5126
inction	-5127
▁drives	-5128
▁laptop	-5129
▁volume	-5130
▁beliefs	-5131
▁comment	-5132
▁housing	-5133
▁nowhere	-5134
▁opinion	-5135
▁protest	-5136
▁richard	-5137
▁allowing	-5138
▁rational	-5139
▁explained	-5140
▁searching	-5141
▁percentage	-5142
▁personally	-5143
nes	-5144
▁gi	-5145
rors	-5146
▁194	-5147
▁alz	-5148
▁bon	-5149
▁eld	-5150
▁hem	-5151
itors	-5152
▁unus	-5153
porary	-5154
▁rooms	-5155
iveness	-5156
▁placed	-5157
▁struck	-5158
▁harvest	-5159
▁remains	-5160
▁unknown	-5161
▁vessels	-5162
▁radiation	-5163
▁destruction	-5164
▁circumstances	-5165
my	-5166
za	-5167
hol	-5168
▁27	-5169
▁ig	-5170
▁hun	-5171
▁stro	-5172
asters	-5173
▁advoc	-5174
▁audio	-5175
▁fifth	-5176
▁obama	-5177
▁rocks	-5178
raction	-5179
▁buying	-5180
▁native	-5181
▁winter	-5182
▁writer	-5183
▁chromos	-5184
▁combine	-5185
▁musical	-5186
▁concrete	-5187
▁alzheimer	-5188
▁corporate	-5189
▁framework	-5190
▁introduce	-5191
▁privilege	-5192
ost	-5193
van	-5194
opia	-5195
ship	-5196
▁600	-5197
▁spo	-5198
vable	-5199
▁drum	-5200
▁pool	-5201
▁pray	-5202
▁rebu	-5203
▁ugly	-5204
athers	-5205
▁absor	-5206
▁datab	-5207
▁dress	-5208
▁knock	-5209
▁sales	-5210
erences	-5211
▁acting	-5212
▁cortex	-5213
▁papers	-5214
▁rising	-5215
▁scenar	-5216
▁studio	-5217
▁display	-5218
▁therapy	-5219
▁grateful	-5220
▁minister	-5221
▁subjects	-5222
▁wondered	-5223
▁dinosaurs	-5224
▁measuring	-5225
▁providing	-5226
▁uncomfort	-5227
▁democratic	-5228
▁discussion	-5229
▁techniques	-5230
▁appropriate	-5231
▁exploration	-5232
▁technological	-5233
▁transformation	-5234
ael	-5235
bur	-5236
nda	-5237
yth	-5238
▁cere	-5239
▁debt	-5240
▁firm	-5241
▁grab	-5242
▁scar	-5243
▁subs	-5244
▁error	-5245
▁indic	-5246
itution	-5247
▁anonym	-5248
▁arctic	-5249
▁relate	-5250
▁repeat	-5251
▁tested	-5252
▁decline	-5253
▁efforts	-5254
▁fishing	-5255
▁frankly	-5256
▁tonight	-5257
▁welcome	-5258
▁airplane	-5259
▁infinite	-5260
▁overcome	-5261
▁arguments	-5262
▁economies	-5263
▁struggling	-5264
ha	-5265
wor	-5266
▁tan	-5267
arant	-5268
▁acts	-5269
▁elev	-5270
▁plot	-5271
▁suck	-5272
▁bones	-5273
▁cyber	-5274
▁korea	-5275
▁prose	-5276
▁stret	-5277
▁upper	-5278
▁arabic	-5279
▁clever	-5280
▁extent	-5281
▁formed	-5282
▁owners	-5283
▁recept	-5284
▁stayed	-5285
▁dropped	-5286
▁extract	-5287
▁painful	-5288
▁unusual	-5289
▁accurate	-5290
▁combined	-5291
▁convince	-5292
▁disorder	-5293
▁features	-5294
▁illusion	-5295
▁transfer	-5296
▁breathing	-5297
▁christmas	-5298
▁consumers	-5299
▁determine	-5300
▁interface	-5301
▁lifestyle	-5302
▁underwater	-5303
hen	-5304
▁gon	-5305
▁rac	-5306
▁1980	-5307
▁chap	-5308
▁chic	-5309
▁cous	-5310
▁hook	-5311
▁mary	-5312
▁prec	-5313
lation	-5314
▁dozen	-5315
▁enemy	-5316
▁grows	-5317
▁latin	-5318
▁logic	-5319
▁style	-5320
▁title	-5321
▁column	-5322
▁deploy	-5323
▁limits	-5324
▁advance	-5325
▁federal	-5326
▁operate	-5327
▁administ	-5328
▁distinct	-5329
▁molecule	-5330
▁uncertain	-5331
▁greenhouse	-5332
▁journalist	-5333
▁literature	-5334
▁resolution	-5335
▁dramatically	-5336
▁expectations	-5337
▁uncomfortable	-5338
va	-5339
ett	-5340
igm	-5341
lel	-5342
lymp	-5343
mber	-5344
▁pra	-5345
enced	-5346
orter	-5347
▁2009	-5348
▁hits	-5349
▁neut	-5350
▁sept	-5351
▁vert	-5352
▁anger	-5353
▁aside	-5354
▁cents	-5355
▁coach	-5356
▁coord	-5357
▁frame	-5358
▁seeds	-5359
▁tight	-5360
▁agency	-5361
▁boring	-5362
▁rivers	-5363
▁satisf	-5364
▁conclud	-5365
▁feeding	-5366
▁largely	-5367
▁outcome	-5368
▁overall	-5369
▁organism	-5370
▁provided	-5371
▁repeated	-5372
▁computing	-5373
▁mechanism	-5374
▁appreciate	-5375
▁innovative	-5376
▁fortunately	-5377
rig	-5378
▁26	-5379
kind	-5380
oned	-5381
rets	-5382
sing	-5383
what	-5384
▁mac	-5385
▁sed	-5386
▁bush	-5387
▁cash	-5388
▁sets	-5389
▁flash	-5390
▁gates	-5391
▁guide	-5392
▁initi	-5393
▁olymp	-5394
▁shout	-5395
▁stack	-5396
▁storm	-5397
▁tasks	-5398
rations	-5399
▁autism	-5400
▁chicago	-5401
▁discipl	-5402
▁diverse	-5403
▁exposed	-5404
▁mammals	-5405
▁methods	-5406
▁records	-5407
▁breaking	-5408
▁somewhat	-5409
▁ultimate	-5410
▁wherever	-5411
▁objective	-5412
▁recommend	-5413
▁apparently	-5414
▁processing	-5415
▁resistance	-5416
▁satellites	-5417
▁consequence	-5418
▁educational	-5419
▁participants	-5420
ald	-5421
ams	-5422
ita	-5423
ull	-5424
▁fi	-5425
lock	-5426
nter	-5427
▁orb	-5428
▁pak	-5429
ounce	-5430
▁atom	-5431
▁bias	-5432
▁peak	-5433
▁scul	-5434
▁chief	-5435
▁overl	-5436
▁songs	-5437
▁toxic	-5438
▁adjust	-5439
▁attend	-5440
▁darwin	-5441
▁fusion	-5442
▁obstac	-5443
▁repair	-5444
▁scream	-5445
▁storyt	-5446
▁centers	-5447
▁crucial	-5448
▁electro	-5449
▁smarter	-5450
▁accepted	-5451
▁district	-5452
▁engaging	-5453
▁occurred	-5454
▁pakistan	-5455
▁speakers	-5456
▁encounter	-5457
▁practical	-5458
▁terrorism	-5459
▁cooperation	-5460
▁inspiration	-5461
ari	-5462
bed	-5463
east	-5464
elly	-5465
greg	-5466
soft	-5467
▁rig	-5468
▁ears	-5469
▁ther	-5470
▁depth	-5471
▁globe	-5472
▁paris	-5473
▁rhyth	-5474
▁shell	-5475
▁athlet	-5476
▁deaths	-5477
▁plenty	-5478
▁russia	-5479
▁signed	-5480
▁carried	-5481
▁disrupt	-5482
▁academic	-5483
▁concepts	-5484
▁imagined	-5485
▁parallel	-5486
▁shoulder	-5487
▁connecting	-5488
▁controlled	-5489
▁engagement	-5490
▁permission	-5491
▁experiencing	-5492
da	-5493
iti	-5494
ula	-5495
time	-5496
▁aim	-5497
▁haw	-5498
▁ray	-5499
amics	-5500
▁2010	-5501
▁5000	-5502
▁june	-5503
▁lung	-5504
▁resc	-5505
▁wash	-5506
▁champ	-5507
▁guard	-5508
▁piano	-5509
▁pyram	-5510
▁recru	-5511
▁schol	-5512
▁units	-5513
▁filter	-5514
▁fright	-5515
▁genius	-5516
▁hungry	-5517
▁lovely	-5518
▁rating	-5519
▁surviv	-5520
▁sweden	-5521
▁classic	-5522
▁clients	-5523
▁extinct	-5524
▁figures	-5525
▁removed	-5526
▁transpl	-5527
▁floating	-5528
▁isolated	-5529
▁produces	-5530
▁proteins	-5531
▁treating	-5532
▁committed	-5533
▁identical	-5534
▁recognized	-5535
▁distributed	-5536
▁productivity	-5537
▁36	-5538
▁65	-5539
▁ox	-5540
berg	-5541
▁aqu	-5542
▁jim	-5543
▁lun	-5544
lands	-5545
mates	-5546
▁3000	-5547
▁busy	-5548
▁dign	-5549
▁dogs	-5550
▁mere	-5551
▁nick	-5552
▁orch	-5553
▁snea	-5554
▁wine	-5555
ashing	-5556
friend	-5557
▁crops	-5558
▁femin	-5559
▁fluid	-5560
▁orbit	-5561
▁traged	-5562
onscious	-5563
▁affects	-5564
▁chances	-5565
▁fiction	-5566
▁guarant	-5567
▁feminist	-5568
▁backwards	-5569
▁invention	-5570
▁presented	-5571
▁translate	-5572
▁laboratory	-5573
▁philosophy	-5574
▁protection	-5575
▁applications	-5576
▁implications	-5577
▁collaboration	-5578
▁sustainability	-5579
alu	-5580
nday	-5581
▁ash	-5582
▁cup	-5583
iders	-5584
▁bell	-5585
▁icon	-5586
▁olds	-5587
▁ours	-5588
▁rush	-5589
▁aston	-5590
▁goods	-5591
▁meter	-5592
▁whale	-5593
▁agreed	-5594
▁degrad	-5595
▁surely	-5596
▁victim	-5597
▁authent	-5598
▁citizen	-5599
▁cooking	-5600
▁evening	-5601
▁existed	-5602
▁fingers	-5603
▁flowers	-5604
▁sensors	-5605
▁properly	-5606
▁provides	-5607
▁emergency	-5608
▁generated	-5609
▁microsoft	-5610
▁spreading	-5611
▁standards	-5612
▁synthetic	-5613
▁technique	-5614
▁governance	-5615
▁productive	-5616
▁recognition	-5617
▁neuroscience	-5618
ba	-5619
asm	-5620
uce	-5621
▁91	-5622
igen	-5623
stic	-5624
▁bio	-5625
child	-5626
eding	-5627
night	-5628
opher	-5629
paper	-5630
▁2008	-5631
▁axis	-5632
▁dear	-5633
▁incl	-5634
▁lake	-5635
▁orph	-5636
▁bombs	-5637
▁cards	-5638
▁clust	-5639
▁cryst	-5640
▁minor	-5641
▁smoke	-5642
▁upset	-5643
▁yours	-5644
▁agenda	-5645
▁conver	-5646
▁flower	-5647
▁ignore	-5648
▁shrimp	-5649
ographer	-5650
▁dancing	-5651
▁kingdom	-5652
▁occasion	-5653
▁celebrate	-5654
▁marketing	-5655
▁conclusion	-5656
▁presentation	-5657
▁q	-5658
alk	-5659
bor	-5660
▁32	-5661
▁ba	-5662
iens	-5663
▁gor	-5664
▁nic	-5665
▁stom	-5666
▁zoom	-5667
herent	-5668
▁adopt	-5669
▁blame	-5670
▁fixed	-5671
▁maxim	-5672
▁nutri	-5673
▁walks	-5674
▁barely	-5675
▁facial	-5676
▁intent	-5677
▁missed	-5678
▁narrow	-5679
▁patent	-5680
▁portra	-5681
▁regret	-5682
▁sculpt	-5683
inations	-5684
▁charity	-5685
▁consult	-5686
▁impacts	-5687
▁metabol	-5688
▁pretend	-5689
▁confused	-5690
▁friendly	-5691
▁suggests	-5692
▁electronic	-5693
▁unexpected	-5694
der	-5695
▁om	-5696
umps	-5697
▁tip	-5698
arity	-5699
▁1960	-5700
▁ants	-5701
▁fulf	-5702
▁loop	-5703
▁tape	-5704
▁expos	-5705
▁ought	-5706
▁parli	-5707
▁sahar	-5708
▁split	-5709
▁stere	-5710
▁tries	-5711
respond	-5712
▁critic	-5713
▁crying	-5714
▁finger	-5715
▁margin	-5716
▁neural	-5717
▁toilet	-5718
igration	-5719
▁anticip	-5720
▁fulfill	-5721
▁monitor	-5722
▁rebuild	-5723
▁reconst	-5724
▁section	-5725
▁laughing	-5726
▁reported	-5727
▁predictions	-5728
▁instructions	-5729
▁entertainment	-5730
▁transportation	-5731
abil	-5732
asive	-5733
▁alph	-5734
▁bicy	-5735
▁calc	-5736
▁leap	-5737
usions	-5738
▁males	-5739
▁analog	-5740
▁orange	-5741
▁stands	-5742
▁cheaper	-5743
▁fortune	-5744
▁magical	-5745
▁michael	-5746
▁pacific	-5747
▁paradox	-5748
▁prosper	-5749
▁winning	-5750
▁compound	-5751
▁dolphins	-5752
▁magnetic	-5753
▁presence	-5754
▁frequency	-5755
▁gentlemen	-5756
▁capitalism	-5757
▁correspond	-5758
▁strategies	-5759
▁explanation	-5760
▁universities	-5761
▁automatically	-5762
▁interestingly	-5763
ca	-5764
osen	-5765
▁dot	-5766
▁tex	-5767
ember	-5768
▁migr	-5769
▁stan	-5770
▁tent	-5771
▁trag	-5772
▁vari	-5773
phones	-5774
▁ignor	-5775
▁laser	-5776
▁likes	-5777
▁phase	-5778
▁scott	-5779
▁behave	-5780
▁whales	-5781
▁worker	-5782
▁angeles	-5783
▁deserve	-5784
▁disturb	-5785
▁eastern	-5786
▁muslims	-5787
▁equation	-5788
▁football	-5789
▁footprint	-5790
▁newspaper	-5791
▁nutrition	-5792
▁spiritual	-5793
▁collecting	-5794
▁chimpanzees	-5795
▁entrepreneur	-5796
ls	-5797
oma	-5798
uff	-5799
▁ts	-5800
▁der	-5801
▁pul	-5802
archy	-5803
isons	-5804
iters	-5805
▁beer	-5806
▁cath	-5807
▁excl	-5808
▁golf	-5809
▁guns	-5810
▁pace	-5811
▁pand	-5812
arters	-5813
▁holds	-5814
▁marry	-5815
▁plans	-5816
▁purch	-5817
▁sacri	-5818
▁score	-5819
▁whist	-5820
▁interf	-5821
▁invite	-5822
▁powers	-5823
aneously	-5824
▁letting	-5825
▁officer	-5826
▁passing	-5827
▁baseball	-5828
▁creature	-5829
▁measured	-5830
▁recorded	-5831
▁vehicles	-5832
▁apartment	-5833
▁destroyed	-5834
▁september	-5835
▁parliament	-5836
▁populations	-5837
ato	-5838
gos	-5839
ihad	-5840
ille	-5841
rect	-5842
wich	-5843
▁alb	-5844
▁cas	-5845
▁doz	-5846
▁fan	-5847
▁les	-5848
▁meg	-5849
▁phd	-5850
▁ros	-5851
iform	-5852
while	-5853
▁1970	-5854
▁2007	-5855
▁cute	-5856
▁dict	-5857
▁jeff	-5858
▁summ	-5859
▁aband	-5860
▁chaos	-5861
▁disag	-5862
▁falls	-5863
▁grain	-5864
▁jihad	-5865
▁roots	-5866
▁skept	-5867
▁views	-5868
▁devast	-5869
▁inject	-5870
▁locked	-5871
▁sacrif	-5872
▁virgin	-5873
▁afterno	-5874
▁anxiety	-5875
▁couples	-5876
▁divided	-5877
▁happier	-5878
▁samples	-5879
▁scratch	-5880
▁stretch	-5881
▁achieved	-5882
▁globally	-5883
▁official	-5884
▁organize	-5885
▁traveled	-5886
ura	-5887
icon	-5888
ifer	-5889
omas	-5890
▁dow	-5891
▁spr	-5892
cence	-5893
cohol	-5894
iance	-5895
lines	-5896
using	-5897
▁acid	-5898
▁cord	-5899
▁dece	-5900
▁flor	-5901
▁obes	-5902
▁salt	-5903
▁dirty	-5904
▁embed	-5905
▁hello	-5906
▁loves	-5907
▁reput	-5908
▁texas	-5909
▁enable	-5910
▁nurses	-5911
▁proced	-5912
▁robert	-5913
▁twenty	-5914
▁alcohol	-5915
▁entered	-5916
▁habitat	-5917
▁poorest	-5918
▁savings	-5919
▁tragedy	-5920
▁wikiped	-5921
▁tracking	-5922
▁architects	-5923
▁fascinated	-5924
▁improvement	-5925
▁interactions	-5926
bra	-5927
ida	-5928
tes	-5929
bage	-5930
iled	-5931
udes	-5932
uous	-5933
▁ate	-5934
▁dys	-5935
▁gro	-5936
▁sac	-5937
acing	-5938
belie	-5939
▁1990	-5940
▁coin	-5941
▁ethn	-5942
▁maps	-5943
▁matt	-5944
▁meal	-5945
▁dense	-5946
▁humor	-5947
▁theme	-5948
▁martin	-5949
▁phrase	-5950
▁robust	-5951
▁stable	-5952
▁string	-5953
▁trauma	-5954
▁careful	-5955
▁concert	-5956
▁density	-5957
▁dignity	-5958
▁essence	-5959
▁lecture	-5960
▁mindset	-5961
▁obesity	-5962
▁pointed	-5963
▁prescri	-5964
▁speaker	-5965
▁collapse	-5966
▁contains	-5967
▁hormones	-5968
▁judgment	-5969
▁abilities	-5970
▁continued	-5971
▁permanent	-5972
▁accessible	-5973
▁hypothesis	-5974
▁ridiculous	-5975
▁instruments	-5976
ran	-5977
case	-5978
▁gig	-5979
▁mim	-5980
▁unh	-5981
agger	-5982
otech	-5983
sters	-5984
▁adam	-5985
▁brut	-5986
▁hire	-5987
▁odds	-5988
▁rice	-5989
▁soap	-5990
▁gonna	-5991
illance	-5992
▁borrow	-5993
▁dozens	-5994
▁establ	-5995
▁fertil	-5996
▁perpet	-5997
▁pocket	-5998
▁pushed	-5999
▁talent	-6000
▁thrown	-6001
▁airport	-6002
connected	-6003
▁instinct	-6004
▁textbook	-6005
▁diagnosed	-6006
▁implement	-6007
▁insurance	-6008
▁mechanics	-6009
▁teenagers	-6010
▁wikipedia	-6011
▁mysterious	-6012
▁resilience	-6013
▁volunteers	-6014
▁partnership	-6015
▁personality	-6016
▁underground	-6017
▁agricultural	-6018
au	-6019
ov	-6020
itz	-6021
ket	-6022
ota	-6023
vey	-6024
▁pi	-6025
alty	-6026
anta	-6027
allow	-6028
angle	-6029
▁asks	-6030
▁bars	-6031
▁beet	-6032
▁earn	-6033
▁gang	-6034
▁glad	-6035
▁mush	-6036
▁align	-6037
▁chest	-6038
▁craft	-6039
▁jelly	-6040
▁paras	-6041
▁persu	-6042
▁stops	-6043
▁usual	-6044
▁addict	-6045
▁adding	-6046
▁chocol	-6047
▁explos	-6048
▁frozen	-6049
▁loving	-6050
▁silent	-6051
▁collaps	-6052
▁initial	-6053
▁miracle	-6054
▁silicon	-6055
▁unbelie	-6056
▁dialogue	-6057
▁figuring	-6058
▁stranger	-6059
ologically	-6060
▁announced	-6061
▁exploring	-6062
▁practices	-6063
▁reduction	-6064
▁telephone	-6065
▁contribute	-6066
▁determined	-6067
▁industries	-6068
▁surveillance	-6069
agn	-6070
rary	-6071
rous	-6072
ture	-6073
▁bob	-6074
▁ceo	-6075
▁hen	-6076
▁reh	-6077
▁sar	-6078
▁clip	-6079
▁drag	-6080
▁erad	-6081
▁hier	-6082
▁laid	-6083
▁wand	-6084
arctic	-6085
iatric	-6086
lessly	-6087
mingly	-6088
▁conce	-6089
▁fears	-6090
▁grace	-6091
▁manif	-6092
ughters	-6093
▁chosen	-6094
▁commod	-6095
▁conven	-6096
▁diabet	-6097
▁excell	-6098
▁hearts	-6099
▁solved	-6100
▁thirds	-6101
▁appears	-6102
▁autonom	-6103
▁exhaust	-6104
▁license	-6105
▁reduced	-6106
▁attitude	-6107
▁sandwich	-6108
▁sunlight	-6109
▁nonprofit	-6110
▁paintings	-6111
▁selection	-6112
▁boundaries	-6113
▁identified	-6114
▁protecting	-6115
▁regardless	-6116
▁journalists	-6117
▁programming	-6118
▁communications	-6119
bly	-6120
col	-6121
lies	-6122
phas	-6123
▁cab	-6124
▁enh	-6125
▁jes	-6126
▁obl	-6127
▁wed	-6128
lying	-6129
▁cave	-6130
▁gest	-6131
▁manh	-6132
▁quit	-6133
arency	-6134
▁bored	-6135
▁foods	-6136
▁panel	-6137
ressive	-6138
uration	-6139
▁butter	-6140
▁ending	-6141
▁legacy	-6142
▁panels	-6143
▁circuit	-6144
▁helpful	-6145
▁january	-6146
▁powered	-6147
▁bathroom	-6148
▁included	-6149
▁includes	-6150
▁printing	-6151
▁sleeping	-6152
▁establish	-6153
▁hollywood	-6154
▁inspiring	-6155
▁precisely	-6156
▁religions	-6157
▁strangers	-6158
▁mechanisms	-6159
▁transparency	-6160
can	-6161
▁28	-6162
lets	-6163
nded	-6164
▁195	-6165
▁cats	-6166
▁gram	-6167
▁lets	-6168
▁peer	-6169
▁tube	-6170
▁wing	-6171
▁abund	-6172
▁drawn	-6173
▁fuels	-6174
▁inher	-6175
▁opens	-6176
▁tears	-6177
reshold	-6178
▁bubble	-6179
▁dating	-6180
▁ensure	-6181
▁output	-6182
▁council	-6183
▁granted	-6184
▁hanging	-6185
▁screens	-6186
▁educated	-6187
▁shooting	-6188
▁versions	-6189
▁villages	-6190
rimination	-6191
▁afternoon	-6192
▁broadcast	-6193
▁component	-6194
▁elections	-6195
▁operation	-6196
▁prisoners	-6197
▁threshold	-6198
▁virtually	-6199
▁volunteer	-6200
▁economists	-6201
▁frustrated	-6202
▁researcher	-6203
▁treatments	-6204
gue	-6205
mal	-6206
▁33	-6207
▁191	-6208
▁bak	-6209
▁gla	-6210
▁sel	-6211
▁twe	-6212
rates	-6213
▁budd	-6214
▁flew	-6215
▁sink	-6216
▁trop	-6217
▁wise	-6218
▁banks	-6219
▁drove	-6220
▁evalu	-6221
▁relax	-6222
▁reson	-6223
▁spots	-6224
▁titan	-6225
▁tribe	-6226
▁adoles	-6227
▁buried	-6228
▁profit	-6229
▁silver	-6230
▁amongst	-6231
▁fastest	-6232
▁interse	-6233
▁muscles	-6234
▁picking	-6235
▁suspect	-6236
▁answered	-6237
▁paradigm	-6238
▁recovery	-6239
▁theories	-6240
▁adventure	-6241
▁daughters	-6242
▁intuitive	-6243
▁realizing	-6244
▁supported	-6245
▁afterwards	-6246
▁motivation	-6247
▁photography	-6248
▁globalization	-6249
gra	-6250
iel	-6251
ums	-6252
ague	-6253
lete	-6254
vest	-6255
well	-6256
▁fib	-6257
▁tel	-6258
▁1950	-6259
▁crew	-6260
▁igno	-6261
▁item	-6262
▁mice	-6263
▁hemis	-6264
▁prime	-6265
▁route	-6266
▁utter	-6267
▁fabric	-6268
▁farmer	-6269
▁secure	-6270
▁settle	-6271
▁thomas	-6272
▁enforce	-6273
▁females	-6274
▁reports	-6275
▁darkness	-6276
▁focusing	-6277
▁disorders	-6278
▁household	-6279
▁instrument	-6280
▁mechanical	-6281
▁medication	-6282
▁assumptions	-6283
▁ingredients	-6284
▁interacting	-6285
vis	-6286
amin	-6287
life	-6288
▁boo	-6289
▁ric	-6290
▁tea	-6291
inder	-6292
stand	-6293
▁arth	-6294
▁bags	-6295
▁cock	-6296
▁dere	-6297
▁flip	-6298
▁furn	-6299
▁kiss	-6300
▁pour	-6301
▁rail	-6302
▁tear	-6303
▁till	-6304
▁unem	-6305
▁aster	-6306
▁finds	-6307
▁mixed	-6308
▁confir	-6309
▁excuse	-6310
▁prices	-6311
▁tribes	-6312
▁uganda	-6313
ogenesis	-6314
▁chapter	-6315
▁distant	-6316
▁enterpr	-6317
▁islamic	-6318
▁promote	-6319
▁pyramid	-6320
▁serving	-6321
▁dominant	-6322
▁elephant	-6323
▁informed	-6324
▁reducing	-6325
▁chocolate	-6326
▁infection	-6327
▁intuition	-6328
▁prediction	-6329
▁manufacture	-6330
▁neighborhoods	-6331
▁vulnerability	-6332
uk	-6333
wl	-6334
aze	-6335
ham	-6336
aret	-6337
fall	-6338
phor	-6339
roll	-6340
▁nsa	-6341
▁upd	-6342
amine	-6343
bered	-6344
▁bike	-6345
▁club	-6346
▁lean	-6347
▁trig	-6348
vation	-6349
▁algae	-6350
▁downt	-6351
▁fired	-6352
▁matri	-6353
▁monit	-6354
▁peter	-6355
▁seats	-6356
▁tends	-6357
▁tower	-6358
▁veter	-6359
▁hunger	-6360
▁mainly	-6361
▁augment	-6362
▁failing	-6363
▁hardest	-6364
▁percept	-6365
▁appeared	-6366
▁counting	-6367
▁diabetes	-6368
▁external	-6369
▁scenario	-6370
▁addiction	-6371
▁dedicated	-6372
▁elsewhere	-6373
▁sentences	-6374
▁disability	-6375
▁disappoint	-6376
▁inevitable	-6377
▁originally	-6378
▁transparent	-6379
▁surprisingly	-6380
gi	-6381
oe	-6382
uel	-6383
uls	-6384
▁ms	-6385
▁tu	-6386
erge	-6387
iday	-6388
osal	-6389
▁gab	-6390
▁luc	-6391
▁sup	-6392
▁wol	-6393
▁2011	-6394
▁bron	-6395
▁dipl	-6396
▁fool	-6397
▁knee	-6398
▁mood	-6399
▁neck	-6400
▁pile	-6401
alized	-6402
imeter	-6403
▁angle	-6404
▁empow	-6405
▁legis	-6406
▁sport	-6407
through	-6408
▁cheers	-6409
▁client	-6410
▁funded	-6411
▁insist	-6412
▁landed	-6413
▁latest	-6414
▁laughs	-6415
▁neuron	-6416
▁orphan	-6417
▁paraly	-6418
▁anatomy	-6419
▁farming	-6420
▁russian	-6421
▁sisters	-6422
▁spectac	-6423
▁staying	-6424
▁visited	-6425
▁atlantic	-6426
▁comments	-6427
▁concerns	-6428
▁database	-6429
▁honestly	-6430
▁involves	-6431
▁lighting	-6432
▁manifest	-6433
▁unemploy	-6434
▁antarctic	-6435
▁depressed	-6436
▁nutrients	-6437
▁recording	-6438
▁similarly	-6439
▁grandchild	-6440
▁hemisphere	-6441
▁reputation	-6442
▁application	-6443
▁represented	-6444
▁breakthrough	-6445
me	-6446
ene	-6447
omb	-6448
nels	-6449
otes	-6450
over	-6451
▁911	-6452
▁bot	-6453
▁hat	-6454
▁rul	-6455
aming	-6456
eters	-6457
flies	-6458
▁bene	-6459
▁buff	-6460
▁caps	-6461
▁gath	-6462
▁homo	-6463
▁rent	-6464
makers	-6465
▁aspir	-6466
▁balls	-6467
▁blank	-6468
▁mayor	-6469
▁pharm	-6470
▁shake	-6471
▁sixth	-6472
▁squee	-6473
▁vital	-6474
▁yield	-6475
▁cheese	-6476
▁hardly	-6477
▁scales	-6478
▁shadow	-6479
▁adopted	-6480
▁contrad	-6481
▁painted	-6482
▁pulling	-6483
▁recover	-6484
▁reverse	-6485
▁stomach	-6486
▁attached	-6487
▁believes	-6488
▁mushroom	-6489
▁anonymous	-6490
▁gradually	-6491
▁investors	-6492
▁commission	-6493
▁directions	-6494
▁punishment	-6495
▁advertising	-6496
▁transformed	-6497
▁unconscious	-6498
▁humanitarian	-6499
▁discrimination	-6500
▁–	-6501
ndr	-6502
vin	-6503
apes	-6504
cont	-6505
down	-6506
hand	-6507
illy	-6508
mers	-6509
pled	-6510
▁bin	-6511
▁cig	-6512
▁lux	-6513
ckets	-6514
going	-6515
iture	-6516
under	-6517
▁boom	-6518
▁bull	-6519
▁lord	-6520
▁tied	-6521
▁actor	-6522
▁fault	-6523
▁incor	-6524
▁nobel	-6525
▁schiz	-6526
▁editor	-6527
▁emphas	-6528
▁execut	-6529
▁heroes	-6530
▁killer	-6531
▁lawyer	-6532
▁makers	-6533
▁reveal	-6534
▁slides	-6535
▁smooth	-6536
▁voting	-6537
▁aggress	-6538
▁bottles	-6539
▁charles	-6540
▁chronic	-6541
▁consume	-6542
▁fathers	-6543
▁luckily	-6544
▁publish	-6545
▁perceive	-6546
▁strongly	-6547
▁expertise	-6548
▁forgotten	-6549
▁ignorance	-6550
▁predicted	-6551
▁reference	-6552
▁suggested	-6553
▁accomplish	-6554
▁threatened	-6555
▁transplant	-6556
▁photographer	-6557
▁representation	-6558
cr	-6559
de	-6560
cal	-6561
omp	-6562
ora	-6563
toc	-6564
▁95	-6565
umes	-6566
▁awk	-6567
▁nin	-6568
▁wid	-6569
attan	-6570
enger	-6571
ingly	-6572
itate	-6573
tocin	-6574
▁2050	-6575
▁beij	-6576
▁chip	-6577
▁mold	-6578
▁pump	-6579
▁vacu	-6580
itudes	-6581
ivered	-6582
ophren	-6583
▁badly	-6584
▁drill	-6585
▁elder	-6586
▁joint	-6587
▁legit	-6588
▁links	-6589
▁owned	-6590
▁physi	-6591
▁realm	-6592
anthrop	-6593
▁actors	-6594
▁arrive	-6595
▁attrib	-6596
▁county	-6597
▁digest	-6598
▁emerge	-6599
▁entrop	-6600
▁headed	-6601
▁awkward	-6602
▁bedroom	-6603
▁comprom	-6604
▁deliber	-6605
▁drivers	-6606
▁manager	-6607
▁minimum	-6608
▁orchest	-6609
▁parties	-6610
▁prepare	-6611
▁threats	-6612
▁unclear	-6613
▁asteroid	-6614
▁conclude	-6615
▁disabled	-6616
▁download	-6617
▁embedded	-6618
▁oxytocin	-6619
▁proposed	-6620
▁reminded	-6621
▁shifting	-6622
▁vertical	-6623
▁delivered	-6624
▁exception	-6625
▁manhattan	-6626
▁perceived	-6627
▁positions	-6628
▁resistant	-6629
forestation	-6630
▁additional	-6631
▁integrated	-6632
▁optimistic	-6633
▁astonishing	-6634
▁schizophren	-6635
▁uncertainty	-6636
▁grandchildren	-6637
ds	-6638
hal	-6639
ocr	-6640
osh	-6641
pea	-6642
rus	-6643
agen	-6644
fast	-6645
rant	-6646
uman	-6647
alian	-6648
elled	-6649
oster	-6650
▁dump	-6651
▁enth	-6652
▁flaw	-6653
▁glow	-6654
▁phos	-6655
▁pink	-6656
▁tank	-6657
anging	-6658
urable	-6659
▁depri	-6660
▁pause	-6661
▁sperm	-6662
▁stake	-6663
▁willi	-6664
▁wired	-6665
astroph	-6666
▁howard	-6667
▁partly	-6668
▁pursue	-6669
▁served	-6670
▁arrange	-6671
▁diction	-6672
▁dolphin	-6673
▁opposed	-6674
▁persist	-6675
▁flexible	-6676
▁invested	-6677
▁conducted	-6678
▁continues	-6679
▁dependent	-6680
▁documents	-6681
▁healthier	-6682
▁motivated	-6683
▁responses	-6684
▁behavioral	-6685
▁difficulty	-6686
▁concentration	-6687
▁characteristics	-6688
hm	-6689
eds	-6690
etn	-6691
ira	-6692
odi	-6693
reh	-6694
lers	-6695
ully	-6696
▁250	-6697
▁800	-6698
▁bol	-6699
▁eve	-6700
▁lou	-6701
▁pad	-6702
ribly	-6703
think	-6704
▁diam	-6705
▁flav	-6706
▁limb	-6707
▁outs	-6708
▁soup	-6709
▁glaci	-6710
▁intim	-6711
▁owner	-6712
▁screw	-6713
▁skull	-6714
▁trash	-6715
▁vietn	-6716
▁appeal	-6717
▁campus	-6718
▁curren	-6719
▁infant	-6720
▁safely	-6721
▁spoken	-6722
▁stimul	-6723
▁tricks	-6724
▁trucks	-6725
▁unable	-6726
▁assault	-6727
▁involve	-6728
▁warning	-6729
▁accounts	-6730
▁replaced	-6731
▁suffered	-6732
▁believing	-6733
▁conflicts	-6734
▁microscop	-6735
▁physicist	-6736
▁separated	-6737
▁supermark	-6738
▁terrorist	-6739
▁assumption	-6740
▁historical	-6741
▁rainforest	-6742
▁controlling	-6743
▁interactive	-6744
▁conservative	-6745
▁conventional	-6746
edy	-6747
pal	-6748
rol	-6749
izer	-6750
▁jam	-6751
▁pla	-6752
▁rit	-6753
▁wet	-6754
ensus	-6755
umble	-6756
worth	-6757
▁2012	-6758
▁dism	-6759
▁evol	-6760
▁hipp	-6761
▁pupp	-6762
▁derek	-6763
▁lungs	-6764
▁naked	-6765
▁reefs	-6766
▁satur	-6767
▁syndr	-6768
▁threw	-6769
▁weeke	-6770
▁basket	-6771
▁binary	-6772
▁capita	-6773
▁iphone	-6774
▁microb	-6775
▁recall	-6776
▁retire	-6777
▁senior	-6778
▁stages	-6779
▁anthrop	-6780
▁besides	-6781
▁diagram	-6782
▁florida	-6783
▁logical	-6784
▁revenue	-6785
▁smoking	-6786
▁trigger	-6787
▁astronom	-6788
▁captured	-6789
▁controls	-6790
▁decrease	-6791
▁downtown	-6792
▁dynamics	-6793
▁inherent	-6794
▁narrator	-6795
▁sciences	-6796
▁shopping	-6797
▁breakfast	-6798
▁investing	-6799
▁ownership	-6800
▁workforce	-6801
▁affordable	-6802
▁attractive	-6803
▁commitment	-6804
▁suggesting	-6805
▁established	-6806
vi	-6807
azz	-6808
cel	-6809
gun	-6810
usi	-6811
war	-6812
▁nu	-6813
▁rw	-6814
ails	-6815
grad	-6816
keep	-6817
▁cod	-6818
inson	-6819
tical	-6820
▁2006	-6821
▁2015	-6822
▁batt	-6823
▁bump	-6824
▁rose	-6825
▁sons	-6826
▁sulf	-6827
parent	-6828
▁armed	-6829
▁carol	-6830
▁fancy	-6831
▁lifes	-6832
▁opera	-6833
▁spark	-6834
▁trail	-6835
▁defend	-6836
▁jewish	-6837
▁marvel	-6838
▁oldest	-6839
▁poison	-6840
▁tragic	-6841
▁emerged	-6842
▁observe	-6843
▁prisons	-6844
▁restore	-6845
▁sensory	-6846
▁facility	-6847
▁genetics	-6848
▁hardware	-6849
▁innocent	-6850
▁navigate	-6851
▁vaccines	-6852
▁gathering	-6853
▁stereotyp	-6854
▁catastroph	-6855
▁microscope	-6856
▁demonstrate	-6857
▁desperately	-6858
▁disappeared	-6859
▁discoveries	-6860
▁corporations	-6861
▁experimental	-6862
▁significantly	-6863
hop	-6864
▁85	-6865
▁mt	-6866
▁uh	-6867
away	-6868
ilty	-6869
itar	-6870
ulum	-6871
▁700	-6872
▁jul	-6873
▁tag	-6874
ching	-6875
▁4000	-6876
▁bond	-6877
▁drew	-6878
▁file	-6879
▁fits	-6880
▁ford	-6881
▁gods	-6882
▁sits	-6883
apping	-6884
erable	-6885
▁burst	-6886
▁flour	-6887
▁gases	-6888
▁henry	-6889
▁telom	-6890
▁wings	-6891
faction	-6892
otherap	-6893
▁fought	-6894
▁golden	-6895
▁immigr	-6896
▁lowest	-6897
▁poster	-6898
▁sevent	-6899
▁stroke	-6900
▁subtle	-6901
▁vacuum	-6902
▁courses	-6903
▁delight	-6904
▁designs	-6905
▁encount	-6906
▁instant	-6907
▁robotic	-6908
▁wheelch	-6909
▁agencies	-6910
▁choosing	-6911
▁distingu	-6912
▁distract	-6913
▁estimate	-6914
▁extended	-6915
▁measures	-6916
▁particle	-6917
▁reliable	-6918
▁secondly	-6919
▁syndrome	-6920
▁astronaut	-6921
▁exhibition	-6922
▁collectively	-6923
▁successfully	-6924
era	-6925
iju	-6926
gers	-6927
idel	-6928
izar	-6929
oped	-6930
rian	-6931
road	-6932
▁vit	-6933
erved	-6934
itage	-6935
otion	-6936
▁bind	-6937
▁enzy	-6938
▁epis	-6939
▁genu	-6940
▁mail	-6941
▁tang	-6942
▁turb	-6943
ijuana	-6944
▁20000	-6945
▁50000	-6946
▁backy	-6947
▁elite	-6948
▁excit	-6949
▁expon	-6950
▁flows	-6951
▁genoc	-6952
▁queen	-6953
▁spray	-6954
▁august	-6955
▁disney	-6956
▁heaven	-6957
▁injury	-6958
▁rarely	-6959
▁rhythm	-6960
▁sacred	-6961
▁scores	-6962
▁shrink	-6963
▁sticks	-6964
▁tackle	-6965
▁colored	-6966
▁compete	-6967
▁elected	-6968
▁founded	-6969
▁glasses	-6970
▁shelter	-6971
▁touched	-6972
▁articles	-6973
▁division	-6974
▁improved	-6975
▁preserve	-6976
▁scholars	-6977
▁activists	-6978
▁empowered	-6979
▁interrupt	-6980
▁marijuana	-6981
▁primarily	-6982
▁autonomous	-6983
▁terrifying	-6984
▁innovations	-6985
▁contemporary	-6986
▁photographed	-6987
▁deforestation	-6988
ek	-6989
wr	-6990
pes	-6991
rey	-6992
▁55	-6993
▁dy	-6994
▁ip	-6995
▁os	-6996
gent	-6997
icop	-6998
rill	-6999
▁fet	-7000
▁jar	-7001
▁mri	-7002
▁nom	-7003
erate	-7004
iated	-7005
▁disg	-7006
▁mild	-7007
▁thus	-7008
▁tone	-7009
▁tsun	-7010
▁wage	-7011
▁bonds	-7012
▁cable	-7013
▁incar	-7014
▁inhab	-7015
▁parks	-7016
▁pilot	-7017
▁punch	-7018
▁roles	-7019
▁sharp	-7020
▁shirt	-7021
▁assess	-7022
▁guilty	-7023
▁jumped	-7024
▁matrix	-7025
▁metric	-7026
▁strike	-7027
▁theore	-7028
▁turkey	-7029
▁beijing	-7030
▁ethical	-7031
▁ignored	-7032
▁inspire	-7033
▁spanish	-7034
▁traject	-7035
▁uniform	-7036
▁customer	-7037
▁listened	-7038
▁officers	-7039
▁randomly	-7040
▁rejected	-7041
▁stanford	-7042
▁survived	-7043
▁christian	-7044
▁diagnosis	-7045
▁elephants	-7046
▁excitement	-7047
▁explaining	-7048
▁functional	-7049
▁incentives	-7050
▁authorities	-7051
▁constructed	-7052
▁enforcement	-7053
▁genetically	-7054
▁intervention	-7055
▁storytelling	-7056
▁professionals	-7057
asp	-7058
car	-7059
▁29	-7060
▁ol	-7061
ardo	-7062
asty	-7063
uity	-7064
west	-7065
▁ner	-7066
▁nit	-7067
▁sin	-7068
ained	-7069
break	-7070
ocell	-7071
opard	-7072
orted	-7073
osing	-7074
stage	-7075
ville	-7076
▁calm	-7077
▁cham	-7078
▁dive	-7079
▁heal	-7080
▁labs	-7081
▁leon	-7082
▁neat	-7083
▁nest	-7084
▁offs	-7085
▁rape	-7086
▁tatt	-7087
▁whis	-7088
izarre	-7089
▁annoy	-7090
▁biodi	-7091
▁greek	-7092
▁schem	-7093
▁sheep	-7094
▁sheet	-7095
▁silly	-7096
▁smith	-7097
▁syria	-7098
▁curric	-7099
▁geomet	-7100
▁guitar	-7101
▁lonely	-7102
▁waters	-7103
▁weapon	-7104
▁bicycle	-7105
▁bizarre	-7106
▁enthusi	-7107
▁forming	-7108
▁fragile	-7109
▁genuine	-7110
▁helicop	-7111
▁hitting	-7112
▁immense	-7113
▁landing	-7114
▁neutral	-7115
▁athletes	-7116
▁calories	-7117
▁entering	-7118
▁fraction	-7119
▁heritage	-7120
▁morality	-7121
▁precious	-7122
▁teenager	-7123
▁economist	-7124
▁instantly	-7125
▁reactions	-7126
▁sexuality	-7127
▁controvers	-7128
▁profoundly	-7129
▁remembered	-7130
▁grandparent	-7131
▁observation	-7132
▁philanthrop	-7133
▁spectacular	-7134
▁unbelievable	-7135
ani	-7136
ecd	-7137
eres	-7138
list	-7139
ober	-7140
▁bug	-7141
▁dop	-7142
▁hip	-7143
▁roy	-7144
▁spa	-7145
▁tie	-7146
atter	-7147
thood	-7148
▁aunt	-7149
▁barb	-7150
▁blah	-7151
▁chim	-7152
▁damn	-7153
▁gaps	-7154
▁gate	-7155
▁mate	-7156
▁mike	-7157
▁rome	-7158
▁sett	-7159
liness	-7160
teries	-7161
umines	-7162
▁arrow	-7163
▁bears	-7164
▁cliff	-7165
▁exped	-7166
▁fiber	-7167
▁liver	-7168
▁minus	-7169
▁patch	-7170
▁sched	-7171
▁sized	-7172
▁tempt	-7173
▁apolog	-7174
▁burned	-7175
▁contra	-7176
▁endang	-7177
▁harass	-7178
▁mentor	-7179
▁occurs	-7180
▁prosth	-7181
▁unhapp	-7182
▁yorker	-7183
▁beneath	-7184
▁convert	-7185
▁earthqu	-7186
▁garbage	-7187
▁hunting	-7188
▁october	-7189
▁request	-7190
▁writers	-7191
▁africans	-7192
▁crossing	-7193
▁dopamine	-7194
▁failures	-7195
▁phosphor	-7196
▁prosecut	-7197
▁purposes	-7198
▁vacation	-7199
▁cooperate	-7200
▁highlight	-7201
▁aggressive	-7202
▁compelling	-7203
▁continuing	-7204
▁extinction	-7205
▁reasonable	-7206
▁supporting	-7207
▁independence	-7208
▁transmission	-7209
▁accountability	-7210
▁interpretation	-7211
aa	-7212
kin	-7213
oll	-7214
udd	-7215
ups	-7216
▁tk	-7217
igma	-7218
▁jon	-7219
▁sew	-7220
adays	-7221
anged	-7222
icial	-7223
organ	-7224
rones	-7225
▁anti	-7226
▁bowl	-7227
▁cows	-7228
▁holy	-7229
▁irre	-7230
▁leaf	-7231
▁melt	-7232
▁pigs	-7233
▁zeal	-7234
icient	-7235
▁agent	-7236
▁array	-7237
▁panic	-7238
▁safer	-7239
▁sauce	-7240
▁trigg	-7241
igenous	-7242
▁breaks	-7243
▁caring	-7244
▁diplom	-7245
▁pedest	-7246
▁regime	-7247
▁rubber	-7248
▁stores	-7249
▁upside	-7250
▁barrier	-7251
▁ceiling	-7252
▁hormone	-7253
▁printed	-7254
▁shocked	-7255
▁branches	-7256
▁nowadays	-7257
▁restrict	-7258
▁robotics	-7259
▁surfaces	-7260
▁symmetry	-7261
▁dominated	-7262
▁furniture	-7263
▁graduated	-7264
▁improving	-7265
▁magnitude	-7266
▁obstacles	-7267
▁qualities	-7268
▁receiving	-7269
▁remaining	-7270
▁screaming	-7271
▁workplace	-7272
▁frequently	-7273
▁indigenous	-7274
▁mainstream	-7275
▁phosphorus	-7276
▁traditions	-7277
▁acknowledge	-7278
▁alternatives	-7279
▁satisfaction	-7280
gr	-7281
hy	-7282
oh	-7283
irs	-7284
lyn	-7285
opy	-7286
ione	-7287
leep	-7288
▁coc	-7289
▁fox	-7290
▁ink	-7291
▁jup	-7292
▁ups	-7293
clock	-7294
esign	-7295
lades	-7296
liest	-7297
▁2005	-7298
▁alle	-7299
▁belt	-7300
▁bold	-7301
▁bure	-7302
▁butt	-7303
▁crop	-7304
▁jord	-7305
▁jung	-7306
▁palm	-7307
▁pron	-7308
▁alarm	-7309
▁alter	-7310
▁comet	-7311
▁diver	-7312
▁knife	-7313
▁lions	-7314
▁nurse	-7315
▁phant	-7316
▁risky	-7317
▁spont	-7318
▁tooth	-7319
▁trump	-7320
▁venus	-7321
▁zones	-7322
▁albert	-7323
▁bullet	-7324
▁crimes	-7325
▁domain	-7326
▁estate	-7327
▁linear	-7328
▁packed	-7329
▁rescue	-7330
▁simult	-7331
▁tattoo	-7332
▁widely	-7333
otherapy	-7334
▁disgust	-7335
▁imaging	-7336
▁session	-7337
▁staring	-7338
▁swallow	-7339
▁teenage	-7340
▁barriers	-7341
▁channels	-7342
▁exposure	-7343
▁accidents	-7344
▁banglades	-7345
▁detection	-7346
▁eliminate	-7347
▁factories	-7348
▁guarantee	-7349
▁initially	-7350
▁primitive	-7351
▁wandering	-7352
▁assistance	-7353
▁candidates	-7354
▁comparison	-7355
▁endangered	-7356
▁engineered	-7357
▁geographic	-7358
▁identities	-7359
▁operations	-7360
▁structural	-7361
▁underlying	-7362
▁vegetables	-7363
▁computation	-7364
ev	-7365
iac	-7366
mes	-7367
sey	-7368
zan	-7369
agon	-7370
eday	-7371
▁aer	-7372
▁wra	-7373
inent	-7374
inter	-7375
▁2004	-7376
▁adul	-7377
▁dose	-7378
▁grat	-7379
▁hind	-7380
▁lion	-7381
iences	-7382
▁asian	-7383
▁cabin	-7384
▁delay	-7385
▁divor	-7386
▁edges	-7387
▁entry	-7388
▁italy	-7389
▁jesus	-7390
▁nerve	-7391
▁regen	-7392
▁revel	-7393
▁stair	-7394
▁thumb	-7395
▁decent	-7396
▁immort	-7397
▁volcan	-7398
▁analyze	-7399
▁beating	-7400
▁compreh	-7401
▁harmony	-7402
▁horizon	-7403
▁multipl	-7404
▁pursuit	-7405
▁someday	-7406
▁spreads	-7407
▁statist	-7408
▁surgeon	-7409
▁transge	-7410
▁useless	-7411
▁wealthy	-7412
▁activist	-7413
▁arrested	-7414
▁delivery	-7415
▁fabulous	-7416
▁gathered	-7417
▁returned	-7418
▁stopping	-7419
▁wildlife	-7420
▁wireless	-7421
▁animation	-7422
▁calculate	-7423
▁glamorous	-7424
▁jellyfish	-7425
▁meanwhile	-7426
▁survivors	-7427
▁curriculum	-7428
▁ecological	-7429
▁reflection	-7430
▁constraints	-7431
▁remembering	-7432
▁translation	-7433
▁biodiversity	-7434
▁constitution	-7435
▁occasionally	-7436
▁collaborative	-7437
ado	-7438
bod	-7439
ela	-7440
isy	-7441
zes	-7442
▁38	-7443
▁kb	-7444
▁oz	-7445
▁ty	-7446
apor	-7447
crib	-7448
ilem	-7449
vial	-7450
▁lap	-7451
▁lit	-7452
▁sav	-7453
▁tes	-7454
field	-7455
oning	-7456
▁brid	-7457
▁cert	-7458
▁chop	-7459
▁dies	-7460
▁dumb	-7461
▁eleg	-7462
▁jose	-7463
▁pale	-7464
▁sail	-7465
▁stor	-7466
▁torn	-7467
papers	-7468
▁cruel	-7469
▁dilem	-7470
▁plain	-7471
▁stays	-7472
▁twist	-7473
▁winds	-7474
unction	-7475
▁annual	-7476
▁asleep	-7477
▁chains	-7478
▁chairs	-7479
▁denial	-7480
▁empire	-7481
▁grades	-7482
▁handed	-7483
▁norway	-7484
▁oclock	-7485
▁oxford	-7486
▁temple	-7487
▁tumors	-7488
▁academy	-7489
▁cigaret	-7490
▁closing	-7491
▁glamour	-7492
▁harmful	-7493
▁jupiter	-7494
▁profile	-7495
▁secrets	-7496
▁seeking	-7497
▁soldier	-7498
▁stepped	-7499
▁targets	-7500
▁dreaming	-7501
▁incarcer	-7502
▁insights	-7503
▁magnific	-7504
▁mobility	-7505
▁redesign	-7506
▁shipping	-7507
▁stations	-7508
▁acknowled	-7509
▁expanding	-7510
▁seemingly	-7511
▁terrified	-7512
▁antarctica	-7513
▁approaches	-7514
▁categories	-7515
▁challenged	-7516
▁describing	-7517
▁newspapers	-7518
▁physicians	-7519
▁spacecraft	-7520
▁emotionally	-7521
▁limitations	-7522
▁probability	-7523
▁reconstruct	-7524
▁compassionate	-7525
ss	-7526
ua	-7527
opl	-7528
udi	-7529
▁dc	-7530
icks	-7531
neys	-7532
▁120	-7533
▁ads	-7534
▁vel	-7535
athan	-7536
opath	-7537
oters	-7538
▁biol	-7539
▁ethi	-7540
▁hint	-7541
▁mode	-7542
▁nons	-7543
▁unle	-7544
esthes	-7545
▁arist	-7546
▁begun	-7547
▁blown	-7548
▁camps	-7549
▁crush	-7550
▁dutch	-7551
▁flags	-7552
▁shots	-7553
▁unpre	-7554
▁wheat	-7555
▁config	-7556
▁emails	-7557
▁errors	-7558
▁gravit	-7559
▁merely	-7560
▁nearby	-7561
▁pestic	-7562
▁pollen	-7563
▁proven	-7564
▁relief	-7565
▁richer	-7566
▁strict	-7567
▁thrive	-7568
▁adapted	-7569
▁balloon	-7570
▁briefly	-7571
▁corrupt	-7572
▁educate	-7573
▁entropy	-7574
▁italian	-7575
▁mankind	-7576
▁nucleus	-7577
▁phantom	-7578
▁profits	-7579
▁refused	-7580
▁reminds	-7581
▁currency	-7582
▁dropping	-7583
▁generous	-7584
▁intended	-7585
▁keyboard	-7586
▁sexually	-7587
▁stressed	-7588
▁terribly	-7589
▁completed	-7590
▁prototype	-7591
▁recycling	-7592
▁variation	-7593
▁appearance	-7594
▁initiative	-7595
▁proportion	-7596
▁immigration	-7597
▁surrounding	-7598
▁grandparents	-7599
▁psychologist	-7600
▁institutional	-7601
▁administration	-7602
▁mathematicians	-7603
alf	-7604
ria	-7605
ousy	-7606
rich	-7607
vity	-7608
▁pit	-7609
▁pod	-7610
▁rio	-7611
▁tub	-7612
▁unw	-7613
▁usa	-7614
ading	-7615
ashed	-7616
maker	-7617
ogram	-7618
otted	-7619
▁ampl	-7620
▁bust	-7621
▁clim	-7622
▁dung	-7623
▁filt	-7624
▁gulf	-7625
▁intr	-7626
▁jeal	-7627
▁outl	-7628
▁vary	-7629
▁wrap	-7630
active	-7631
▁aesth	-7632
▁pione	-7633
▁ratio	-7634
▁spell	-7635
▁steal	-7636
forward	-7637
inarily	-7638
itative	-7639
▁absorb	-7640
▁arthur	-7641
▁assets	-7642
▁bother	-7643
▁insane	-7644
▁intrig	-7645
▁livest	-7646
▁orders	-7647
▁raises	-7648
▁shakes	-7649
▁suprem	-7650
▁tempor	-7651
▁worthy	-7652
▁captain	-7653
▁closest	-7654
▁demands	-7655
▁formula	-7656
▁hopeful	-7657
▁lawyers	-7658
▁reserve	-7659
▁selfish	-7660
▁storage	-7661
▁tsunami	-7662
▁applying	-7663
▁assembly	-7664
▁consumed	-7665
▁contempl	-7666
▁contrary	-7667
▁democrat	-7668
▁managers	-7669
▁pointing	-7670
▁socially	-7671
▁attitudes	-7672
▁attracted	-7673
▁estimates	-7674
▁immediate	-7675
▁paralyzed	-7676
▁precision	-7677
▁pregnancy	-7678
▁radically	-7679
▁stability	-7680
▁strategic	-7681
▁biolumines	-7682
▁capability	-7683
▁ecosystems	-7684
▁enterprise	-7685
▁infections	-7686
▁monitoring	-7687
▁previously	-7688
▁beautifully	-7689
▁competitive	-7690
▁electronics	-7691
▁restaurants	-7692
▁psychologists	-7693
▁straightforward	-7694
bru	-7695
fly	-7696
gia	-7697
rot	-7698
▁eu	-7699
aine	-7700
ucks	-7701
umin	-7702
viet	-7703
▁dil	-7704
▁inn	-7705
▁kor	-7706
▁loo	-7707
▁ram	-7708
▁soc	-7709
▁via	-7710
arest	-7711
enses	-7712
ivers	-7713
▁2001	-7714
▁2003	-7715
▁beha	-7716
▁bend	-7717
▁buck	-7718
▁gand	-7719
▁hans	-7720
▁inex	-7721
▁radi	-7722
orious	-7723
otechn	-7724
▁dread	-7725
▁farms	-7726
▁funds	-7727
▁ingen	-7728
▁lands	-7729
▁louis	-7730
▁pride	-7731
▁revol	-7732
▁ships	-7733
▁spain	-7734
umented	-7735
▁agents	-7736
▁crowds	-7737
▁horrif	-7738
▁inevit	-7739
▁layers	-7740
▁magnet	-7741
▁manner	-7742
▁multip	-7743
▁murder	-7744
▁palest	-7745
▁soviet	-7746
▁speaks	-7747
▁traits	-7748
cedented	-7749
▁bubbles	-7750
▁careers	-7751
▁circles	-7752
▁clarity	-7753
▁convict	-7754
▁healing	-7755
▁inmates	-7756
▁saharan	-7757
▁scanner	-7758
▁shorter	-7759
▁symbols	-7760
▁covering	-7761
▁genocide	-7762
▁homeless	-7763
▁hopeless	-7764
▁olympics	-7765
▁promised	-7766
▁dimension	-7767
▁estimated	-7768
▁passenger	-7769
▁physician	-7770
▁statistic	-7771
▁chimpanzee	-7772
▁expectancy	-7773
▁impressive	-7774
▁prosperity	-7775
▁terrorists	-7776
▁interviewed	-7777
▁investigate	-7778
▁neuroscient	-7779
▁philosopher	-7780
▁personalized	-7781
▁unprecedented	-7782
mm	-7783
nh	-7784
ata	-7785
iro	-7786
rid	-7787
uts	-7788
▁ga	-7789
arsh	-7790
ette	-7791
imag	-7792
oded	-7793
olic	-7794
▁cad	-7795
▁rap	-7796
▁tod	-7797
stone	-7798
▁bamb	-7799
▁bugs	-7800
▁clot	-7801
▁hood	-7802
▁mant	-7803
▁numb	-7804
▁rope	-7805
▁scal	-7806
▁tuna	-7807
▁woke	-7808
bruary	-7809
encing	-7810
▁exerc	-7811
▁ghana	-7812
▁haiti	-7813
▁lifel	-7814
▁peers	-7815
▁pills	-7816
▁somal	-7817
▁tweet	-7818
▁unint	-7819
▁vocal	-7820
ructive	-7821
▁branch	-7822
▁combat	-7823
▁counts	-7824
▁cousin	-7825
▁hiding	-7826
▁inches	-7827
▁propag	-7828
▁sketch	-7829
▁strain	-7830
▁tracks	-7831
▁anxious	-7832
▁assumed	-7833
▁consent	-7834
▁damaged	-7835
▁despair	-7836
▁dressed	-7837
▁enables	-7838
▁engines	-7839
▁enlight	-7840
▁indones	-7841
▁offices	-7842
▁retreat	-7843
▁routine	-7844
▁transit	-7845
▁backyard	-7846
▁detailed	-7847
▁detector	-7848
▁disagree	-7849
▁february	-7850
▁incident	-7851
▁offering	-7852
▁opinions	-7853
▁peaceful	-7854
▁protocol	-7855
▁striking	-7856
▁tropical	-7857
▁alongside	-7858
▁associate	-7859
▁audiences	-7860
▁electrons	-7861
▁headlines	-7862
▁hierarchy	-7863
▁intensive	-7864
▁protocell	-7865
▁replicate	-7866
▁reporting	-7867
▁screening	-7868
▁tolerance	-7869
▁bangladesh	-7870
▁biologists	-7871
▁consistent	-7872
▁impression	-7873
▁landscapes	-7874
▁sufficient	-7875
▁wheelchair	-7876
▁association	-7877
▁description	-7878
▁encouraging	-7879
▁frightening	-7880
▁magnificent	-7881
▁capabilities	-7882
▁disabilities	-7883
▁overwhelming	-7884
▁schizophrenia	-7885
hr	-7886
ema	-7887
equ	-7888
ika	-7889
nis	-7890
▁ly	-7891
bits	-7892
born	-7893
rane	-7894
▁ech	-7895
▁kar	-7896
cover	-7897
izers	-7898
leton	-7899
nders	-7900
ogens	-7901
power	-7902
uther	-7903
▁acou	-7904
▁clue	-7905
▁cree	-7906
▁dent	-7907
▁duty	-7908
▁forb	-7909
▁gore	-7910
▁july	-7911
▁lege	-7912
▁stad	-7913
▁thro	-7914
bridge	-7915
gments	-7916
▁alpha	-7917
▁award	-7918
▁bronx	-7919
▁divid	-7920
▁drown	-7921
▁fires	-7922
▁gabby	-7923
▁gains	-7924
▁hired	-7925
▁lagos	-7926
▁membr	-7927
▁pairs	-7928
▁paths	-7929
▁proph	-7930
▁pulls	-7931
▁sadly	-7932
▁saudi	-7933
▁stead	-7934
▁sweat	-7935
▁synch	-7936
▁convey	-7937
▁dispar	-7938
▁equity	-7939
▁expans	-7940
▁freely	-7941
▁marker	-7942
▁orient	-7943
▁planes	-7944
▁refuse	-7945
▁stones	-7946
▁ticket	-7947
▁tomato	-7948
▁trends	-7949
▁unlock	-7950
▁enjoyed	-7951
▁follows	-7952
▁graphic	-7953
▁highway	-7954
▁readers	-7955
▁synthes	-7956
▁whistle	-7957
▁approved	-7958
▁artistic	-7959
▁category	-7960
▁connects	-7961
▁dinosaur	-7962
▁drawings	-7963
▁homework	-7964
▁kindness	-7965
▁observed	-7966
▁openness	-7967
▁portrait	-7968
▁spinning	-7969
▁supplies	-7970
▁throwing	-7971
▁belonging	-7972
▁correctly	-7973
▁excellent	-7974
▁expressed	-7975
▁fortunate	-7976
▁isolation	-7977
▁officials	-7978
▁predators	-7979
▁preparing	-7980
▁procedure	-7981
▁residents	-7982
▁responded	-7983
▁sacrifice	-7984
▁transcend	-7985
▁discipline	-7986
▁physicists	-7987
▁simulation	-7988
▁chromosomes	-7989
▁demographic	-7990
▁discovering	-7991
▁prescription	-7992
▁participation	-7993
bow	-7994
ias	-7995
▁ku	-7996
▁ze	-7997
abul	-7998
coln	-7999
geon	-8000
idal	-8001
part	-8002
▁cho	-8003
▁han	-8004
▁piz	-8005
▁pms	-8006
▁sap	-8007
asses	-8008
ctive	-8009
inery	-8010
pring	-8011
rence	-8012
▁aged	-8013
▁coch	-8014
▁epic	-8015
▁germ	-8016
▁hong	-8017
▁prol	-8018
▁rays	-8019
▁toys	-8020
▁wins	-8021
▁acids	-8022
▁artif	-8023
▁blogs	-8024
▁civic	-8025
▁eaten	-8026
▁grave	-8027
▁harsh	-8028
▁hopes	-8029
▁numer	-8030
▁sends	-8031
ressing	-8032
▁andrew	-8033
▁bamboo	-8034
▁corals	-8035
▁garage	-8036
▁injust	-8037
▁negoti	-8038
▁nights	-8039
▁racism	-8040
▁recess	-8041
▁rwanda	-8042
▁selves	-8043
▁sunday	-8044
▁syrian	-8045
▁wishes	-8046
▁absence	-8047
▁arguing	-8048
▁automob	-8049
▁cancers	-8050
▁islands	-8051
▁johnson	-8052
▁lincoln	-8053
▁penalty	-8054
▁peoples	-8055
▁pockets	-8056
▁propose	-8057
▁reactor	-8058
▁resolve	-8059
▁rolling	-8060
▁slavery	-8061
▁vietnam	-8062
▁accuracy	-8063
▁cartoons	-8064
▁circuits	-8065
▁colonies	-8066
▁december	-8067
▁explains	-8068
▁explicit	-8069
▁historic	-8070
▁pandemic	-8071
▁recycled	-8072
▁reinvent	-8073
▁tendency	-8074
▁worrying	-8075
▁consensus	-8076
▁expecting	-8077
▁formation	-8078
▁secretary	-8079
otechnology	-8080
▁basketball	-8081
▁classrooms	-8082
▁friendship	-8083
▁organizing	-8084
▁translated	-8085
▁considering	-8086
▁instruction	-8087
▁proposition	-8088
▁specialized	-8089
▁introduction	-8090
▁architectural	-8091
▁simultaneously	-8092
eak	-8093
jud	-8094
ril	-8095
▁bh	-8096
fold	-8097
laim	-8098
utan	-8099
▁hob	-8100
▁tam	-8101
▁yog	-8102
▁zoo	-8103
atoes	-8104
copes	-8105
osity	-8106
peare	-8107
▁coke	-8108
▁cuts	-8109
▁mock	-8110
▁rect	-8111
▁stas	-8112
▁subt	-8113
▁tune	-8114
▁unre	-8115
▁whit	-8116
▁wolf	-8117
▁blink	-8118
▁boost	-8119
▁cheat	-8120
▁dough	-8121
▁entit	-8122
▁fifty	-8123
▁hawai	-8124
▁irony	-8125
▁shelf	-8126
▁slice	-8127
▁slime	-8128
▁steam	-8129
▁trace	-8130
▁ultra	-8131
▁valid	-8132
▁viral	-8133
▁wider	-8134
eration	-8135
▁accent	-8136
▁aliens	-8137
▁claims	-8138
▁contam	-8139
▁cultiv	-8140
▁friday	-8141
▁kidney	-8142
▁offers	-8143
▁posted	-8144
▁preach	-8145
▁prepar	-8146
▁purple	-8147
▁regist	-8148
▁revers	-8149
▁skelet	-8150
▁stored	-8151
▁subway	-8152
▁territ	-8153
▁tongue	-8154
▁congest	-8155
▁crystal	-8156
▁laughed	-8157
▁package	-8158
▁proceed	-8159
▁recruit	-8160
▁returns	-8161
▁supreme	-8162
▁unhappy	-8163
▁activate	-8164
▁assigned	-8165
▁cleaning	-8166
▁ethiopia	-8167
▁minority	-8168
▁mosquito	-8169
▁abandoned	-8170
▁countless	-8171
▁desperate	-8172
▁incentive	-8173
▁rejection	-8174
▁chromosome	-8175
▁compromise	-8176
▁continuous	-8177
▁publishing	-8178
▁trustworth	-8179
▁yourselves	-8180
▁devastating	-8181
▁shakespeare	-8182
▁supermarket	-8183
ey	-8184
bye	-8185
che	-8186
cip	-8187
ctu	-8188
des	-8189
hot	-8190
isa	-8191
mod	-8192
ris	-8193
top	-8194
yan	-8195
▁34	-8196
▁46	-8197
▁iv	-8198
▁kh	-8199
▁mk	-8200
▁ow	-8201
▁um	-8202
ocks	-8203
quis	-8204
view	-8205
▁blo	-8206
▁lam	-8207
▁moz	-8208
▁mum	-8209
▁pix	-8210
pless	-8211
▁2014	-8212
▁angi	-8213
▁carp	-8214
▁clay	-8215
▁dawn	-8216
▁eric	-8217
▁flee	-8218
▁inch	-8219
▁jenn	-8220
▁lamp	-8221
▁lego	-8222
▁nets	-8223
▁nove	-8224
▁nuts	-8225
▁penn	-8226
▁proc	-8227
▁sale	-8228
▁shan	-8229
▁urge	-8230
▁vice	-8231
ounder	-8232
▁ambit	-8233
▁bills	-8234
▁conqu	-8235
▁deals	-8236
▁drift	-8237
▁gotta	-8238
▁grant	-8239
▁mobil	-8240
▁outer	-8241
▁spill	-8242
ativity	-8243
itating	-8244
▁burden	-8245
▁canopy	-8246
▁covers	-8247
▁digits	-8248
▁drones	-8249
▁fantas	-8250
▁overse	-8251
▁proved	-8252
▁soccer	-8253
▁spinal	-8254
▁trains	-8255
▁upload	-8256
▁blowing	-8257
▁charges	-8258
▁goodbye	-8259
▁outrage	-8260
▁passage	-8261
▁shortly	-8262
▁william	-8263
▁zealand	-8264
▁actively	-8265
▁autonomy	-8266
▁carolina	-8267
▁employee	-8268
▁governor	-8269
▁noticing	-8270
▁alexander	-8271
▁competing	-8272
▁indonesia	-8273
▁locations	-8274
▁microbial	-8275
▁miserable	-8276
▁occurring	-8277
▁overnight	-8278
▁reproduce	-8279
▁sensation	-8280
▁substance	-8281
▁antibiotic	-8282
▁approached	-8283
▁dictionary	-8284
▁earthquake	-8285
▁practicing	-8286
▁achievement	-8287
▁consciously	-8288
▁transgender	-8289
▁continuously	-8290
ki	-8291
auc	-8292
ban	-8293
dam	-8294
lim	-8295
obi	-8296
▁cp	-8297
▁gk	-8298
bris	-8299
orph	-8300
usal	-8301
walk	-8302
▁ego	-8303
▁jaw	-8304
▁lob	-8305
▁loy	-8306
▁mur	-8307
inity	-8308
rical	-8309
riger	-8310
ucose	-8311
ynman	-8312
▁deaf	-8313
▁deck	-8314
▁epip	-8315
▁indo	-8316
▁patr	-8317
▁pete	-8318
▁scot	-8319
▁seaf	-8320
▁seal	-8321
▁sole	-8322
▁thor	-8323
ailand	-8324
ancing	-8325
coming	-8326
▁30000	-8327
▁congo	-8328
▁grasp	-8329
▁kills	-8330
▁koran	-8331
▁pizza	-8332
▁repet	-8333
▁shore	-8334
▁snake	-8335
▁cycles	-8336
▁daniel	-8337
▁excess	-8338
▁integr	-8339
▁sensor	-8340
▁truths	-8341
▁viewer	-8342
▁waited	-8343
esthesia	-8344
▁aristot	-8345
▁charged	-8346
▁contest	-8347
▁cousins	-8348
▁default	-8349
▁feynman	-8350
▁flowing	-8351
▁glucose	-8352
▁monster	-8353
▁origins	-8354
▁portion	-8355
▁rewards	-8356
▁sailing	-8357
▁strands	-8358
▁teaches	-8359
▁trapped	-8360
▁venture	-8361
▁whoever	-8362
▁annivers	-8363
▁attacked	-8364
▁defining	-8365
▁earliest	-8366
▁musician	-8367
▁november	-8368
▁prospect	-8369
▁publicly	-8370
▁refriger	-8371
▁simplest	-8372
▁smallest	-8373
▁thailand	-8374
▁ambitious	-8375
▁consuming	-8376
▁explosion	-8377
▁medicines	-8378
▁paralysis	-8379
▁performed	-8380
▁planetary	-8381
▁electrodes	-8382
▁employment	-8383
▁generating	-8384
▁remarkably	-8385
▁medications	-8386
▁politically	-8387
▁programmers	-8388
▁understands	-8389
▁improvements	-8390
▁observations	-8391
▁conservatives	-8392
▁demonstration	-8393
eem	-8394
▁31	-8395
▁72	-8396
char	-8397
gami	-8398
iver	-8399
outs	-8400
word	-8401
▁mig	-8402
▁sty	-8403
etics	-8404
▁carl	-8405
▁frog	-8406
▁hors	-8407
▁infl	-8408
▁junk	-8409
▁loan	-8410
▁mang	-8411
▁pier	-8412
▁plug	-8413
▁sake	-8414
▁ster	-8415
▁stun	-8416
▁ties	-8417
arians	-8418
inator	-8419
soever	-8420
utical	-8421
▁coinc	-8422
▁consp	-8423
▁cream	-8424
▁drain	-8425
▁hoped	-8426
▁oblig	-8427
▁param	-8428
▁poems	-8429
▁taxes	-8430
▁tiles	-8431
▁treas	-8432
▁voted	-8433
▁woods	-8434
▁archae	-8435
▁barrel	-8436
▁berlin	-8437
▁calend	-8438
▁colony	-8439
▁diving	-8440
▁fallen	-8441
▁gained	-8442
▁habits	-8443
▁hurric	-8444
▁jordan	-8445
▁noneth	-8446
▁preval	-8447
▁static	-8448
▁cocaine	-8449
▁corners	-8450
▁creator	-8451
▁destiny	-8452
▁enhance	-8453
▁footage	-8454
▁heading	-8455
▁inhabit	-8456
▁nearest	-8457
▁onstage	-8458
▁origami	-8459
▁puzzles	-8460
▁reaches	-8461
▁rethink	-8462
▁smiling	-8463
▁strings	-8464
▁tissues	-8465
▁breeding	-8466
▁findings	-8467
▁headline	-8468
▁horizont	-8469
▁interven	-8470
▁nitrogen	-8471
▁predator	-8472
▁saturday	-8473
▁selected	-8474
▁substant	-8475
▁synchron	-8476
▁websites	-8477
▁youngest	-8478
▁batteries	-8479
▁contained	-8480
▁criminals	-8481
▁disasters	-8482
▁inclusive	-8483
▁machinery	-8484
▁offspring	-8485
▁relatives	-8486
▁convenient	-8487
▁encouraged	-8488
▁generosity	-8489
▁inevitably	-8490
▁influenced	-8491
▁perfection	-8492
▁telescopes	-8493
▁trajectory	-8494
▁whatsoever	-8495
▁investments	-8496
▁nonetheless	-8497
▁overwhelmed	-8498
▁recognizing	-8499
▁chemotherapy	-8500
▁historically	-8501
▁presidential	-8502
▁temperatures	-8503
▁communicating	-8504
▁computational	-8505
py	-8506
wa	-8507
ads	-8508
aza	-8509
ona	-8510
▁37	-8511
▁44	-8512
▁48	-8513
▁97	-8514
ador	-8515
burg	-8516
iban	-8517
irts	-8518
itan	-8519
olen	-8520
omed	-8521
onge	-8522
phal	-8523
rist	-8524
thal	-8525
▁byp	-8526
▁gps	-8527
▁jet	-8528
▁pic	-8529
▁tut	-8530
▁ubi	-8531
ourse	-8532
▁2020	-8533
▁apes	-8534
▁apps	-8535
▁bite	-8536
▁dirt	-8537
▁mesh	-8538
▁nord	-8539
▁tact	-8540
▁verb	-8541
blings	-8542
urning	-8543
weight	-8544
▁ambig	-8545
▁bench	-8546
▁bible	-8547
▁bless	-8548
▁brook	-8549
▁cared	-8550
▁grief	-8551
▁gross	-8552
▁hated	-8553
▁inhib	-8554
▁knees	-8555
▁obese	-8556
▁pants	-8557
▁perse	-8558
▁resur	-8559
▁rings	-8560
▁stasi	-8561
▁warri	-8562
▁academ	-8563
▁affair	-8564
▁apples	-8565
▁beaten	-8566
▁deadly	-8567
▁earned	-8568
▁elabor	-8569
▁grocer	-8570
▁guards	-8571
▁korean	-8572
▁luxury	-8573
▁portug	-8574
▁render	-8575
▁retail	-8576
▁slower	-8577
▁stolen	-8578
▁summar	-8579
▁thirty	-8580
▁thread	-8581
▁tribal	-8582
▁unfold	-8583
▁banking	-8584
▁bridges	-8585
▁committ	-8586
▁crossed	-8587
▁ecology	-8588
▁enabled	-8589
▁injured	-8590
▁masters	-8591
▁periods	-8592
▁stadium	-8593
▁trivial	-8594
aceutical	-8595
▁advances	-8596
▁clothing	-8597
▁evolving	-8598
▁geometry	-8599
▁leonardo	-8600
▁ministry	-8601
▁quarters	-8602
▁shocking	-8603
▁superint	-8604
▁switched	-8605
▁transact	-8606
▁underest	-8607
▁unlikely	-8608
▁augmented	-8609
▁authentic	-8610
▁collapsed	-8611
▁installed	-8612
▁receptors	-8613
▁renewable	-8614
▁signature	-8615
▁acceptance	-8616
▁girlfriend	-8617
▁helicopter	-8618
▁manipulate	-8619
▁republican	-8620
▁anniversary	-8621
▁approaching	-8622
▁destructive	-8623
▁preparation	-8624
▁technically	-8625
▁trafficking	-8626
▁revolutionary	-8627
▁pharmaceutical	-8628
▁representative	-8629
bar	-8630
ima	-8631
mia	-8632
nas	-8633
nat	-8634
vol	-8635
▁47	-8636
▁jh	-8637
aken	-8638
atar	-8639
ched	-8640
city	-8641
pler	-8642
rine	-8643
wind	-8644
▁125	-8645
▁190	-8646
▁bos	-8647
▁cin	-8648
▁dod	-8649
▁haz	-8650
▁obt	-8651
▁tab	-8652
human	-8653
umber	-8654
▁airl	-8655
▁cens	-8656
▁fate	-8657
▁kong	-8658
▁lest	-8659
▁trap	-8660
▁xray	-8661
mental	-8662
▁april	-8663
▁boats	-8664
▁brows	-8665
▁brush	-8666
▁fatal	-8667
▁guilt	-8668
▁insec	-8669
▁outdo	-8670
▁resem	-8671
▁santa	-8672
▁spite	-8673
▁surre	-8674
▁beetle	-8675
▁cambod	-8676
▁checks	-8677
▁export	-8678
▁foster	-8679
▁joseph	-8680
▁jungle	-8681
▁marath	-8682
▁newton	-8683
▁presum	-8684
▁recipe	-8685
▁riding	-8686
▁scenes	-8687
▁serves	-8688
▁smells	-8689
▁stakes	-8690
▁stigma	-8691
▁tunnel	-8692
▁virtue	-8693
▁wasted	-8694
▁affairs	-8695
▁appoint	-8696
▁commons	-8697
▁descend	-8698
▁elderly	-8699
▁exploit	-8700
▁gardens	-8701
▁imagery	-8702
▁jumping	-8703
▁labeled	-8704
▁liberty	-8705
▁mapping	-8706
▁methane	-8707
▁reclaim	-8708
▁squeeze	-8709
▁toilets	-8710
▁artifact	-8711
▁catching	-8712
▁cellular	-8713
▁egyptian	-8714
▁informal	-8715
▁resident	-8716
▁thrilled	-8717
▁touching	-8718
▁aristotle	-8719
▁imagining	-8720
▁injustice	-8721
▁platforms	-8722
▁realistic	-8723
▁regularly	-8724
▁returning	-8725
▁sculpture	-8726
▁telomeres	-8727
▁assignment	-8728
▁expedition	-8729
▁facilities	-8730
▁illustrate	-8731
▁intentions	-8732
▁journalism	-8733
▁legitimate	-8734
▁repeatedly	-8735
▁sanitation	-8736
▁separation	-8737
▁expressions	-8738
▁microscopic	-8739
▁regulations	-8740
▁intersection	-8741
▁interconnected	-8742
fo	-8743
hib	-8744
neg	-8745
oli	-8746
▁gy	-8747
▁ja	-8748
bees	-8749
iece	-8750
xual	-8751
▁bru	-8752
▁hub	-8753
▁irr	-8754
▁kat	-8755
▁mah	-8756
▁pir	-8757
▁por	-8758
▁soy	-8759
▁tox	-8760
▁voy	-8761
icked	-8762
ifies	-8763
itory	-8764
itzer	-8765
▁1900	-8766
▁alar	-8767
▁blur	-8768
▁cage	-8769
▁cake	-8770
▁cass	-8771
▁josh	-8772
▁lawn	-8773
▁mama	-8774
▁mixt	-8775
▁pond	-8776
▁prey	-8777
▁rats	-8778
▁uber	-8779
aneous	-8780
▁altru	-8781
▁anten	-8782
▁brian	-8783
▁carri	-8784
▁endea	-8785
▁fried	-8786
▁lingu	-8787
▁loose	-8788
▁loses	-8789
▁nasty	-8790
▁patri	-8791
▁retro	-8792
▁telec	-8793
▁usage	-8794
▁wavel	-8795
▁witch	-8796
abulary	-8797
keepers	-8798
quitous	-8799
▁absurd	-8800
▁aggreg	-8801
▁behalf	-8802
▁chimps	-8803
▁comics	-8804
▁criter	-8805
▁flavor	-8806
▁judges	-8807
▁league	-8808
▁legend	-8809
▁manual	-8810
▁namely	-8811
▁prejud	-8812
▁reserv	-8813
▁rotate	-8814
▁saturn	-8815
▁subsid	-8816
▁towers	-8817
▁treaty	-8818
▁urgent	-8819
▁wheels	-8820
▁carries	-8821
▁constit	-8822
▁defines	-8823
▁doubled	-8824
▁editors	-8825
▁handful	-8826
▁harness	-8827
▁implant	-8828
▁mindful	-8829
▁mirrors	-8830
▁ongoing	-8831
▁passive	-8832
▁planted	-8833
▁sadness	-8834
▁taliban	-8835
▁wedding	-8836
▁canadian	-8837
▁climbing	-8838
▁humility	-8839
▁indicate	-8840
▁leverage	-8841
▁liberals	-8842
▁mutation	-8843
▁nigerian	-8844
▁priority	-8845
▁psychiat	-8846
▁siblings	-8847
▁answering	-8848
▁automated	-8849
▁candidate	-8850
▁fisheries	-8851
▁reasoning	-8852
▁textbooks	-8853
▁congestion	-8854
▁destroying	-8855
▁documented	-8856
▁ubiquitous	-8857
▁vocabulary	-8858
▁accountable	-8859
▁perceptions	-8860
▁practically	-8861
▁realization	-8862
▁gravitational	-8863
▁extraordinarily	-8864
gm	-8865
ala	-8866
isc	-8867
kyo	-8868
oic	-8869
▁ib	-8870
▁ot	-8871
▁ov	-8872
▁ss	-8873
aded	-8874
etti	-8875
ghai	-8876
kins	-8877
onic	-8878
▁arc	-8879
▁dub	-8880
▁fda	-8881
▁kos	-8882
▁mol	-8883
▁nap	-8884
▁tin	-8885
▁ynh	-8886
ester	-8887
ffect	-8888
keley	-8889
omics	-8890
oured	-8891
roach	-8892
▁alan	-8893
▁beep	-8894
▁chew	-8895
▁disk	-8896
▁jews	-8897
▁offe	-8898
▁porn	-8899
▁quad	-8900
▁trek	-8901
▁twin	-8902
culiar	-8903
inging	-8904
necess	-8905
uction	-8906
ulator	-8907
vasive	-8908
▁baker	-8909
▁cares	-8910
▁depos	-8911
▁deter	-8912
▁escap	-8913
▁immun	-8914
▁index	-8915
▁lever	-8916
▁maker	-8917
▁myths	-8918
▁octop	-8919
▁pengu	-8920
▁plast	-8921
▁recre	-8922
▁sweep	-8923
▁swiss	-8924
▁tiger	-8925
▁tokyo	-8926
ascular	-8927
▁200000	-8928
▁allies	-8929
▁approx	-8930
▁consol	-8931
▁cosmic	-8932
▁courts	-8933
▁divers	-8934
▁divine	-8935
▁formal	-8936
▁halluc	-8937
▁lethal	-8938
▁passes	-8939
▁reader	-8940
▁shower	-8941
▁sooner	-8942
▁topics	-8943
▁unfair	-8944
▁waking	-8945
▁coastal	-8946
▁dilemma	-8947
▁dismiss	-8948
▁mandela	-8949
▁mastery	-8950
▁matched	-8951
▁planned	-8952
▁sectors	-8953
▁spiders	-8954
▁admitted	-8955
▁announce	-8956
▁balloons	-8957
▁berkeley	-8958
▁circular	-8959
▁feminine	-8960
▁patience	-8961
▁peculiar	-8962
▁skeletal	-8963
▁transmit	-8964
▁achieving	-8965
▁affecting	-8966
▁agreement	-8967
▁biosphere	-8968
▁cambridge	-8969
▁equations	-8970
▁expansion	-8971
▁gentleman	-8972
▁illusions	-8973
▁mosquitos	-8974
▁orphanage	-8975
▁respected	-8976
▁suspended	-8977
▁therapies	-8978
▁infectious	-8979
▁loneliness	-8980
▁regulation	-8981
▁distinguish	-8982
▁embarrassed	-8983
▁connectivity	-8984
▁illustration	-8985
▁measurements	-8986
▁controversial	-8987
▁visualization	-8988
bc	-8989
bul	-8990
hea	-8991
irm	-8992
wal	-8993
▁ak	-8994
▁js	-8995
▁pc	-8996
▁gif	-8997
▁huh	-8998
▁kin	-8999
▁rab	-9000
▁sha	-9001
abeth	-9002
arded	-9003
▁2013	-9004
▁cany	-9005
▁chat	-9006
▁fest	-9007
▁guid	-9008
▁hybr	-9009
▁jazz	-9010
▁keys	-9011
▁pear	-9012
▁wore	-9013
▁worm	-9014
▁60000	-9015
▁bucks	-9016
▁buddh	-9017
▁chase	-9018
▁couch	-9019
▁feeds	-9020
▁flesh	-9021
▁holoc	-9022
▁illum	-9023
▁juven	-9024
▁kevin	-9025
▁moore	-9026
▁nodes	-9027
▁seals	-9028
▁shops	-9029
▁sizes	-9030
▁straw	-9031
▁trait	-9032
▁vivid	-9033
▁wrest	-9034
imeters	-9035
▁admire	-9036
▁cracks	-9037
▁kepler	-9038
▁monday	-9039
▁needle	-9040
▁nether	-9041
▁potent	-9042
▁racial	-9043
▁timing	-9044
▁viewed	-9045
function	-9046
▁bureauc	-9047
▁condoms	-9048
▁desires	-9049
▁halfway	-9050
▁heavily	-9051
▁iceland	-9052
▁longest	-9053
▁neglect	-9054
▁recycle	-9055
▁torture	-9056
▁ambition	-9057
▁clusters	-9058
▁envision	-9059
▁explored	-9060
▁famously	-9061
▁forecast	-9062
▁goodness	-9063
▁ideology	-9064
▁mentally	-9065
▁pleasant	-9066
▁prescrib	-9067
▁receptor	-9068
▁remained	-9069
▁shanghai	-9070
▁skeleton	-9071
▁unnecess	-9072
▁visiting	-9073
▁adulthood	-9074
▁amazingly	-9075
▁apologize	-9076
▁biologist	-9077
▁embracing	-9078
▁hurricane	-9079
▁inherited	-9080
▁livestock	-9081
▁massively	-9082
▁musicians	-9083
▁observing	-9084
▁parkinson	-9085
▁principal	-9086
▁realities	-9087
▁resilient	-9088
▁sequences	-9089
▁skeptical	-9090
▁staircase	-9091
▁succeeded	-9092
▁celebrated	-9093
▁convincing	-9094
▁critically	-9095
▁discussing	-9096
▁elementary	-9097
▁interviews	-9098
▁meditation	-9099
▁microphone	-9100
▁wavelength	-9101
▁aspirations	-9102
▁cooperative	-9103
▁netherlands	-9104
▁threatening	-9105
▁unfortunate	-9106
▁conditioning	-9107
▁contribution	-9108
▁demonstrated	-9109
▁representing	-9110
▁characteristic	-9111
▁systematically	-9112
ga	-9113
bag	-9114
cet	-9115
enh	-9116
ugg	-9117
vir	-9118
▁eb	-9119
▁gg	-9120
celi	-9121
cons	-9122
edge	-9123
isan	-9124
ller	-9125
lson	-9126
mate	-9127
roid	-9128
▁130	-9129
▁192	-9130
▁fer	-9131
▁nam	-9132
▁ski	-9133
aired	-9134
emies	-9135
irect	-9136
ortex	-9137
rator	-9138
uctor	-9139
▁1999	-9140
▁buzz	-9141
▁canv	-9142
▁cycl	-9143
▁font	-9144
▁obsc	-9145
▁rust	-9146
▁scra	-9147
▁sext	-9148
▁tedt	-9149
▁whoa	-9150
▁yard	-9151
affold	-9152
celium	-9153
ergart	-9154
▁alike	-9155
▁awake	-9156
▁chile	-9157
▁chuck	-9158
▁clues	-9159
▁fever	-9160
▁indus	-9161
▁intro	-9162
▁items	-9163
▁meals	-9164
▁newly	-9165
▁plato	-9166
▁posed	-9167
▁redef	-9168
▁rover	-9169
▁steer	-9170
▁towns	-9171
▁trips	-9172
▁watts	-9173
rospect	-9174
▁bhutan	-9175
▁bitter	-9176
▁cattle	-9177
▁epidem	-9178
▁equals	-9179
▁harbor	-9180
▁mining	-9181
▁mouths	-9182
▁mozart	-9183
▁nelson	-9184
▁purely	-9185
▁retain	-9186
▁salmon	-9187
▁singap	-9188
▁spends	-9189
▁stabil	-9190
▁statue	-9191
▁throat	-9192
ffective	-9193
osterone	-9194
quarters	-9195
▁alright	-9196
▁analogy	-9197
▁belongs	-9198
▁biomass	-9199
▁broader	-9200
▁decides	-9201
▁drought	-9202
▁exagger	-9203
▁futures	-9204
▁georgia	-9205
▁happily	-9206
▁indians	-9207
▁legally	-9208
▁located	-9209
▁printer	-9210
▁skilled	-9211
▁stephen	-9212
▁strikes	-9213
▁swedish	-9214
▁acquired	-9215
▁advocate	-9216
▁blocking	-9217
▁criteria	-9218
▁incorpor	-9219
▁interior	-9220
▁maximize	-9221
▁midnight	-9222
▁migrants	-9223
▁mycelium	-9224
▁orbiting	-9225
▁pathways	-9226
▁primates	-9227
▁scaffold	-9228
▁scanning	-9229
▁seawater	-9230
▁weakness	-9231
▁generates	-9232
▁habitable	-9233
▁integrate	-9234
▁parenting	-9235
▁producers	-9236
▁reflected	-9237
▁satisfied	-9238
▁struggled	-9239
▁temporary	-9240
▁accelerate	-9241
▁adolescent	-9242
▁confronted	-9243
▁contradict	-9244
▁empowering	-9245
▁kindergart	-9246
▁psychopath	-9247
▁smartphone	-9248
▁distinction	-9249
▁orientation	-9250
▁predictable	-9251
▁accomplished	-9252
▁concentrated	-9253
▁contributing	-9254
▁economically	-9255
▁testosterone	-9256
▁unemployment	-9257
▁determination	-9258
ja	-9259
ada	-9260
ila	-9261
▁42	-9262
▁bc	-9263
ache	-9264
bing	-9265
esty	-9266
▁hut	-9267
▁quo	-9268
▁woo	-9269
▁zer	-9270
acent	-9271
berry	-9272
cules	-9273
cuses	-9274
erals	-9275
gradu	-9276
ophob	-9277
opian	-9278
ouses	-9279
▁2016	-9280
▁aven	-9281
▁brun	-9282
▁cape	-9283
▁dare	-9284
▁emma	-9285
▁fans	-9286
▁fict	-9287
▁jane	-9288
▁logo	-9289
▁nich	-9290
▁pays	-9291
▁rank	-9292
▁shoe	-9293
▁yale	-9294
ospher	-9295
▁advis	-9296
▁altog	-9297
▁belly	-9298
▁biofu	-9299
▁caves	-9300
▁charl	-9301
▁chunk	-9302
▁clint	-9303
▁comic	-9304
▁diarr	-9305
▁ethan	-9306
▁furth	-9307
▁gorge	-9308
▁homet	-9309
▁mimic	-9310
▁naive	-9311
▁noisy	-9312
▁norms	-9313
▁oppon	-9314
▁perip	-9315
▁relie	-9316
itivity	-9317
theless	-9318
ulative	-9319
▁argued	-9320
▁atomic	-9321
▁builds	-9322
▁correl	-9323
▁debris	-9324
▁diagno	-9325
▁donors	-9326
▁fibers	-9327
▁frames	-9328
▁iconic	-9329
▁immers	-9330
▁intact	-9331
▁luther	-9332
▁mutual	-9333
▁occupy	-9334
▁tanzan	-9335
▁applies	-9336
▁clinics	-9337
▁counsel	-9338
▁elegant	-9339
▁enemies	-9340
▁gallery	-9341
▁hostile	-9342
▁optical	-9343
▁patents	-9344
▁patrick	-9345
▁placebo	-9346
▁romance	-9347
▁sapiens	-9348
▁shaking	-9349
▁squares	-9350
▁trusted	-9351
▁weekend	-9352
▁abundant	-9353
▁calculus	-9354
▁catholic	-9355
▁checking	-9356
▁currents	-9357
▁elevator	-9358
▁helpless	-9359
▁hercules	-9360
▁hometown	-9361
▁matching	-9362
▁optimism	-9363
▁princess	-9364
▁prostate	-9365
▁protests	-9366
▁revealed	-9367
▁shouting	-9368
▁stepping	-9369
▁sticking	-9370
▁stimulus	-9371
▁targeted	-9372
▁triangle	-9373
ifications	-9374
▁analyzing	-9375
▁champions	-9376
▁checklist	-9377
▁copyright	-9378
▁delicious	-9379
▁extension	-9380
▁greenland	-9381
▁imperfect	-9382
▁orchestra	-9383
▁pathogens	-9384
▁singapore	-9385
▁surgeries	-9386
▁acceptable	-9387
▁altogether	-9388
▁anticipate	-9389
▁attraction	-9390
▁disconnect	-9391
▁programmed	-9392
▁simplicity	-9393
▁encountered	-9394
▁frustrating	-9395
▁functioning	-9396
▁marketplace	-9397
▁angiogenesis	-9398
▁embarrassing	-9399
▁nevertheless	-9400
▁investigation	-9401
▁mathematician	-9402
▁transformative	-9403
ko	-9404
tz	-9405
lem	-9406
lon	-9407
via	-9408
weg	-9409
▁cm	-9410
▁dm	-9411
▁lp	-9412
adel	-9413
agra	-9414
aint	-9415
anas	-9416
erer	-9417
illa	-9418
oked	-9419
onia	-9420
udge	-9421
unks	-9422
ylac	-9423
▁amy	-9424
▁ara	-9425
▁bor	-9426
▁lev	-9427
▁rud	-9428
▁shy	-9429
▁wre	-9430
asant	-9431
eling	-9432
oding	-9433
omagn	-9434
storm	-9435
▁1500	-9436
▁1930	-9437
▁2002	-9438
▁2030	-9439
▁abed	-9440
▁adds	-9441
▁brad	-9442
▁ceos	-9443
▁coat	-9444
▁cues	-9445
▁gran	-9446
▁guer	-9447
▁heck	-9448
▁masc	-9449
▁obso	-9450
▁unst	-9451
racies	-9452
▁album	-9453
▁blast	-9454
▁catal	-9455
▁chips	-9456
▁cyrus	-9457
▁drone	-9458
▁drops	-9459
▁humil	-9460
▁jewel	-9461
▁laden	-9462
▁leban	-9463
▁meets	-9464
▁messy	-9465
▁milky	-9466
▁raped	-9467
▁reass	-9468
▁remix	-9469
▁rigid	-9470
▁shine	-9471
▁spagh	-9472
▁twent	-9473
▁wives	-9474
essions	-9475
▁argent	-9476
▁brutal	-9477
▁closet	-9478
▁contag	-9479
▁curves	-9480
▁empath	-9481
▁gandhi	-9482
▁greece	-9483
▁losses	-9484
▁minded	-9485
▁norden	-9486
▁norweg	-9487
▁plates	-9488
▁prohib	-9489
▁punish	-9490
▁ritual	-9491
▁shifts	-9492
▁sovere	-9493
▁thylac	-9494
▁victor	-9495
▁voters	-9496
▁weighs	-9497
ospheric	-9498
▁dancers	-9499
▁deepest	-9500
▁emerges	-9501
▁fantasy	-9502
▁fitness	-9503
▁ratings	-9504
▁seattle	-9505
▁secular	-9506
▁shifted	-9507
▁tension	-9508
▁trading	-9509
▁trailer	-9510
▁visions	-9511
▁adoption	-9512
▁baseline	-9513
▁consists	-9514
▁deciding	-9515
▁deserves	-9516
▁entities	-9517
▁gorgeous	-9518
▁lectures	-9519
▁managing	-9520
▁momentum	-9521
▁overhead	-9522
▁overlook	-9523
▁singular	-9524
▁talented	-9525
▁veterans	-9526
▁collision	-9527
▁converted	-9528
▁dictators	-9529
▁discussed	-9530
▁favorites	-9531
▁fireflies	-9532
▁instances	-9533
▁intensity	-9534
▁spaceship	-9535
▁territory	-9536
▁astronauts	-9537
▁delivering	-9538
▁inherently	-9539
▁pesticides	-9540
▁prevention	-9541
▁privileged	-9542
▁christopher	-9543
▁circulation	-9544
▁concentrate	-9545
▁electromagn	-9546
▁existential	-9547
▁legislation	-9548
▁millennials	-9549
▁theoretical	-9550
▁authenticity	-9551
▁philosophers	-9552
▁reproductive	-9553
▁civilizations	-9554
▁traditionally	-9555
ux	-9556
eda	-9557
gon	-9558
jan	-9559
ola	-9560
oly	-9561
ras	-9562
▁52	-9563
▁ka	-9564
rade	-9565
rium	-9566
▁350	-9567
▁awe	-9568
▁cyl	-9569
▁ooh	-9570
▁osc	-9571
atial	-9572
eller	-9573
etary	-9574
impse	-9575
lfare	-9576
rared	-9577
▁6000	-9578
▁alas	-9579
▁beam	-9580
▁beef	-9581
▁chef	-9582
▁cott	-9583
▁crap	-9584
▁eliz	-9585
▁enab	-9586
▁fees	-9587
▁mask	-9588
▁neoc	-9589
▁rabb	-9590
▁sexy	-9591
▁tony	-9592
▁tort	-9593
engers	-9594
itters	-9595
unting	-9596
▁40000	-9597
▁amate	-9598
▁craig	-9599
▁crows	-9600
▁drunk	-9601
▁erect	-9602
▁float	-9603
▁gland	-9604
▁grabb	-9605
▁greet	-9606
▁infer	-9607
▁longe	-9608
▁plank	-9609
▁rises	-9610
▁roman	-9611
▁slums	-9612
▁snaps	-9613
▁strip	-9614
▁teens	-9615
▁toast	-9616
▁tubes	-9617
▁worms	-9618
▁comedy	-9619
▁compos	-9620
▁dishes	-9621
▁eighth	-9622
▁hawaii	-9623
▁humble	-9624
▁improv	-9625
▁mangro	-9626
▁mayors	-9627
▁tennis	-9628
▁viable	-9629
▁wright	-9630
▁beatbox	-9631
▁chasing	-9632
▁cluster	-9633
▁cooling	-9634
▁divorce	-9635
▁easiest	-9636
▁endless	-9637
▁episode	-9638
▁excuses	-9639
▁exhibit	-9640
▁filters	-9641
▁glacier	-9642
▁glimpse	-9643
▁grocery	-9644
▁intrins	-9645
▁joining	-9646
▁lasting	-9647
▁melting	-9648
▁ordered	-9649
▁pathway	-9650
▁priorit	-9651
▁rehabil	-9652
▁seafood	-9653
▁snowden	-9654
▁texture	-9655
▁travels	-9656
▁utterly	-9657
▁welfare	-9658
▁assemble	-9659
▁assuming	-9660
▁attempts	-9661
▁declared	-9662
▁freezing	-9663
▁infrared	-9664
▁innovate	-9665
▁jealousy	-9666
▁misunder	-9667
▁nonsense	-9668
▁obsolete	-9669
▁obstacle	-9670
▁prisoner	-9671
▁regulate	-9672
▁sometime	-9673
▁surgeons	-9674
▁survivor	-9675
▁terrific	-9676
▁thriving	-9677
▁airplanes	-9678
▁comparing	-9679
▁displaced	-9680
▁distances	-9681
▁elizabeth	-9682
▁execution	-9683
▁holocaust	-9684
▁involving	-9685
▁longevity	-9686
▁portraits	-9687
▁shoulders	-9688
▁spaghetti	-9689
▁struggles	-9690
▁traumatic	-9691
▁accumulate	-9692
▁addressing	-9693
▁automobile	-9694
▁coordinate	-9695
▁disturbing	-9696
▁irrational	-9697
▁quantities	-9698
▁adolescence	-9699
▁atmospheric	-9700
▁corporation	-9701
▁discussions	-9702
▁republicans	-9703
▁transported	-9704
▁appreciation	-9705
▁headquarters	-9706
▁individually	-9707
▁superintellig	-9708
hh	-9709
imm	-9710
vio	-9711
▁cd	-9712
▁rm	-9713
▁ya	-9714
▁yo	-9715
ason	-9716
bean	-9717
cycl	-9718
erey	-9719
▁dun	-9720
▁ell	-9721
▁hay	-9722
▁kle	-9723
▁lee	-9724
▁rum	-9725
aters	-9726
erent	-9727
jamin	-9728
onald	-9729
ormal	-9730
▁auto	-9731
▁blob	-9732
▁ease	-9733
▁fung	-9734
▁pean	-9735
▁puff	-9736
▁tale	-9737
▁unac	-9738
▁util	-9739
▁ward	-9740
ogenic	-9741
usalem	-9742
▁alloc	-9743
▁bruno	-9744
▁codes	-9745
▁discl	-9746
▁embry	-9747
▁fence	-9748
▁guest	-9749
▁hatch	-9750
▁hydro	-9751
▁lists	-9752
▁moons	-9753
▁pragm	-9754
▁slept	-9755
▁stare	-9756
▁subsc	-9757
▁therm	-9758
▁amazed	-9759
▁arabia	-9760
▁caregi	-9761
▁columb	-9762
▁cookie	-9763
▁cowork	-9764
▁dement	-9765
▁exceed	-9766
▁firmly	-9767
▁horror	-9768
▁hypoth	-9769
▁kicked	-9770
▁misery	-9771
▁parach	-9772
▁pencil	-9773
▁preced	-9774
▁steven	-9775
▁tables	-9776
▁update	-9777
▁warmer	-9778
▁authors	-9779
▁basking	-9780
▁budgets	-9781
▁chamber	-9782
▁charter	-9783
▁checked	-9784
▁clinton	-9785
▁farther	-9786
▁funeral	-9787
▁leather	-9788
▁logging	-9789
▁newborn	-9790
▁octopus	-9791
▁olympic	-9792
▁shuttle	-9793
▁somalia	-9794
▁sounded	-9795
▁tipping	-9796
▁worship	-9797
▁accommod	-9798
▁benjamin	-9799
▁champion	-9800
▁disposal	-9801
▁entitled	-9802
▁feminism	-9803
▁frontier	-9804
▁graphics	-9805
▁intimate	-9806
▁inventor	-9807
▁lifelong	-9808
▁monterey	-9809
▁numerous	-9810
▁overseas	-9811
▁palestin	-9812
▁proposal	-9813
▁reflects	-9814
▁releases	-9815
▁reserves	-9816
▁sneakers	-9817
▁tanzania	-9818
▁variable	-9819
▁abundance	-9820
▁adversity	-9821
▁aesthetic	-9822
▁directors	-9823
▁elaborate	-9824
▁executive	-9825
▁exhausted	-9826
▁integrity	-9827
▁jerusalem	-9828
▁judgments	-9829
▁premature	-9830
▁strengths	-9831
▁stressful	-9832
▁disruptive	-9833
▁enormously	-9834
▁horizontal	-9835
▁powerpoint	-9836
▁preventing	-9837
▁prosthetic	-9838
▁prototypes	-9839
▁retirement	-9840
▁subjective	-9841
▁supportive	-9842
▁undergradu	-9843
▁variations	-9844
▁preferences	-9845
▁scholarship	-9846
▁transmitted	-9847
▁kindergarten	-9848
▁manipulation	-9849
▁transforming	-9850
▁configuration	-9851
gb	-9852
jo	-9853
ns	-9854
ena	-9855
fin	-9856
lor	-9857
net	-9858
ogy	-9859
rah	-9860
▁43	-9861
▁86	-9862
eard	-9863
ippi	-9864
oton	-9865
phia	-9866
viol	-9867
▁als	-9868
▁cyn	-9869
▁gad	-9870
▁heb	-9871
▁hig	-9872
▁lem	-9873
▁lip	-9874
▁mcd	-9875
▁mud	-9876
▁tib	-9877
▁una	-9878
▁wig	-9879
fting	-9880
illed	-9881
inger	-9882
ochem	-9883
oline	-9884
rance	-9885
▁1800	-9886
▁bali	-9887
▁blew	-9888
▁edit	-9889
▁fier	-9890
▁fran	-9891
▁gear	-9892
▁goat	-9893
▁lesb	-9894
▁lith	-9895
▁mend	-9896
▁milo	-9897
▁sham	-9898
▁solo	-9899
▁toll	-9900
boards	-9901
crimin	-9902
erving	-9903
istine	-9904
verted	-9905
▁alert	-9906
▁arbit	-9907
▁artic	-9908
▁bonus	-9909
▁breed	-9910
▁candy	-9911
▁cheer	-9912
▁fract	-9913
▁freak	-9914
▁hills	-9915
▁impul	-9916
▁loads	-9917
▁locom	-9918
▁marks	-9919
▁spons	-9920
icating	-9921
inators	-9922
issippi	-9923
▁anatom	-9924
▁canvas	-9925
▁canyon	-9926
▁cataly	-9927
▁cathed	-9928
▁cement	-9929
▁cinema	-9930
▁differ	-9931
▁encycl	-9932
▁esteem	-9933
▁exquis	-9934
▁horses	-9935
▁insert	-9936
▁legisl	-9937
▁mapped	-9938
▁mature	-9939
▁motors	-9940
▁pigeon	-9941
▁racist	-9942
▁scaled	-9943
▁speeds	-9944
▁steady	-9945
▁thrust	-9946
▁valued	-9947
adelphia	-9948
fficient	-9949
standing	-9950
▁beetles	-9951
▁donated	-9952
▁epiphan	-9953
▁filling	-9954
▁heating	-9955
▁madness	-9956
▁pricing	-9957
▁primate	-9958
▁scaling	-9959
▁simpler	-9960
▁superst	-9961
▁accompan	-9962
▁centered	-9963
▁expanded	-9964
▁fragment	-9965
▁guerrill	-9966
▁guidance	-9967
▁lifespan	-9968
▁multiply	-9969
▁plastics	-9970
▁promises	-9971
▁pursuing	-9972
▁reactors	-9973
▁tangible	-9974
▁virginia	-9975
▁accepting	-9976
▁campaigns	-9977
▁commodity	-9978
▁compounds	-9979
▁confusion	-9980
▁fishermen	-9981
▁phenomena	-9982
▁qualified	-9983
▁visualize	-9984
▁accurately	-9985
▁apartments	-9986
▁australian	-9987
▁conceptual	-9988
▁courageous	-9989
▁executives	-9990
▁immigrants	-9991
▁imperative	-9992
▁metabolism	-9993
▁narratives	-9994
▁pedestrian	-9995
▁relativity	-9996
▁systematic	-9997
▁competitors	-9998
▁frustration	-9999
▁integration	-10000
▁mississippi	-10001
▁progression	-10002
▁psychiatric	-10003
▁publication	-10004
▁unnecessary	-10005
▁difficulties	-10006
▁exploitation	-10007
▁philadelphia	-10008
▁collaborators	-10009
▁incarceration	-10010
cha	-10011
cin	-10012
idi	-10013
kel	-10014
▁54	-10015
▁iq	-10016
▁rs	-10017
▁sr	-10018
amas	-10019
igan	-10020
mony	-10021
oids	-10022
rypt	-10023
seen	-10024
step	-10025
▁bip	-10026
▁cem	-10027
▁coh	-10028
▁cum	-10029
▁gee	-10030
▁jun	-10031
▁jur	-10032
▁pee	-10033
▁rna	-10034
▁rod	-10035
▁tsh	-10036
▁wip	-10037
arted	-10038
ffiti	-10039
idesp	-10040
ierra	-10041
rimin	-10042
verts	-10043
▁beeh	-10044
▁clap	-10045
▁cube	-10046
▁delt	-10047
▁moms	-10048
▁mund	-10049
▁plut	-10050
▁pose	-10051
advant	-10052
atible	-10053
inable	-10054
itated	-10055
rators	-10056
ulates	-10057
ulture	-10058
▁dates	-10059
▁delhi	-10060
▁drama	-10061
▁flick	-10062
▁forum	-10063
▁higgs	-10064
▁jeans	-10065
▁juice	-10066
▁kidna	-10067
▁kosov	-10068
▁picks	-10069
▁spare	-10070
▁tenth	-10071
▁yeast	-10072
ouncing	-10073
▁abroad	-10074
▁boards	-10075
▁brands	-10076
▁casual	-10077
▁edward	-10078
▁ethnic	-10079
▁exotic	-10080
▁filmed	-10081
▁format	-10082
▁freeze	-10083
▁givers	-10084
▁lasted	-10085
▁marked	-10086
▁mixing	-10087
▁modest	-10088
▁reflex	-10089
▁remitt	-10090
▁rooted	-10091
▁taller	-10092
▁tender	-10093
▁triang	-10094
▁triple	-10095
▁widesp	-10096
restrial	-10097
▁buttons	-10098
▁compens	-10099
▁denmark	-10100
▁digging	-10101
▁enzymes	-10102
▁eternal	-10103
▁forgive	-10104
▁frontal	-10105
▁gesture	-10106
▁greatly	-10107
▁intimid	-10108
▁jeopard	-10109
▁justify	-10110
▁knocked	-10111
▁minimal	-10112
▁pigment	-10113
▁proport	-10114
▁relates	-10115
▁richest	-10116
▁stagger	-10117
▁streams	-10118
▁sulfide	-10119
▁switzer	-10120
▁terrain	-10121
▁tightly	-10122
▁wrapped	-10123
▁brooklyn	-10124
▁calendar	-10125
▁composed	-10126
▁dementia	-10127
▁deployed	-10128
▁equipped	-10129
▁gigantic	-10130
▁graffiti	-10131
▁intimacy	-10132
▁mattered	-10133
▁parasite	-10134
▁societal	-10135
▁superior	-10136
▁thinkers	-10137
▁affection	-10138
▁astronomy	-10139
▁cockroach	-10140
▁committee	-10141
▁convicted	-10142
▁describes	-10143
▁disadvant	-10144
▁geography	-10145
▁histories	-10146
▁migration	-10147
▁mushrooms	-10148
▁neocortex	-10149
▁pediatric	-10150
▁reinforce	-10151
▁southeast	-10152
▁successes	-10153
▁witnessed	-10154
▁adaptation	-10155
▁centimeter	-10156
▁determines	-10157
▁disruption	-10158
▁encycloped	-10159
▁millennium	-10160
▁physiology	-10161
▁professors	-10162
▁projection	-10163
▁protective	-10164
▁responding	-10165
▁symmetries	-10166
▁widespread	-10167
▁commodities	-10168
▁democracies	-10169
▁frequencies	-10170
▁problematic	-10171
▁researching	-10172
▁stereotypes	-10173
▁switzerland	-10174
▁deliberately	-10175
▁partnerships	-10176
▁approximately	-10177
aby	-10178
ava	-10179
rie	-10180
see	-10181
▁98	-10182
▁wi	-10183
arth	-10184
atts	-10185
flix	-10186
nedy	-10187
odyn	-10188
olar	-10189
olis	-10190
oric	-10191
oter	-10192
pack	-10193
teen	-10194
▁bid	-10195
▁hmm	-10196
▁ire	-10197
▁jen	-10198
▁max	-10199
▁vig	-10200
▁von	-10201
▁wil	-10202
anges	-10203
ansas	-10204
berty	-10205
brush	-10206
ceton	-10207
gebra	-10208
naiss	-10209
▁bent	-10210
▁cram	-10211
▁cuba	-10212
▁dean	-10213
▁fred	-10214
▁gosh	-10215
▁narc	-10216
▁ngos	-10217
▁nike	-10218
▁oecd	-10219
▁shed	-10220
▁skip	-10221
▁temp	-10222
apters	-10223
estone	-10224
iments	-10225
▁acute	-10226
▁ambul	-10227
▁beats	-10228
▁decor	-10229
▁donor	-10230
▁doses	-10231
▁escal	-10232
▁fails	-10233
▁fraud	-10234
▁incom	-10235
▁laure	-10236
▁lobby	-10237
▁noble	-10238
▁occas	-10239
▁piles	-10240
▁polls	-10241
▁rides	-10242
▁scand	-10243
▁spike	-10244
▁strat	-10245
▁sucks	-10246
▁tanks	-10247
▁typef	-10248
▁wires	-10249
attered	-10250
ounding	-10251
▁150000	-10252
▁abused	-10253
▁alumin	-10254
▁betray	-10255
▁cardio	-10256
▁clicks	-10257
▁dyslex	-10258
▁enrich	-10259
▁hatred	-10260
▁hebrew	-10261
▁hippoc	-10262
▁insult	-10263
▁ladder	-10264
▁learns	-10265
▁lifted	-10266
▁makeup	-10267
▁mascul	-10268
▁nathan	-10269
▁openly	-10270
▁poorly	-10271
▁rolled	-10272
▁scheme	-10273
▁senate	-10274
▁stairs	-10275
▁tricky	-10276
▁wished	-10277
▁wounds	-10278
▁writes	-10279
vascular	-10280
ventions	-10281
▁atlanta	-10282
▁bananas	-10283
▁confirm	-10284
▁counted	-10285
▁crushed	-10286
▁earning	-10287
▁expense	-10288
▁explode	-10289
▁israeli	-10290
▁kennedy	-10291
▁mixture	-10292
▁needing	-10293
▁netflix	-10294
▁nonviol	-10295
▁pleased	-10296
▁pouring	-10297
▁reinfor	-10298
▁talents	-10299
condition	-10300
naissance	-10301
▁acoustic	-10302
▁balanced	-10303
▁basement	-10304
▁chapters	-10305
▁coverage	-10306
▁fairness	-10307
▁invasion	-10308
▁michigan	-10309
▁missions	-10310
▁outbreak	-10311
▁presents	-10312
▁procrast	-10313
▁register	-10314
▁simulate	-10315
▁steering	-10316
▁supports	-10317
▁artifacts	-10318
▁assembled	-10319
▁cardboard	-10320
▁democrats	-10321
▁exercises	-10322
▁followers	-10323
▁humankind	-10324
▁illnesses	-10325
▁jefferson	-10326
▁launching	-10327
▁libraries	-10328
▁princeton	-10329
▁promising	-10330
▁promoting	-10331
▁recession	-10332
▁supercond	-10333
▁accounting	-10334
▁disappears	-10335
▁discomfort	-10336
▁explicitly	-10337
▁harassment	-10338
▁inventions	-10339
▁opposition	-10340
▁passengers	-10341
▁renewables	-10342
▁staggering	-10343
▁calculating	-10344
▁celebrating	-10345
▁complaining	-10346
▁conferences	-10347
▁destination	-10348
▁dysfunction	-10349
▁immortality	-10350
▁motivations	-10351
▁progressive	-10352
▁questioning	-10353
▁calculations	-10354
▁perspectives	-10355
▁interventions	-10356
cs	-10357
iza	-10358
▁53	-10359
▁96	-10360
▁bj	-10361
ergy	-10362
hors	-10363
ithm	-10364
oral	-10365
tech	-10366
▁abn	-10367
▁adh	-10368
▁cof	-10369
▁cul	-10370
▁fog	-10371
▁gru	-10372
▁hij	-10373
▁til	-10374
▁wiz	-10375
apses	-10376
atson	-10377
ccoli	-10378
heads	-10379
icism	-10380
itute	-10381
ocity	-10382
phony	-10383
ppers	-10384
stics	-10385
▁clar	-10386
▁glue	-10387
▁grey	-10388
▁mast	-10389
▁orth	-10390
▁pity	-10391
▁reck	-10392
▁seti	-10393
▁swam	-10394
▁thes	-10395
▁worn	-10396
irling	-10397
ograms	-10398
ounded	-10399
ranean	-10400
stairs	-10401
ulsion	-10402
violet	-10403
▁attor	-10404
▁clips	-10405
▁congr	-10406
▁dimin	-10407
▁embod	-10408
▁halls	-10409
▁idiot	-10410
▁larry	-10411
▁moist	-10412
▁paran	-10413
▁petri	-10414
▁royal	-10415
▁saint	-10416
▁smugg	-10417
▁stunt	-10418
▁tibet	-10419
▁trium	-10420
▁zeros	-10421
idelity	-10422
▁bumble	-10423
▁colomb	-10424
▁crispr	-10425
▁famine	-10426
▁irrele	-10427
▁issued	-10428
▁noises	-10429
▁orgasm	-10430
▁shield	-10431
▁slaves	-10432
▁sought	-10433
▁typing	-10434
▁underm	-10435
▁wooden	-10436
▁blessed	-10437
▁copying	-10438
▁dangers	-10439
▁diamond	-10440
▁folding	-10441
▁grandma	-10442
▁honesty	-10443
▁inherit	-10444
▁inspect	-10445
▁ireland	-10446
▁laptops	-10447
▁mundane	-10448
▁nursing	-10449
▁premise	-10450
▁puberty	-10451
▁regrets	-10452
▁retired	-10453
▁shadows	-10454
▁shining	-10455
▁shipped	-10456
▁squared	-10457
▁viewing	-10458
▁winners	-10459
▁alliance	-10460
▁analyzed	-10461
▁broccoli	-10462
▁cheating	-10463
▁chickens	-10464
▁contexts	-10465
▁duration	-10466
▁embraced	-10467
▁enjoying	-10468
▁friction	-10469
▁injuries	-10470
▁marathon	-10471
▁membrane	-10472
▁operates	-10473
▁persuade	-10474
▁prevents	-10475
▁prolifer	-10476
▁purchase	-10477
▁relation	-10478
▁suburban	-10479
▁superher	-10480
▁synapses	-10481
▁activated	-10482
▁automatic	-10483
▁bombsight	-10484
▁breakdown	-10485
▁cigarette	-10486
▁emergence	-10487
▁enlighten	-10488
▁fictional	-10489
▁marriages	-10490
▁metabolic	-10491
▁millennia	-10492
▁negotiate	-10493
▁parachute	-10494
▁strangely	-10495
▁summarize	-10496
▁therapist	-10497
▁dependence	-10498
▁interfaces	-10499
▁internship	-10500
▁playground	-10501
▁reasonably	-10502
▁reflecting	-10503
▁translator	-10504
▁unintended	-10505
▁composition	-10506
▁replacement	-10507
▁sensitivity	-10508
▁statistical	-10509
▁trustworthy	-10510
▁ultraviolet	-10511
▁accelerating	-10512
▁disappointed	-10513
▁reproduction	-10514
▁contradiction	-10515
▁independently	-10516
▁presentations	-10517
▁transformations	-10518
80	-10519
sp	-10520
aud	-10521
bee	-10522
dra	-10523
fus	-10524
hah	-10525
hyd	-10526
ini	-10527
lah	-10528
ods	-10529
org	-10530
pox	-10531
rer	-10532
sum	-10533
▁64	-10534
▁84	-10535
▁dp	-10536
asha	-10537
asma	-10538
fare	-10539
flow	-10540
irst	-10541
itia	-10542
mare	-10543
omic	-10544
pers	-10545
pple	-10546
rans	-10547
rons	-10548
tles	-10549
ylum	-10550
zler	-10551
▁202	-10552
▁caf	-10553
▁cpu	-10554
▁joe	-10555
▁naz	-10556
▁sta	-10557
▁tid	-10558
▁zip	-10559
enter	-10560
imens	-10561
owder	-10562
state	-10563
▁1997	-10564
▁1998	-10565
▁8000	-10566
▁amyl	-10567
▁barg	-10568
▁bulb	-10569
▁bund	-10570
▁conj	-10571
▁cups	-10572
▁hump	-10573
▁nurt	-10574
▁oven	-10575
▁snap	-10576
▁stum	-10577
▁tips	-10578
▁todd	-10579
▁tomb	-10580
▁yawn	-10581
▁zamb	-10582
atical	-10583
comput	-10584
engine	-10585
orship	-10586
▁acres	-10587
▁adequ	-10588
▁boots	-10589
▁chore	-10590
▁crust	-10591
▁essay	-10592
▁facil	-10593
▁fatty	-10594
▁favel	-10595
▁fleet	-10596
▁forty	-10597
▁ghost	-10598
▁gifts	-10599
▁hurts	-10600
▁incub	-10601
▁jones	-10602
▁morph	-10603
▁namib	-10604
▁offsh	-10605
▁olive	-10606
▁overd	-10607
▁poles	-10608
▁poses	-10609
▁pulse	-10610
▁recur	-10611
▁simon	-10612
▁steep	-10613
▁tuned	-10614
enhagen	-10615
ologies	-10616
▁alaska	-10617
▁ballet	-10618
▁behold	-10619
▁beside	-10620
▁biases	-10621
▁bounce	-10622
▁bucket	-10623
▁cables	-10624
▁candle	-10625
▁copies	-10626
▁corrid	-10627
▁cosmos	-10628
▁defect	-10629
▁donald	-10630
▁enters	-10631
▁entity	-10632
▁finite	-10633
▁fixing	-10634
▁fluctu	-10635
▁graphs	-10636
▁heroin	-10637
▁hiring	-10638
▁hybrid	-10639
▁joshua	-10640
▁masses	-10641
▁pollut	-10642
▁reluct	-10643
▁server	-10644
▁sierra	-10645
▁snakes	-10646
▁spiral	-10647
▁strand	-10648
▁submit	-10649
▁theirs	-10650
▁troops	-10651
▁turing	-10652
▁uncont	-10653
▁undert	-10654
▁upgrad	-10655
▁watson	-10656
▁winner	-10657
▁abandon	-10658
▁accused	-10659
▁ashamed	-10660
▁catalog	-10661
▁congrat	-10662
▁crashes	-10663
▁disagre	-10664
▁kidding	-10665
▁locally	-10666
▁outdoor	-10667
▁portray	-10668
▁surveys	-10669
▁teszler	-10670
▁texting	-10671
▁triumph	-10672
▁volumes	-10673
▁adjacent	-10674
▁alphabet	-10675
▁aluminum	-10676
▁cambodia	-10677
▁colorful	-10678
▁commonly	-10679
▁communal	-10680
▁confined	-10681
▁employer	-10682
▁gestures	-10683
▁improvis	-10684
▁jeopardy	-10685
▁meantime	-10686
▁memorial	-10687
▁minerals	-10688
▁minimize	-10689
▁modeling	-10690
▁planting	-10691
▁remotely	-10692
▁shortcut	-10693
▁smallpox	-10694
▁speeches	-10695
▁tolerant	-10696
▁unaccept	-10697
▁visitors	-10698
▁emphasize	-10699
▁mutations	-10700
▁nightmare	-10701
▁norwegian	-10702
▁packaging	-10703
▁pervasive	-10704
▁processed	-10705
▁processor	-10706
▁slaughter	-10707
▁triggered	-10708
▁attachment	-10709
▁christians	-10710
▁compressed	-10711
▁connectome	-10712
▁continents	-10713
▁copenhagen	-10714
▁distribute	-10715
▁ingredient	-10716
▁invitation	-10717
▁ironically	-10718
▁irrelevant	-10719
▁prosecutor	-10720
▁registered	-10721
▁catastrophe	-10722
▁efficiently	-10723
▁exponential	-10724
▁forgiveness	-10725
▁implemented	-10726
▁renaissance	-10727
▁disconnected	-10728
▁philanthropy	-10729
▁significance	-10730
▁authoritarian	-10731
▁participating	-10732
▁scientifically	-10733
ez	-10734
rh	-10735
vy	-10736
ete	-10737
iva	-10738
tsd	-10739
urt	-10740
▁41	-10741
▁57	-10742
▁68	-10743
▁bm	-10744
▁cn	-10745
▁jc	-10746
▁lh	-10747
aver	-10748
bola	-10749
cher	-10750
fire	-10751
ilib	-10752
mart	-10753
ndry	-10754
robi	-10755
ynth	-10756
▁bah	-10757
▁ibm	-10758
▁kit	-10759
▁lak	-10760
▁mcc	-10761
▁mun	-10762
▁onc	-10763
abama	-10764
actic	-10765
bucks	-10766
eable	-10767
front	-10768
oping	-10769
ports	-10770
▁anom	-10771
▁argu	-10772
▁beds	-10773
▁beta	-10774
▁cher	-10775
▁cope	-10776
▁curt	-10777
▁dave	-10778
▁dorm	-10779
▁gaze	-10780
▁impr	-10781
▁mead	-10782
▁meme	-10783
▁menu	-10784
▁merg	-10785
▁pets	-10786
▁resh	-10787
▁symp	-10788
▁warn	-10789
ieties	-10790
inates	-10791
resses	-10792
velope	-10793
▁adren	-10794
▁arena	-10795
▁asset	-10796
▁backs	-10797
▁beast	-10798
▁burns	-10799
▁buses	-10800
▁cairo	-10801
▁camel	-10802
▁crude	-10803
▁ebola	-10804
▁empir	-10805
▁exams	-10806
▁fungi	-10807
▁grind	-10808
▁heter	-10809
▁loops	-10810
▁mommy	-10811
▁nanop	-10812
▁oklah	-10813
▁recip	-10814
▁reper	-10815
▁scope	-10816
▁shred	-10817
▁slave	-10818
atories	-10819
version	-10820
▁asylum	-10821
▁cochle	-10822
▁cooked	-10823
▁copper	-10824
▁cotton	-10825
▁dancer	-10826
▁erotic	-10827
▁floors	-10828
▁fruits	-10829
▁fundra	-10830
▁guides	-10831
▁helium	-10832
▁ironic	-10833
▁jacket	-10834
▁lately	-10835
▁mammal	-10836
▁michel	-10837
▁precip	-10838
▁refere	-10839
▁shares	-10840
▁sheets	-10841
▁tastes	-10842
▁upward	-10843
▁verbal	-10844
▁alabama	-10845
▁algebra	-10846
▁amyloid	-10847
▁antenna	-10848
▁auditor	-10849
▁blocked	-10850
▁broadly	-10851
▁chemist	-10852
▁columns	-10853
▁compact	-10854
▁dispens	-10855
▁everest	-10856
▁evident	-10857
▁forcing	-10858
▁grammar	-10859
▁hacking	-10860
▁liberia	-10861
▁mexican	-10862
▁museums	-10863
▁praying	-10864
▁relying	-10865
▁revenge	-10866
▁rhythms	-10867
▁rockets	-10868
▁satisfy	-10869
▁seventh	-10870
▁tracked	-10871
▁victory	-10872
▁viewers	-10873
▁warrior	-10874
▁withdra	-10875
izational	-10876
▁abortion	-10877
▁athletic	-10878
▁avoiding	-10879
▁cheering	-10880
▁conceive	-10881
▁degraded	-10882
▁diarrhea	-10883
▁envelope	-10884
▁epiphany	-10885
▁frequent	-10886
▁glaciers	-10887
▁glorious	-10888
▁juvenile	-10889
▁offshore	-10890
▁paradise	-10891
▁periodic	-10892
▁peripher	-10893
▁portugal	-10894
▁realizes	-10895
▁referred	-10896
▁scotland	-10897
▁sections	-10898
▁sessions	-10899
▁symbolic	-10900
▁terminal	-10901
▁thorough	-10902
▁visually	-10903
▁assistant	-10904
▁brazilian	-10905
▁confusing	-10906
▁demanding	-10907
▁graduates	-10908
▁hippocamp	-10909
▁impressed	-10910
▁incorrect	-10911
▁intervene	-10912
▁kilometer	-10913
▁lightning	-10914
▁mythology	-10915
▁parasites	-10916
▁secondary	-10917
▁starbucks	-10918
▁submitted	-10919
▁surviving	-10920
▁automation	-10921
▁calculated	-10922
▁culturally	-10923
▁expressing	-10924
▁locomotion	-10925
▁millimeter	-10926
▁politician	-10927
▁priorities	-10928
▁procedures	-10929
▁propaganda	-10930
▁sequencing	-10931
▁solidarity	-10932
▁suggestion	-10933
▁unemployed	-10934
▁backgrounds	-10935
▁celebration	-10936
▁financially	-10937
▁nationalism	-10938
▁neighboring	-10939
▁stimulation	-10940
▁symmetrical	-10941
▁combinations	-10942
▁consistently	-10943
▁disappearing	-10944
▁contributions	-10945
▁establishment	-10946
▁cardiovascular	-10947
▁reconstruction	-10948
▁rehabilitation	-10949
..	-10950
cla	-10951
ebe	-10952
isp	-10953
tha	-10954
uke	-10955
wan	-10956
▁93	-10957
▁dv	-10958
▁yr	-10959
oman	-10960
ords	-10961
plet	-10962
▁ape	-10963
▁cav	-10964
▁dug	-10965
▁hes	-10966
▁len	-10967
▁lol	-10968
▁pap	-10969
▁pel	-10970
▁thy	-10971
▁veg	-10972
▁vin	-10973
chool	-10974
eries	-10975
sored	-10976
▁anth	-10977
▁athe	-10978
▁chin	-10979
▁clut	-10980
▁doaa	-10981
▁fled	-10982
▁panc	-10983
▁quiz	-10984
▁quot	-10985
▁rick	-10986
▁sher	-10987
▁slam	-10988
▁slog	-10989
▁unch	-10990
▁yall	-10991
acious	-10992
arious	-10993
ements	-10994
enance	-10995
ermore	-10996
izable	-10997
orable	-10998
orking	-10999
rained	-11000
rontal	-11001
▁amend	-11002
▁carib	-11003
▁chess	-11004
▁cloth	-11005
▁delta	-11006
▁devil	-11007
▁fetch	-11008
▁fetus	-11009
▁freud	-11010
▁harry	-11011
▁hence	-11012
▁hobby	-11013
▁irrig	-11014
▁keith	-11015
▁lined	-11016
▁linux	-11017
▁maria	-11018
▁memes	-11019
▁merit	-11020
▁penic	-11021
▁rhino	-11022
▁risen	-11023
▁roofs	-11024
▁serge	-11025
▁stamp	-11026
▁sudan	-11027
▁suits	-11028
▁taboo	-11029
▁unple	-11030
▁versa	-11031
▁wrink	-11032
▁yards	-11033
acities	-11034
▁astrol	-11035
▁balcon	-11036
▁carpet	-11037
▁collar	-11038
▁crafts	-11039
▁donate	-11040
▁enzyme	-11041
▁ethics	-11042
▁futura	-11043
▁hunter	-11044
▁kosovo	-11045
▁lastly	-11046
▁lenses	-11047
▁louder	-11048
▁nerves	-11049
▁nonver	-11050
▁pepper	-11051
▁recycl	-11052
▁sahara	-11053
▁slowed	-11054
▁timber	-11055
▁underp	-11056
▁underw	-11057
breaking	-11058
gression	-11059
ilibrium	-11060
▁adrenal	-11061
▁aligned	-11062
▁archive	-11063
▁babylon	-11064
▁crashed	-11065
▁deficit	-11066
▁editing	-11067
▁ethanol	-11068
▁firefly	-11069
▁founder	-11070
▁lebanon	-11071
▁matches	-11072
▁maximum	-11073
▁mediter	-11074
▁mustard	-11075
▁nanomet	-11076
▁painter	-11077
▁quietly	-11078
▁scholar	-11079
▁segment	-11080
▁settled	-11081
▁sexting	-11082
▁shelves	-11083
▁spatial	-11084
▁thermal	-11085
▁uncover	-11086
▁wasting	-11087
▁whisper	-11088
▁worries	-11089
roportion	-11090
▁abnormal	-11091
▁activism	-11092
▁annoying	-11093
▁arriving	-11094
▁backpack	-11095
▁boundary	-11096
▁ceremony	-11097
▁cylinder	-11098
▁diameter	-11099
▁displays	-11100
▁elevated	-11101
▁emergent	-11102
▁enabling	-11103
▁endeavor	-11104
▁executed	-11105
▁flourish	-11106
▁hypothet	-11107
▁impacted	-11108
▁inviting	-11109
▁lightbul	-11110
▁modified	-11111
▁nanopart	-11112
▁oklahoma	-11113
▁schedule	-11114
▁settings	-11115
▁sidewalk	-11116
▁threaten	-11117
▁triggers	-11118
▁velocity	-11119
▁addressed	-11120
▁ambulance	-11121
▁attending	-11122
▁boyfriend	-11123
▁combining	-11124
▁confirmed	-11125
▁container	-11126
▁exclusive	-11127
▁finishing	-11128
▁honeybees	-11129
▁inflation	-11130
▁inventors	-11131
▁practiced	-11132
▁pressures	-11133
▁scenarios	-11134
▁fertilizer	-11135
▁indicators	-11136
▁infinitely	-11137
▁mosquitoes	-11138
▁prefrontal	-11139
▁prescribed	-11140
▁unpleasant	-11141
▁accelerated	-11142
▁astronomers	-11143
▁coincidence	-11144
▁correlation	-11145
▁expectation	-11146
▁flexibility	-11147
▁foundations	-11148
▁furthermore	-11149
▁hippocampus	-11150
▁meaningless	-11151
▁spontaneous	-11152
▁transferred	-11153
▁contaminated	-11154
▁coordination	-11155
▁prostitution	-11156
▁unacceptable	-11157
▁mediterranean	-11158
▁spontaneously	-11159
▁bioluminescence	-11160
▁neuroscientists	-11161
cu	-11162
gbt	-11163
gle	-11164
lla	-11165
oft	-11166
ogs	-11167
tic	-11168
tra	-11169
ype	-11170
▁82	-11171
▁ky	-11172
▁mg	-11173
▁qa	-11174
▁zo	-11175
acco	-11176
beat	-11177
brow	-11178
chem	-11179
ills	-11180
onal	-11181
riad	-11182
tail	-11183
uced	-11184
uled	-11185
umbs	-11186
umen	-11187
velt	-11188
weed	-11189
▁186	-11190
▁187	-11191
▁193	-11192
▁ais	-11193
▁cue	-11194
▁eru	-11195
▁lid	-11196
▁lyn	-11197
▁muh	-11198
▁nod	-11199
▁tob	-11200
arium	-11201
backs	-11202
herom	-11203
illin	-11204
inous	-11205
itary	-11206
oscop	-11207
roots	-11208
▁bing	-11209
▁carn	-11210
▁cops	-11211
▁corp	-11212
▁dash	-11213
▁eats	-11214
▁echo	-11215
▁eman	-11216
▁encl	-11217
▁leak	-11218
▁lgbt	-11219
▁liby	-11220
▁nail	-11221
▁nour	-11222
▁peru	-11223
▁pipe	-11224
▁plum	-11225
▁ptsd	-11226
▁raft	-11227
▁sums	-11228
▁tire	-11229
▁trib	-11230
▁tues	-11231
▁unhe	-11232
▁wets	-11233
▁womb	-11234
▁zimb	-11235
lihood	-11236
▁12000	-11237
▁25000	-11238
▁anecd	-11239
▁arrog	-11240
▁crawl	-11241
▁daddy	-11242
▁draws	-11243
▁emily	-11244
▁frees	-11245
▁frogs	-11246
▁jerry	-11247
▁jokes	-11248
▁kilos	-11249
▁kings	-11250
▁lakes	-11251
▁limbs	-11252
▁qaeda	-11253
▁races	-11254
▁radar	-11255
▁relev	-11256
▁reuse	-11257
▁riots	-11258
▁rolls	-11259
▁stiff	-11260
▁texts	-11261
▁verge	-11262
▁wreck	-11263
cending	-11264
sterdam	-11265
ulators	-11266
ulatory	-11267
▁assure	-11268
▁cortis	-11269
▁facult	-11270
▁fueled	-11271
▁greeks	-11272
▁helmet	-11273
▁heroic	-11274
▁hollow	-11275
▁hooked	-11276
▁hugely	-11277
▁interd	-11278
▁labels	-11279
▁marrow	-11280
▁multit	-11281
▁orbits	-11282
▁pherom	-11283
▁plural	-11284
▁powder	-11285
▁prosec	-11286
▁racing	-11287
▁reimag	-11288
▁replen	-11289
▁segreg	-11290
▁strang	-11291
▁tapirs	-11292
▁testim	-11293
▁turbul	-11294
▁violin	-11295
▁warren	-11296
attering	-11297
ensively	-11298
ervation	-11299
▁artwork	-11300
▁bargain	-11301
▁biochem	-11302
▁bluefin	-11303
▁caltech	-11304
▁cardiac	-11305
▁charlie	-11306
▁climbed	-11307
▁desktop	-11308
▁devoted	-11309
▁domitia	-11310
▁gallons	-11311
▁illiter	-11312
▁infants	-11313
▁iranian	-11314
▁leopard	-11315
▁lesbian	-11316
▁linking	-11317
▁microbi	-11318
▁montana	-11319
▁monthly	-11320
▁pillars	-11321
▁ringing	-11322
▁rituals	-11323
▁sneaker	-11324
▁subsequ	-11325
▁thereby	-11326
▁tuesday	-11327
▁warfare	-11328
▁altitude	-11329
▁biofuels	-11330
▁collagen	-11331
▁contents	-11332
▁damaging	-11333
▁daylight	-11334
▁declined	-11335
▁directed	-11336
▁festival	-11337
▁founding	-11338
▁gasoline	-11339
▁geograph	-11340
▁memorize	-11341
▁mobilize	-11342
▁oriented	-11343
▁pipeline	-11344
▁potatoes	-11345
▁pristine	-11346
▁reacting	-11347
▁responds	-11348
▁revenues	-11349
▁smartest	-11350
▁weekends	-11351
▁workshop	-11352
▁amsterdam	-11353
▁argentina	-11354
▁blindness	-11355
▁cognition	-11356
▁cultivate	-11357
▁distorted	-11358
▁employers	-11359
▁ethnicity	-11360
▁exquisite	-11361
▁extremism	-11362
▁filmmaker	-11363
▁forprofit	-11364
▁immigrant	-11365
▁magazines	-11366
▁northeast	-11367
▁preferred	-11368
▁prejudice	-11369
▁providers	-11370
▁resonance	-11371
▁sharehold	-11372
▁strongest	-11373
▁sustained	-11374
▁switching	-11375
▁attributes	-11376
▁auditorium	-11377
▁beneficial	-11378
▁conviction	-11379
▁exceptions	-11380
▁expressive	-11381
▁influences	-11382
▁innovators	-11383
▁measurable	-11384
▁satisfying	-11385
▁arrangement	-11386
▁calculation	-11387
▁centimeters	-11388
▁contributed	-11389
▁documentary	-11390
▁equilibrium	-11391
▁eradication	-11392
▁exceptional	-11393
▁identifying	-11394
▁illustrates	-11395
▁mammography	-11396
▁surroundings	-11397
▁consideration	-11398
▁disproportion	-11399
▁underestimate	-11400
▁electromagnetic	-11401
gy	-11402
aic	-11403
ubs	-11404
zer	-11405
zzy	-11406
▁74	-11407
▁78	-11408
▁ay	-11409
▁ks	-11410
▁rg	-11411
abad	-11412
abwe	-11413
arer	-11414
arks	-11415
fits	-11416
gien	-11417
ican	-11418
iful	-11419
lene	-11420
oven	-11421
uate	-11422
ucky	-11423
urbs	-11424
warf	-11425
▁204	-11426
▁ari	-11427
▁esp	-11428
▁fbi	-11429
▁gel	-11430
▁lew	-11431
▁sue	-11432
▁syl	-11433
▁tkm	-11434
allas	-11435
cials	-11436
erers	-11437
gence	-11438
geria	-11439
irika	-11440
oplan	-11441
ource	-11442
plete	-11443
stick	-11444
vania	-11445
vanna	-11446
▁1945	-11447
▁1975	-11448
▁1994	-11449
▁airb	-11450
▁cafe	-11451
▁coca	-11452
▁craw	-11453
▁deci	-11454
▁dome	-11455
▁exit	-11456
▁extr	-11457
▁eyed	-11458
▁folk	-11459
▁gaza	-11460
▁goss	-11461
▁horn	-11462
▁kite	-11463
▁lane	-11464
▁lump	-11465
▁memo	-11466
▁neon	-11467
▁nerd	-11468
▁sabb	-11469
▁skys	-11470
▁slip	-11471
▁stew	-11472
▁troy	-11473
▁tuck	-11474
▁twel	-11475
irable	-11476
lethal	-11477
otonin	-11478
otrans	-11479
redict	-11480
ukemia	-11481
▁15000	-11482
▁amino	-11483
▁angel	-11484
▁appar	-11485
▁blade	-11486
▁dwarf	-11487
▁gamma	-11488
▁inexp	-11489
▁lanes	-11490
▁paste	-11491
▁pearl	-11492
▁penet	-11493
▁petro	-11494
▁punct	-11495
▁rains	-11496
▁rooft	-11497
▁slipp	-11498
▁slope	-11499
▁swing	-11500
▁teddy	-11501
▁tyran	-11502
▁unfin	-11503
▁unrel	-11504
▁vapor	-11505
▁wiped	-11506
▁wrist	-11507
natural	-11508
ocratic	-11509
ophobia	-11510
usively	-11511
▁benign	-11512
▁buddha	-11513
▁defeat	-11514
▁embass	-11515
▁expose	-11516
▁fierce	-11517
▁forbid	-11518
▁hygien	-11519
▁indoor	-11520
▁intend	-11521
▁joyful	-11522
▁kansas	-11523
▁loaded	-11524
▁miscon	-11525
▁myriad	-11526
▁nicely	-11527
▁poured	-11528
▁provin	-11529
▁queens	-11530
▁refram	-11531
▁salary	-11532
▁sticky	-11533
▁stocks	-11534
▁thesis	-11535
▁unseen	-11536
▁viscer	-11537
▁airline	-11538
▁anytime	-11539
▁athlete	-11540
▁biotech	-11541
▁bravery	-11542
▁claimed	-11543
▁cracked	-11544
▁crowded	-11545
▁epidemi	-11546
▁exoplan	-11547
▁eyebrow	-11548
▁genomes	-11549
▁grounds	-11550
▁hackers	-11551
▁hallway	-11552
▁honored	-11553
▁influen	-11554
▁isirika	-11555
▁literal	-11556
▁lithium	-11557
▁looting	-11558
▁loyalty	-11559
▁namibia	-11560
▁natasha	-11561
▁phrases	-11562
▁prevail	-11563
▁relaxed	-11564
▁savanna	-11565
▁scripts	-11566
▁sensing	-11567
▁summary	-11568
▁utility	-11569
▁weighed	-11570
▁wildebe	-11571
istically	-11572
▁absorbed	-11573
▁adaptive	-11574
▁addicted	-11575
▁ancestor	-11576
▁churches	-11577
▁clicking	-11578
▁colorado	-11579
▁constell	-11580
▁cortisol	-11581
▁creators	-11582
▁deprived	-11583
▁deterior	-11584
▁diagnose	-11585
▁donation	-11586
▁genomics	-11587
▁grounded	-11588
▁implicit	-11589
▁indirect	-11590
▁insisted	-11591
▁leukemia	-11592
▁literacy	-11593
▁motivate	-11594
▁notebook	-11595
▁petition	-11596
▁policing	-11597
▁pressing	-11598
▁rainfall	-11599
▁reporter	-11600
▁rewarded	-11601
▁scalable	-11602
▁stealing	-11603
▁stunning	-11604
▁toughest	-11605
▁unhealth	-11606
▁uniquely	-11607
▁zimbabwe	-11608
▁appealing	-11609
▁cathedral	-11610
▁competent	-11611
▁databases	-11612
▁educators	-11613
▁eradicate	-11614
▁exclusion	-11615
▁genuinely	-11616
▁gratitude	-11617
▁indicates	-11618
▁ingenious	-11619
▁ingenuity	-11620
▁logistics	-11621
▁marvelous	-11622
▁metaphors	-11623
▁mysteries	-11624
▁nonlethal	-11625
▁northwest	-11626
▁reconnect	-11627
▁resulting	-11628
▁serotonin	-11629
▁trillions	-11630
▁universes	-11631
▁unpredict	-11632
▁vegetable	-11633
▁worldview	-11634
▁advantages	-11635
▁contagious	-11636
▁contracept	-11637
▁depressing	-11638
▁enthusiasm	-11639
▁filmmakers	-11640
▁fulfilling	-11641
▁likelihood	-11642
▁microorgan	-11643
▁networking	-11644
▁penicillin	-11645
▁perceptual	-11646
▁phenomenal	-11647
▁questioned	-11648
▁randomness	-11649
▁repetition	-11650
▁suspicious	-11651
▁unfinished	-11652
▁vaccinated	-11653
▁worthwhile	-11654
▁appreciated	-11655
▁butterflies	-11656
▁conclusions	-11657
▁counterpart	-11658
▁countryside	-11659
▁deprivation	-11660
▁initiatives	-11661
▁simulations	-11662
▁temporarily	-11663
▁neurogenesis	-11664
▁polarization	-11665
▁breakthroughs	-11666
▁enlightenment	-11667
▁exponentially	-11668
▁investigating	-11669
▁philosophical	-11670
▁organizational	-11671
▁entrepreneurial	-11672
aba	-11673
alo	-11674
eed	-11675
min	-11676
nia	-11677
ois	-11678
opa	-11679
syl	-11680
una	-11681
▁cs	-11682
▁ea	-11683
▁ny	-11684
atus	-11685
cile	-11686
core	-11687
iege	-11688
irth	-11689
itis	-11690
neum	-11691
play	-11692
roit	-11693
stru	-11694
▁180	-11695
▁900	-11696
▁aha	-11697
▁bil	-11698
▁bou	-11699
▁gib	-11700
▁jig	-11701
▁oak	-11702
▁owe	-11703
▁plu	-11704
▁rus	-11705
ammad	-11706
aurus	-11707
gency	-11708
ilage	-11709
lings	-11710
osure	-11711
phing	-11712
pling	-11713
sight	-11714
ymmet	-11715
▁bern	-11716
▁boot	-11717
▁brig	-11718
▁casc	-11719
▁cola	-11720
▁cran	-11721
▁croc	-11722
▁dens	-11723
▁dual	-11724
▁gait	-11725
▁hect	-11726
▁herb	-11727
▁merc	-11728
▁mini	-11729
▁monk	-11730
▁nano	-11731
▁node	-11732
▁odor	-11733
▁ohio	-11734
▁pent	-11735
▁ramp	-11736
▁slee	-11737
▁spra	-11738
▁stir	-11739
▁taxi	-11740
▁tedx	-11741
icable	-11742
ricate	-11743
▁agile	-11744
▁apoll	-11745
▁bikes	-11746
▁brick	-11747
▁crank	-11748
▁crick	-11749
▁cured	-11750
▁dealt	-11751
▁eager	-11752
▁fairy	-11753
▁fonts	-11754
▁glory	-11755
▁handy	-11756
▁homic	-11757
▁inert	-11758
▁insur	-11759
▁ketch	-11760
▁loser	-11761
▁robin	-11762
▁samar	-11763
▁sells	-11764
▁sheer	-11765
▁shiny	-11766
▁surpl	-11767
▁swear	-11768
▁tones	-11769
▁twins	-11770
▁ushah	-11771
▁verte	-11772
▁waist	-11773
alities	-11774
osexual	-11775
▁300000	-11776
▁angels	-11777
▁backup	-11778
▁behead	-11779
▁biased	-11780
▁biling	-11781
▁carrot	-11782
▁cloudy	-11783
▁elders	-11784
▁embryo	-11785
▁evapor	-11786
▁evergl	-11787
▁falcon	-11788
▁gamers	-11789
▁guided	-11790
▁heated	-11791
▁joints	-11792
▁lander	-11793
▁lester	-11794
▁litter	-11795
▁metrop	-11796
▁petals	-11797
▁poetic	-11798
▁rovers	-11799
▁spouse	-11800
▁strive	-11801
▁suburb	-11802
aculture	-11803
ceptible	-11804
sylvania	-11805
▁abusive	-11806
▁altered	-11807
▁amateur	-11808
▁applaud	-11809
▁aquatic	-11810
▁browser	-11811
▁chaotic	-11812
▁compute	-11813
▁coupled	-11814
▁crosses	-11815
▁detroit	-11816
▁divides	-11817
▁durable	-11818
▁equator	-11819
▁faculty	-11820
▁flipped	-11821
▁genital	-11822
▁laundry	-11823
▁lucifer	-11824
▁magnets	-11825
▁margins	-11826
▁mineral	-11827
▁nurture	-11828
▁pandora	-11829
▁partial	-11830
▁pressed	-11831
▁reduces	-11832
▁scanned	-11833
▁seasons	-11834
▁spirits	-11835
▁suburbs	-11836
▁symptom	-11837
▁technic	-11838
▁upwards	-11839
▁vicious	-11840
▁vitamin	-11841
▁watches	-11842
▁aircraft	-11843
▁alarming	-11844
▁auditory	-11845
▁certific	-11846
▁civilian	-11847
▁clapping	-11848
▁columbia	-11849
▁journeys	-11850
▁muhammad	-11851
▁murdered	-11852
▁observer	-11853
▁operated	-11854
▁operator	-11855
▁optimize	-11856
▁passions	-11857
▁plankton	-11858
▁producer	-11859
▁quantity	-11860
▁railroad	-11861
▁reconcil	-11862
▁reminder	-11863
▁secretly	-11864
▁sounding	-11865
▁temporal	-11866
▁timeline	-11867
▁treasure	-11868
▁adaptable	-11869
▁afterward	-11870
▁arbitrary	-11871
▁bacterial	-11872
▁caribbean	-11873
▁cartilage	-11874
▁certainty	-11875
▁coworkers	-11876
▁dominance	-11877
▁firsthand	-11878
▁historian	-11879
▁indicator	-11880
▁masculine	-11881
▁obsession	-11882
▁partially	-11883
▁prominent	-11884
▁propelled	-11885
▁recovered	-11886
▁releasing	-11887
▁remembers	-11888
▁stretched	-11889
▁unhealthy	-11890
▁visionary	-11891
▁voluntary	-11892
▁waterfall	-11893
▁adventures	-11894
▁beekeepers	-11895
▁collisions	-11896
▁eliminated	-11897
▁encounters	-11898
▁grassroots	-11899
▁incomplete	-11900
▁parameters	-11901
▁pollutants	-11902
▁predicting	-11903
▁recognizes	-11904
▁abstraction	-11905
▁collaborate	-11906
▁cybercrimin	-11907
▁disciplines	-11908
▁fingerprint	-11909
▁incremental	-11910
▁integrating	-11911
▁introducing	-11912
▁maintenance	-11913
▁methodology	-11914
▁permanently	-11915
▁preventable	-11916
▁prosecutors	-11917
▁recruitment	-11918
▁remittances	-11919
▁storyteller	-11920
▁supercomput	-11921
▁transaction	-11922
▁willingness	-11923
▁accidentally	-11924
▁accumulation	-11925
▁broadcasting	-11926
▁hypothetical	-11927
▁interviewing	-11928
▁marginalized	-11929
▁pennsylvania	-11930
▁comprehensive	-11931
▁experimenting	-11932
▁statistically	-11933
▁mathematically	-11934
▁nanotechnology	-11935
ati	-11936
aws	-11937
civ	-11938
low	-11939
nut	-11940
ppy	-11941
raz	-11942
xed	-11943
▁58	-11944
▁94	-11945
▁fm	-11946
▁nr	-11947
▁rl	-11948
▁sb	-11949
▁uv	-11950
acle	-11951
angi	-11952
arin	-11953
bery	-11954
ctar	-11955
dles	-11956
eman	-11957
hops	-11958
icip	-11959
ighs	-11960
ileo	-11961
inda	-11962
mann	-11963
opsy	-11964
uten	-11965
vors	-11966
▁160	-11967
▁cri	-11968
▁hug	-11969
▁jac	-11970
▁nai	-11971
▁obe	-11972
▁pav	-11973
▁pup	-11974
▁xen	-11975
ancou	-11976
aving	-11977
kings	-11978
liers	-11979
press	-11980
raged	-11981
ridge	-11982
wired	-11983
▁1920	-11984
▁1984	-11985
▁1993	-11986
▁1995	-11987
▁7000	-11988
▁atro	-11989
▁belo	-11990
▁cane	-11991
▁chol	-11992
▁crab	-11993
▁fork	-11994
▁fost	-11995
▁inqu	-11996
▁jaze	-11997
▁joel	-11998
▁lure	-11999
▁pops	-12000
▁ruin	-12001
▁sixt	-12002
▁stab	-12003
▁surg	-12004
▁tags	-12005
▁turk	-12006
▁uran	-12007
▁vest	-12008
▁writ	-12009
ancies	-12010
awatts	-12011
olitan	-12012
ussani	-12013
▁arise	-12014
▁beans	-12015
▁choir	-12016
▁enfor	-12017
▁faint	-12018
▁flock	-12019
▁flush	-12020
▁geoff	-12021
▁guine	-12022
▁homin	-12023
▁incon	-12024
▁kelly	-12025
▁leaks	-12026
▁leone	-12027
▁macro	-12028
▁medal	-12029
▁merch	-12030
▁mercy	-12031
▁overt	-12032
▁packs	-12033
▁pneum	-12034
▁poach	-12035
▁resid	-12036
▁roose	-12037
▁ruins	-12038
▁ruled	-12039
▁sanct	-12040
▁scans	-12041
▁scrut	-12042
▁sniff	-12043
▁souls	-12044
▁spine	-12045
▁steak	-12046
▁stink	-12047
▁sunny	-12048
▁tails	-12049
▁trunk	-12050
▁tunis	-12051
▁urine	-12052
rection	-12053
▁250000	-12054
▁affirm	-12055
▁angles	-12056
▁avenue	-12057
▁biomim	-12058
▁copied	-12059
▁costly	-12060
▁dallas	-12061
▁denied	-12062
▁dental	-12063
▁depict	-12064
▁dissem	-12065
▁elites	-12066
▁hacked	-12067
▁hotels	-12068
▁ideals	-12069
▁intest	-12070
▁jersey	-12071
▁judged	-12072
▁junior	-12073
▁laying	-12074
▁mating	-12075
▁mortal	-12076
▁nectar	-12077
▁ninety	-12078
▁radius	-12079
▁rented	-12080
▁respir	-12081
▁scroll	-12082
▁shoots	-12083
▁slices	-12084
▁superf	-12085
▁sylvia	-12086
▁tagged	-12087
▁themes	-12088
▁titles	-12089
▁twelve	-12090
▁unimag	-12091
▁vancou	-12092
▁vastly	-12093
etically	-12094
idelines	-12095
imentary	-12096
▁acquire	-12097
▁adverse	-12098
▁bearing	-12099
▁bending	-12100
▁categor	-12101
▁cleaned	-12102
▁dragged	-12103
▁dreamed	-12104
▁fossils	-12105
▁furious	-12106
▁galileo	-12107
▁generic	-12108
▁heights	-12109
▁jazeera	-12110
▁ketchup	-12111
▁measles	-12112
▁municip	-12113
▁nairobi	-12114
▁neander	-12115
▁persons	-12116
▁philipp	-12117
▁placing	-12118
▁playful	-12119
▁posters	-12120
▁rainbow	-12121
▁redisco	-12122
▁reperto	-12123
▁replied	-12124
▁reveals	-12125
▁shaping	-12126
▁sincere	-12127
▁spheres	-12128
▁strains	-12129
▁tourism	-12130
▁turtles	-12131
▁upright	-12132
▁vibrant	-12133
▁walmart	-12134
▁wolfram	-12135
▁wounded	-12136
icultural	-12137
▁bicycles	-12138
▁buddhist	-12139
▁catalyst	-12140
▁colleges	-12141
▁colonial	-12142
▁consolid	-12143
▁diplomat	-12144
▁distress	-12145
▁dividing	-12146
▁drowning	-12147
▁dyslexia	-12148
▁episodes	-12149
▁exposing	-12150
▁giussani	-12151
▁immortal	-12152
▁improves	-12153
▁insecure	-12154
▁mcdonald	-12155
▁predicts	-12156
▁searches	-12157
▁suitcase	-12158
▁symphony	-12159
▁tolerate	-12160
▁ushahidi	-12161
▁virtuous	-12162
▁asteroids	-12163
▁attacking	-12164
▁attempted	-12165
▁balancing	-12166
▁concluded	-12167
▁deception	-12168
▁discourse	-12169
▁educating	-12170
▁explorers	-12171
▁fragments	-12172
▁imaginary	-12173
▁interfere	-12174
▁listeners	-12175
▁replacing	-12176
▁roosevelt	-12177
▁selective	-12178
▁vancouver	-12179
▁varieties	-12180
▁vibrating	-12181
▁beatboxing	-12182
▁cigarettes	-12183
▁devastated	-12184
▁excellence	-12185
▁frightened	-12186
▁heartbreak	-12187
▁households	-12188
▁linguistic	-12189
▁performers	-12190
▁photosynth	-12191
▁presenting	-12192
▁pretending	-12193
▁prevalence	-12194
▁profitable	-12195
▁references	-12196
▁responsive	-12197
▁revelation	-12198
▁sensations	-12199
▁standpoint	-12200
▁anticipated	-12201
▁atmospheres	-12202
▁bloodstream	-12203
▁departments	-12204
▁distinctive	-12205
▁lightweight	-12206
▁measurement	-12207
▁palestinian	-12208
▁projections	-12209
▁requirement	-12210
▁revelations	-12211
▁suggestions	-12212
▁adaptability	-12213
▁biologically	-12214
▁catastrophic	-12215
▁dictatorship	-12216
▁laboratories	-12217
▁psychiatrist	-12218
▁quantitative	-12219
▁tremendously	-12220
▁functionality	-12221
▁personalities	-12222
▁physiological	-12223
▁understandable	-12224
cor	-12225
hou	-12226
ige	-12227
oen	-12228
oto	-12229
tim	-12230
yer	-12231
▁fg	-12232
▁sd	-12233
alay	-12234
ayer	-12235
bird	-12236
icut	-12237
iflu	-12238
mass	-12239
ople	-12240
owed	-12241
pill	-12242
plan	-12243
ruci	-12244
vens	-12245
▁140	-12246
▁bod	-12247
▁cmu	-12248
▁dor	-12249
▁gur	-12250
▁hud	-12251
▁isa	-12252
▁mcg	-12253
▁mes	-12254
▁mrs	-12255
▁olf	-12256
▁rib	-12257
▁suf	-12258
▁vic	-12259
arial	-12260
conds	-12261
fight	-12262
ineph	-12263
iracy	-12264
luded	-12265
oenix	-12266
ogene	-12267
opoly	-12268
ratic	-12269
setta	-12270
umbai	-12271
▁2500	-12272
▁adhd	-12273
▁bail	-12274
▁bert	-12275
▁cann	-12276
▁deny	-12277
▁ebay	-12278
▁euro	-12279
▁fond	-12280
▁grim	-12281
▁mans	-12282
▁peps	-12283
▁perf	-12284
▁rhet	-12285
▁rode	-12286
▁seam	-12287
▁vend	-12288
erness	-12289
igrade	-12290
ologic	-12291
places	-12292
ppling	-12293
rative	-12294
repres	-12295
vering	-12296
▁allen	-12297
▁antid	-12298
▁bliss	-12299
▁cardi	-12300
▁clich	-12301
▁cohen	-12302
▁coste	-12303
▁cried	-12304
▁danny	-12305
▁firms	-12306
▁flaws	-12307
▁fuzzy	-12308
▁goats	-12309
▁hairs	-12310
▁hedge	-12311
▁indul	-12312
▁jumps	-12313
▁lover	-12314
▁marsh	-12315
▁masks	-12316
▁midst	-12317
▁nerdy	-12318
▁paulo	-12319
▁peaks	-12320
▁pipes	-12321
▁pumps	-12322
▁salad	-12323
▁sarah	-12324
▁shuff	-12325
▁squir	-12326
▁valve	-12327
ilation	-12328
ocative	-12329
respect	-12330
writing	-12331
▁backed	-12332
▁banana	-12333
▁batman	-12334
▁blooms	-12335
▁cerebr	-12336
▁coined	-12337
▁copern	-12338
▁crocod	-12339
▁crunch	-12340
▁depths	-12341
▁doomed	-12342
▁fights	-12343
▁flames	-12344
▁folded	-12345
▁gently	-12346
▁glands	-12347
▁mantis	-12348
▁mantra	-12349
▁marshm	-12350
▁mumbai	-12351
▁nicole	-12352
▁nuclei	-12353
▁olfact	-12354
▁pillar	-12355
▁pixels	-12356
▁plasma	-12357
▁prince	-12358
▁purity	-12359
▁quotes	-12360
▁routes	-12361
▁runner	-12362
▁sealed	-12363
▁sewage	-12364
▁singer	-12365
▁slogan	-12366
▁storms	-12367
▁treats	-12368
▁washed	-12369
activity	-12370
appropri	-12371
▁annoyed	-12372
▁buffalo	-12373
▁cholera	-12374
▁coaches	-12375
▁conform	-12376
▁cookies	-12377
▁customs	-12378
▁escaped	-12379
▁examine	-12380
▁excruci	-12381
▁exhilar	-12382
▁francis	-12383
▁gaining	-12384
▁himalay	-12385
▁hunters	-12386
▁iceberg	-12387
▁impress	-12388
▁justine	-12389
▁masterp	-12390
▁metrics	-12391
▁optimal	-12392
▁penguin	-12393
▁phoenix	-12394
▁rabbits	-12395
▁ranging	-12396
▁rosetta	-12397
▁stewart	-12398
▁strokes	-12399
▁tactics	-12400
▁tamiflu	-12401
▁tedtalk	-12402
▁textile	-12403
▁vibrate	-12404
ationally	-12405
inephrine	-12406
▁ancestry	-12407
▁arranged	-12408
▁attorney	-12409
▁beehives	-12410
▁colombia	-12411
▁doubling	-12412
▁dragging	-12413
▁employed	-12414
▁estrogen	-12415
▁evaluate	-12416
▁founders	-12417
▁habitats	-12418
▁horrific	-12419
▁impaired	-12420
▁interrog	-12421
▁invasive	-12422
▁likewise	-12423
▁listener	-12424
▁magician	-12425
▁moderate	-12426
▁outwards	-12427
▁payments	-12428
▁receiver	-12429
▁receives	-12430
▁requests	-12431
▁rotating	-12432
▁searched	-12433
▁severely	-12434
▁suppress	-12435
▁surveyed	-12436
▁trusting	-12437
▁typeface	-12438
▁uploaded	-12439
▁advocates	-12440
▁ambiguity	-12441
▁civilians	-12442
▁criticism	-12443
▁crucially	-12444
▁demograph	-12445
▁fertility	-12446
▁forbidden	-12447
▁inclusion	-12448
▁injection	-12449
▁intercept	-12450
▁lifetimes	-12451
▁personnel	-12452
▁recruited	-12453
▁rectangle	-12454
▁relevance	-12455
▁repeating	-12456
▁simulated	-12457
▁simulator	-12458
▁surrender	-12459
▁targeting	-12460
▁triangles	-12461
▁anesthesia	-12462
▁beginnings	-12463
▁centigrade	-12464
▁conception	-12465
▁confession	-12466
▁everglades	-12467
▁guaranteed	-12468
▁indication	-12469
▁preserving	-12470
▁rebuilding	-12471
▁reflective	-12472
▁repertoire	-12473
▁specialist	-12474
▁structured	-12475
▁superpower	-12476
▁accommodate	-12477
▁appointment	-12478
▁aquaculture	-12479
▁connecticut	-12480
▁eliminating	-12481
▁empowerment	-12482
▁implication	-12483
▁inefficient	-12484
▁negotiating	-12485
▁residential	-12486
▁substantial	-12487
▁susceptible	-12488
▁wonderfully	-12489
▁championship	-12490
▁encyclopedia	-12491
▁excruciating	-12492
▁explanations	-12493
▁manufacturer	-12494
▁standardized	-12495
▁biotechnology	-12496
▁collaborating	-12497
▁improvisation	-12498
▁undergraduate	-12499
▁bioluminescent	-12500
▁concentrations	-12501
▁neuroscientist	-12502
▁environmentally	-12503
eu	-12504
ão	-12505
aid	-12506
boy	-12507
een	-12508
elf	-12509
fur	-12510
hma	-12511
pot	-12512
▁71	-12513
▁ao	-12514
▁vr	-12515
acon	-12516
bell	-12517
bury	-12518
chet	-12519
cils	-12520
cius	-12521
eled	-12522
hill	-12523
iber	-12524
ique	-12525
iwan	-12526
made	-12527
ocal	-12528
orse	-12529
ouri	-12530
quer	-12531
reen	-12532
rett	-12533
rina	-12534
stal	-12535
uran	-12536
wall	-12537
▁asl	-12538
▁cel	-12539
▁dal	-12540
▁edi	-12541
▁lhc	-12542
▁nun	-12543
▁oft	-12544
▁piv	-12545
cript	-12546
ensed	-12547
igned	-12548
leans	-12549
negie	-12550
nered	-12551
owing	-12552
phalt	-12553
terol	-12554
▁acre	-12555
▁amen	-12556
▁bury	-12557
▁fame	-12558
▁feas	-12559
▁hats	-12560
▁ivan	-12561
▁jean	-12562
▁keen	-12563
▁lazy	-12564
▁owns	-12565
▁pall	-12566
▁pitt	-12567
▁rage	-12568
▁rear	-12569
▁rept	-12570
▁rows	-12571
▁sket	-12572
▁subc	-12573
▁tide	-12574
▁tilt	-12575
▁toes	-12576
▁undo	-12577
▁yoga	-12578
abytes	-12579
aments	-12580
igious	-12581
illing	-12582
people	-12583
rolled	-12584
▁airbn	-12585
▁billy	-12586
▁bloom	-12587
▁booth	-12588
▁bruce	-12589
▁canal	-12590
▁comed	-12591
▁cough	-12592
▁drank	-12593
▁erase	-12594
▁fatig	-12595
▁gramm	-12596
▁hears	-12597
▁innoc	-12598
▁ivory	-12599
▁journ	-12600
▁lewis	-12601
▁mites	-12602
▁mitig	-12603
▁natal	-12604
▁ozone	-12605
▁poets	-12606
▁posts	-12607
▁prest	-12608
▁qatar	-12609
▁rebel	-12610
▁reply	-12611
▁rever	-12612
▁shade	-12613
▁spock	-12614
▁squid	-12615
▁tales	-12616
▁theat	-12617
conomic	-12618
inative	-12619
ocation	-12620
otransm	-12621
▁ambass	-12622
▁assert	-12623
▁asthma	-12624
▁burial	-12625
▁bypass	-12626
▁carved	-12627
▁choles	-12628
▁condom	-12629
▁darfur	-12630
▁expend	-12631
▁fiscal	-12632
▁flawed	-12633
▁fungus	-12634
▁harlem	-12635
▁humane	-12636
▁knight	-12637
▁lakota	-12638
▁listed	-12639
▁metron	-12640
▁microw	-12641
▁multid	-12642
▁polite	-12643
▁poorer	-12644
▁popped	-12645
▁potato	-12646
▁prompt	-12647
▁ripped	-12648
▁rubble	-12649
▁samuel	-12650
▁scarce	-12651
▁sprawl	-12652
▁stated	-12653
▁stitch	-12654
▁transf	-12655
▁tshirt	-12656
▁varied	-12657
▁visits	-12658
▁weekly	-12659
▁wizard	-12660
cellular	-12661
ithmetic	-12662
▁addicts	-12663
▁android	-12664
▁asphalt	-12665
▁babbage	-12666
▁blaming	-12667
▁builder	-12668
▁charism	-12669
▁cleared	-12670
▁deflect	-12671
▁deserts	-12672
▁embassy	-12673
▁execute	-12674
▁flights	-12675
▁glowing	-12676
▁grabbed	-12677
▁hostage	-12678
▁ideally	-12679
▁lacking	-12680
▁lottery	-12681
▁mentors	-12682
▁migrate	-12683
▁miracul	-12684
▁motorcy	-12685
▁orleans	-12686
▁polymer	-12687
▁protons	-12688
▁railway	-12689
▁reforms	-12690
▁regener	-12691
▁signing	-12692
▁submers	-12693
▁surplus	-12694
▁tattoos	-12695
▁thirdly	-12696
▁thunder	-12697
▁tickets	-12698
▁titanic	-12699
▁untouch	-12700
▁utopian	-12701
▁adequate	-12702
▁advertis	-12703
▁approval	-12704
▁archives	-12705
▁autistic	-12706
▁carnegie	-12707
▁cerebral	-12708
▁commands	-12709
▁efficacy	-12710
▁entrance	-12711
▁exploded	-12712
▁flashing	-12713
▁guessing	-12714
▁mistaken	-12715
▁opponent	-12716
▁portable	-12717
▁regional	-12718
▁reviewed	-12719
▁russians	-12720
▁sensible	-12721
▁sketches	-12722
▁spelling	-12723
▁suicidal	-12724
▁sweeping	-12725
▁academics	-12726
▁alignment	-12727
▁apparatus	-12728
▁certified	-12729
▁collapses	-12730
▁communist	-12731
▁contacted	-12732
▁contracts	-12733
▁corridors	-12734
▁incidents	-12735
▁intrigued	-12736
▁mammogram	-12737
▁memorable	-12738
▁populated	-12739
▁predatory	-12740
▁prevented	-12741
▁reconcile	-12742
▁sovereign	-12743
▁stimulate	-12744
▁swallowed	-12745
▁thickness	-12746
▁thylacine	-12747
▁workshops	-12748
▁analytical	-12749
▁brainstorm	-12750
▁calculator	-12751
▁capitalist	-12752
▁censorship	-12753
▁conducting	-12754
▁conspiracy	-12755
▁containing	-12756
▁cumulative	-12757
▁developers	-12758
▁disgusting	-12759
▁intriguing	-12760
▁irrigation	-12761
▁obligation	-12762
▁protesters	-12763
▁regenerate	-12764
▁restricted	-12765
▁temptation	-12766
▁tenderness	-12767
▁thankfully	-12768
▁thoroughly	-12769
▁vibrations	-12770
▁wildebeest	-12771
▁accumulated	-12772
▁adolescents	-12773
▁cholesterol	-12774
▁convenience	-12775
▁corresponds	-12776
▁determining	-12777
▁inhabitants	-12778
▁intentional	-12779
▁neurotransm	-12780
▁philippines	-12781
▁rainforests	-12782
▁universally	-12783
▁achievements	-12784
▁circumstance	-12785
▁constructing	-12786
▁manufactured	-12787
▁preservation	-12788
▁urbanization	-12789
▁congressional	-12790
▁corresponding	-12791
▁manufacturers	-12792
▁multicultural	-12793
▁demonstrations	-12794
▁hallucinations	-12795
▁reconciliation	-12796
bu	-12797
aho	-12798
ais	-12799
bot	-12800
ega	-12801
eid	-12802
hed	-12803
ili	-12804
iry	-12805
psy	-12806
uri	-12807
vet	-12808
voc	-12809
▁56	-12810
▁jr	-12811
▁mp	-12812
ader	-12813
agan	-12814
agne	-12815
cale	-12816
code	-12817
dess	-12818
emen	-12819
eryl	-12820
etts	-12821
icus	-12822
ilst	-12823
imal	-12824
imed	-12825
ptic	-12826
rust	-12827
ulin	-12828
▁bog	-12829
▁cer	-12830
▁cyc	-12831
▁dos	-12832
▁hid	-12833
▁hoc	-12834
▁kay	-12835
▁ora	-12836
▁ove	-12837
▁rif	-12838
▁rip	-12839
ached	-12840
achus	-12841
amous	-12842
eland	-12843
ifier	-12844
proof	-12845
regon	-12846
▁1100	-12847
▁1940	-12848
▁1989	-12849
▁1991	-12850
▁abra	-12851
▁aort	-12852
▁balk	-12853
▁bapt	-12854
▁bats	-12855
▁bolt	-12856
▁brex	-12857
▁coer	-12858
▁drey	-12859
▁duck	-12860
▁dude	-12861
▁dune	-12862
▁fade	-12863
▁guts	-12864
▁herd	-12865
▁lore	-12866
▁medi	-12867
▁moth	-12868
▁neph	-12869
▁oops	-12870
▁oral	-12871
▁pist	-12872
▁reed	-12873
▁rung	-12874
▁spit	-12875
▁stal	-12876
▁sync	-12877
▁tink	-12878
agraph	-12879
ateral	-12880
formed	-12881
iances	-12882
ignant	-12883
ilized	-12884
lights	-12885
razine	-12886
ysomet	-12887
▁acron	-12888
▁alice	-12889
▁bands	-12890
▁cubic	-12891
▁curse	-12892
▁dougl	-12893
▁drums	-12894
▁euros	-12895
▁gangs	-12896
▁grabs	-12897
▁indef	-12898
▁intol	-12899
▁irish	-12900
▁lasts	-12901
▁lemon	-12902
▁livel	-12903
▁maneu	-12904
▁nepal	-12905
▁ninth	-12906
▁roger	-12907
▁saves	-12908
▁scare	-12909
▁scout	-12910
▁seeks	-12911
▁setup	-12912
▁shack	-12913
▁siber	-12914
▁skype	-12915
▁swamp	-12916
▁templ	-12917
▁traff	-12918
▁troll	-12919
▁uncom	-12920
entimes	-12921
keeping	-12922
renched	-12923
section	-12924
umental	-12925
▁400000	-12926
▁antide	-12927
▁append	-12928
▁banned	-12929
▁barack	-12930
▁bloody	-12931
▁charts	-12932
▁cradle	-12933
▁crises	-12934
▁cruise	-12935
▁dining	-12936
▁drinks	-12937
▁edited	-12938
▁ginger	-12939
▁guinea	-12940
▁hammer	-12941
▁impose	-12942
▁indiff	-12943
▁inspir	-12944
▁multin	-12945
▁obtain	-12946
▁oregon	-12947
▁pilots	-12948
▁potter	-12949
▁pushes	-12950
▁raging	-12951
▁retrie	-12952
▁submar	-12953
▁superv	-12954
▁syring	-12955
▁thirst	-12956
▁tweets	-12957
▁wander	-12958
▁warmth	-12959
▁waving	-12960
▁whilst	-12961
▁zeroes	-12962
othermal	-12963
▁asymmet	-12964
▁bankers	-12965
▁beloved	-12966
▁cabinet	-12967
▁craving	-12968
▁debates	-12969
▁delayed	-12970
▁fitting	-12971
▁fleeing	-12972
▁hawking	-12973
▁hillary	-12974
▁holiday	-12975
▁hurting	-12976
▁hygiene	-12977
▁incomes	-12978
▁insulin	-12979
▁lesters	-12980
▁lighter	-12981
▁markers	-12982
▁overlap	-12983
▁posture	-12984
▁rushing	-12985
▁seventy	-12986
▁shallow	-12987
▁springs	-12988
▁tiniest	-12989
▁toaster	-12990
▁touches	-12991
▁tougher	-12992
▁unaware	-12993
▁unified	-12994
▁updated	-12995
▁veteran	-12996
achusetts	-12997
▁altruism	-12998
▁atrazine	-12999
▁backward	-13000
▁cochlear	-13001
▁crystall	-13002
▁detected	-13003
▁dominate	-13004
▁extremes	-13005
▁foremost	-13006
▁freaking	-13007
▁hierarch	-13008
▁husbands	-13009
▁immersed	-13010
▁learners	-13011
▁moreover	-13012
▁needless	-13013
▁neurosur	-13014
▁overload	-13015
▁planners	-13016
▁removing	-13017
▁respects	-13018
▁sentient	-13019
▁solitary	-13020
▁survives	-13021
▁systemic	-13022
▁tackling	-13023
▁tomatoes	-13024
▁visceral	-13025
▁volcanic	-13026
▁whitopia	-13027
ysomething	-13028
▁attribute	-13029
▁continuum	-13030
▁contribut	-13031
▁declining	-13032
▁discrimin	-13033
▁extending	-13034
▁extensive	-13035
▁heartbeat	-13036
▁intricate	-13037
▁kilograms	-13038
▁nurturing	-13039
▁olfactory	-13040
▁paragraph	-13041
▁perpetual	-13042
▁pneumonia	-13043
▁pragmatic	-13044
▁preserved	-13045
▁projected	-13046
▁shrinking	-13047
▁underwear	-13048
▁antibodies	-13049
▁articulate	-13050
▁assessment	-13051
▁astounding	-13052
▁capacities	-13053
▁compliment	-13054
▁conscience	-13055
▁constraint	-13056
▁diagnostic	-13057
▁evaluation	-13058
▁globalized	-13059
▁graduating	-13060
▁humanities	-13061
▁objectives	-13062
▁oftentimes	-13063
▁oppression	-13064
▁prioritize	-13065
▁regulating	-13066
▁settlement	-13067
▁similarity	-13068
▁skepticism	-13069
▁starvation	-13070
▁statements	-13071
▁strengthen	-13072
▁substitute	-13073
▁supporters	-13074
▁thoughtful	-13075
▁tragically	-13076
▁violations	-13077
▁accompanied	-13078
▁advancement	-13079
▁constrained	-13080
▁descendants	-13081
▁fertilizers	-13082
▁fundraising	-13083
▁imaginative	-13084
▁interviewer	-13085
▁maintaining	-13086
▁marshmallow	-13087
▁superheroes	-13088
▁synesthesia	-13089
▁acceleration	-13090
▁announcement	-13091
▁collaborator	-13092
▁developments	-13093
▁enthusiastic	-13094
▁experimenter	-13095
▁installation	-13096
▁interconnect	-13097
▁invisibility	-13098
▁resurrection	-13099
▁stratosphere	-13100
▁costeffective	-13101
▁developmental	-13102
▁intentionally	-13103
▁massachusetts	-13104
▁multinational	-13105
▁cybercriminals	-13106
▁overwhelmingly	-13107
19	-13108
abe	-13109
amy	-13110
lab	-13111
oys	-13112
str	-13113
uan	-13114
▁01	-13115
▁77	-13116
▁87	-13117
▁dh	-13118
▁gw	-13119
▁mw	-13120
▁ni	-13121
▁ps	-13122
acks	-13123
aste	-13124
bons	-13125
cker	-13126
conf	-13127
dled	-13128
fied	-13129
gage	-13130
imba	-13131
math	-13132
opes	-13133
sell	-13134
worm	-13135
xist	-13136
ylan	-13137
▁360	-13138
▁450	-13139
▁abd	-13140
▁cnn	-13141
▁eag	-13142
▁geo	-13143
▁gle	-13144
▁glo	-13145
▁gym	-13146
▁mba	-13147
▁ngo	-13148
▁rag	-13149
▁rou	-13150
▁sid	-13151
▁sof	-13152
▁upl	-13153
▁vas	-13154
▁viv	-13155
▁wag	-13156
▁zen	-13157
adata	-13158
agram	-13159
bborn	-13160
burgh	-13161
geons	-13162
graph	-13163
ihood	-13164
onies	-13165
otent	-13166
stood	-13167
▁amph	-13168
▁anch	-13169
▁boil	-13170
▁brow	-13171
▁crum	-13172
▁deem	-13173
▁dick	-13174
▁funn	-13175
▁gord	-13176
▁greg	-13177
▁hash	-13178
▁khan	-13179
▁lips	-13180
▁mash	-13181
▁mism	-13182
▁pave	-13183
▁reli	-13184
▁slum	-13185
▁stam	-13186
▁toss	-13187
▁voic	-13188
▁ware	-13189
▁watt	-13190
▁zomb	-13191
alling	-13192
elines	-13193
houses	-13194
making	-13195
ogical	-13196
ordial	-13197
uitive	-13198
ulsive	-13199
urface	-13200
▁80000	-13201
▁acted	-13202
▁antip	-13203
▁appet	-13204
▁bulbs	-13205
▁bully	-13206
▁burgl	-13207
▁compr	-13208
▁defic	-13209
▁delic	-13210
▁downs	-13211
▁dwell	-13212
▁dylan	-13213
▁dynam	-13214
▁etern	-13215
▁extro	-13216
▁files	-13217
▁flint	-13218
▁hives	-13219
▁hosts	-13220
▁idaho	-13221
▁jason	-13222
▁joins	-13223
▁landf	-13224
▁lapse	-13225
▁mario	-13226
▁nause	-13227
▁omega	-13228
▁pepsi	-13229
▁plaus	-13230
▁seren	-13231
▁siege	-13232
▁skate	-13233
▁socks	-13234
▁squea	-13235
▁stagn	-13236
▁sting	-13237
▁stole	-13238
▁sunsh	-13239
▁terra	-13240
▁theft	-13241
▁unequ	-13242
▁waits	-13243
▁wears	-13244
balance	-13245
idental	-13246
isition	-13247
massive	-13248
▁absent	-13249
▁airbnb	-13250
▁apollo	-13251
▁arises	-13252
▁attent	-13253
▁avatar	-13254
▁awards	-13255
▁barbie	-13256
▁basics	-13257
▁bookst	-13258
▁childb	-13259
▁chunks	-13260
▁comets	-13261
▁condem	-13262
▁cooled	-13263
▁cooler	-13264
▁dances	-13265
▁danish	-13266
▁discou	-13267
▁edison	-13268
▁epigen	-13269
▁europa	-13270
▁floods	-13271
▁fridge	-13272
▁grapes	-13273
▁hitler	-13274
▁hotter	-13275
▁improb	-13276
▁incomp	-13277
▁inputs	-13278
▁insign	-13279
▁lining	-13280
▁manure	-13281
▁marcus	-13282
▁microp	-13283
▁mutant	-13284
▁nichol	-13285
▁norman	-13286
▁priest	-13287
▁relent	-13288
▁resort	-13289
▁roller	-13290
▁ruling	-13291
▁rushed	-13292
▁saliva	-13293
▁sugars	-13294
▁sulfur	-13295
▁tablet	-13296
▁termin	-13297
▁throws	-13298
▁traded	-13299
▁zambia	-13300
▁zoning	-13301
lessness	-13302
▁abraham	-13303
▁beaches	-13304
▁bounded	-13305
▁compart	-13306
▁confess	-13307
▁congreg	-13308
▁dispute	-13309
▁dreyfus	-13310
▁erectus	-13311
▁fatigue	-13312
▁fearful	-13313
▁fingert	-13314
▁fission	-13315
▁fluores	-13316
▁guesses	-13317
▁impulse	-13318
▁katrina	-13319
▁leaning	-13320
▁locking	-13321
▁martian	-13322
▁menstru	-13323
▁modular	-13324
▁modules	-13325
▁monarch	-13326
▁narciss	-13327
▁patriot	-13328
▁quicker	-13329
▁recipro	-13330
▁refined	-13331
▁senator	-13332
▁servant	-13333
▁slipped	-13334
▁sparked	-13335
▁spotted	-13336
▁temples	-13337
▁thinner	-13338
▁tobacco	-13339
▁tourist	-13340
▁tropics	-13341
▁volcano	-13342
▁wetsuit	-13343
▁wonders	-13344
▁yelling	-13345
astically	-13346
ographing	-13347
▁advocacy	-13348
▁aquarium	-13349
▁arguably	-13350
▁borrowed	-13351
▁bothered	-13352
▁constitu	-13353
▁crashing	-13354
▁crystals	-13355
▁delicate	-13356
▁demanded	-13357
▁discount	-13358
▁happiest	-13359
▁immunity	-13360
▁integral	-13361
▁journals	-13362
▁marching	-13363
▁meanings	-13364
▁metadata	-13365
▁missouri	-13366
▁moisture	-13367
▁neutrons	-13368
▁protects	-13369
▁provider	-13370
▁puncture	-13371
▁rendered	-13372
▁resolved	-13373
▁resulted	-13374
▁sideways	-13375
▁stripped	-13376
▁stubborn	-13377
▁surgical	-13378
▁telecomm	-13379
▁tortured	-13380
▁walkable	-13381
▁williams	-13382
▁bilingual	-13383
▁blueprint	-13384
▁celebrity	-13385
▁coalition	-13386
▁companion	-13387
▁courtroom	-13388
▁digitally	-13389
▁discarded	-13390
▁disturbed	-13391
▁donations	-13392
▁intrinsic	-13393
▁mangroves	-13394
▁ministers	-13395
▁passively	-13396
▁pathology	-13397
▁revealing	-13398
▁routinely	-13399
▁sequenced	-13400
▁startling	-13401
▁surrounds	-13402
▁synthesis	-13403
▁testimony	-13404
▁villagers	-13405
▁violation	-13406
engineering	-13407
▁arithmetic	-13408
▁comparable	-13409
▁compatible	-13410
▁correction	-13411
▁criticized	-13412
▁eradicated	-13413
▁geological	-13414
▁guerrillas	-13415
▁guidelines	-13416
▁hypotheses	-13417
▁inappropri	-13418
▁livelihood	-13419
▁persuasive	-13420
▁preference	-13421
▁primordial	-13422
▁propulsion	-13423
▁respectful	-13424
▁simplistic	-13425
▁supposedly	-13426
▁undercover	-13427
▁acquisition	-13428
▁antidepress	-13429
▁commitments	-13430
▁exclusively	-13431
▁fulfillment	-13432
▁intuitively	-13433
▁proportions	-13434
▁replicating	-13435
▁restoration	-13436
▁revolutions	-13437
▁sustainably	-13438
▁acknowledged	-13439
▁availability	-13440
▁commandments	-13441
▁dictionaries	-13442
▁requirements	-13443
▁supermassive	-13444
▁acknowledging	-13445
▁appropriately	-13446
▁contemplating	-13447
▁photographers	-13448
▁unpredictable	-13449
▁accomplishment	-13450
▁representatives	-13451
ni	-13452
tt	-13453
zi	-13454
ann	-13455
any	-13456
cam	-13457
eau	-13458
lob	-13459
oux	-13460
vae	-13461
▁39	-13462
▁49	-13463
▁51	-13464
▁63	-13465
▁66	-13466
▁67	-13467
▁ls	-13468
▁lt	-13469
▁mm	-13470
▁ré	-13471
▁xl	-13472
aire	-13473
amil	-13474
anor	-13475
aque	-13476
asso	-13477
bted	-13478
ella	-13479
mond	-13480
nity	-13481
nold	-13482
offs	-13483
orth	-13484
otto	-13485
owan	-13486
vana	-13487
vish	-13488
wing	-13489
▁185	-13490
▁apt	-13491
▁awa	-13492
▁bum	-13493
▁bye	-13494
▁ced	-13495
▁cia	-13496
▁eco	-13497
▁eun	-13498
▁fax	-13499
▁fee	-13500
▁jab	-13501
▁kim	-13502
▁nud	-13503
▁pub	-13504
▁rug	-13505
▁seb	-13506
▁spy	-13507
▁são	-13508
▁tay	-13509
▁unb	-13510
▁wob	-13511
akers	-13512
cible	-13513
ected	-13514
idity	-13515
ieces	-13516
integ	-13517
isher	-13518
owers	-13519
pable	-13520
ravel	-13521
ritis	-13522
walks	-13523
works	-13524
▁1973	-13525
▁1983	-13526
▁1992	-13527
▁2017	-13528
▁abol	-13529
▁aver	-13530
▁bald	-13531
▁bark	-13532
▁bass	-13533
▁buys	-13534
▁coco	-13535
▁conn	-13536
▁flyt	-13537
▁fuse	-13538
▁grip	-13539
▁hull	-13540
▁jaws	-13541
▁jury	-13542
▁kent	-13543
▁knit	-13544
▁lama	-13545
▁midw	-13546
▁mite	-13547
▁mole	-13548
▁mour	-13549
▁neil	-13550
▁pine	-13551
▁plun	-13552
▁poop	-13553
▁rach	-13554
▁reun	-13555
▁ross	-13556
▁rude	-13557
▁swap	-13558
▁tops	-13559
▁unve	-13560
▁wipe	-13561
atized	-13562
cation	-13563
ifting	-13564
retion	-13565
terior	-13566
uation	-13567
▁alley	-13568
▁andre	-13569
▁bandw	-13570
▁beard	-13571
▁blows	-13572
▁bribe	-13573
▁brink	-13574
▁cater	-13575
▁cease	-13576
▁chern	-13577
▁clubs	-13578
▁cocon	-13579
▁crabs	-13580
▁deleg	-13581
▁donna	-13582
▁draft	-13583
▁haunt	-13584
▁helen	-13585
▁helix	-13586
▁hints	-13587
▁julie	-13588
▁malls	-13589
▁mates	-13590
▁matth	-13591
▁mines	-13592
▁nickn	-13593
▁onion	-13594
▁orang	-13595
▁probe	-13596
▁rally	-13597
▁rearr	-13598
▁recap	-13599
▁remed	-13600
▁ridge	-13601
▁rocky	-13602
▁salam	-13603
▁skies	-13604
▁smash	-13605
▁snail	-13606
▁sober	-13607
▁stein	-13608
▁swept	-13609
▁tesla	-13610
▁vents	-13611
▁wages	-13612
amation	-13613
amiliar	-13614
fulness	-13615
herence	-13616
ritious	-13617
tension	-13618
▁500000	-13619
▁acumen	-13620
▁advers	-13621
▁arrows	-13622
▁artery	-13623
▁assass	-13624
▁brexit	-13625
▁burger	-13626
▁closes	-13627
▁coding	-13628
▁declar	-13629
▁deemed	-13630
▁edible	-13631
▁eighty	-13632
▁encode	-13633
▁firing	-13634
▁fluids	-13635
▁fooled	-13636
▁gossip	-13637
▁guests	-13638
▁hudson	-13639
▁hyster	-13640
▁impair	-13641
▁jennie	-13642
▁modify	-13643
▁nonpro	-13644
▁obsess	-13645
▁oracle	-13646
▁polygl	-13647
▁praise	-13648
▁prayer	-13649
▁primal	-13650
▁psycho	-13651
▁puppet	-13652
▁restor	-13653
▁seated	-13654
▁shells	-13655
▁splash	-13656
▁stockp	-13657
▁sucked	-13658
▁taiwan	-13659
▁tasted	-13660
▁thumbs	-13661
▁titled	-13662
▁toyota	-13663
▁tuning	-13664
▁unpack	-13665
▁walker	-13666
▁wallet	-13667
▁warned	-13668
▁analyst	-13669
▁austria	-13670
▁battles	-13671
▁behaves	-13672
▁bipolar	-13673
▁blended	-13674
▁boiling	-13675
▁breasts	-13676
▁cameron	-13677
▁chewing	-13678
▁cleaner	-13679
▁compost	-13680
▁confuse	-13681
▁crochet	-13682
▁daytime	-13683
▁devised	-13684
▁dischar	-13685
▁drowned	-13686
▁favelas	-13687
▁goddess	-13688
▁graders	-13689
▁heavens	-13690
▁imposed	-13691
▁indefin	-13692
▁induced	-13693
▁inquiry	-13694
▁killers	-13695
▁lifting	-13696
▁longing	-13697
▁mandate	-13698
▁marched	-13699
▁notions	-13700
▁payment	-13701
▁possess	-13702
▁reviews	-13703
▁rightly	-13704
▁screwed	-13705
▁stacked	-13706
▁sucking	-13707
▁theresa	-13708
▁threads	-13709
▁tuition	-13710
▁unravel	-13711
▁unthink	-13712
▁uranium	-13713
▁vividly	-13714
▁approxim	-13715
▁biomimic	-13716
▁blinking	-13717
▁chemists	-13718
▁cocktail	-13719
▁converse	-13720
▁defeated	-13721
▁depended	-13722
▁develops	-13723
▁donating	-13724
▁emission	-13725
▁emitting	-13726
▁ensuring	-13727
▁explorer	-13728
▁forehead	-13729
▁holistic	-13730
▁jennifer	-13731
▁monsters	-13732
▁patented	-13733
▁punished	-13734
▁pyramids	-13735
▁redefine	-13736
▁reverber	-13737
▁scottish	-13738
▁scrutiny	-13739
▁snapshot	-13740
▁squirrel	-13741
▁warcraft	-13742
ustainable	-13743
▁aftermath	-13744
▁amendment	-13745
▁appearing	-13746
▁audacious	-13747
▁brutality	-13748
▁caregiver	-13749
▁cellphone	-13750
▁defending	-13751
▁diffusion	-13752
▁dissolved	-13753
▁firefight	-13754
▁hardwired	-13755
▁hungarian	-13756
▁inability	-13757
▁instincts	-13758
▁mentality	-13759
▁monitored	-13760
▁notorious	-13761
▁prevalent	-13762
▁promotion	-13763
▁purchased	-13764
▁purchases	-13765
▁reimagine	-13766
▁saturated	-13767
▁schooling	-13768
▁stakehold	-13769
▁surprises	-13770
▁suspected	-13771
▁testament	-13772
▁troubling	-13773
▁variables	-13774
▁withstand	-13775
▁wrestling	-13776
▁aggression	-13777
▁altruistic	-13778
▁assembling	-13779
▁consultant	-13780
▁correlated	-13781
▁counterint	-13782
▁deliberate	-13783
▁footprints	-13784
▁freshwater	-13785
▁generalize	-13786
▁harvesting	-13787
▁introspect	-13788
▁liberating	-13789
▁liberation	-13790
▁nonviolent	-13791
▁nutritious	-13792
▁occupation	-13793
▁overweight	-13794
▁positively	-13795
▁powerfully	-13796
▁presidents	-13797
▁presumably	-13798
▁programmer	-13799
▁protocells	-13800
▁retrospect	-13801
▁substances	-13802
▁toothbrush	-13803
▁transforms	-13804
▁translates	-13805
▁unfamiliar	-13806
▁vegetarian	-13807
▁wilderness	-13808
▁battlefield	-13809
▁commercials	-13810
▁contemplate	-13811
▁continually	-13812
▁contributes	-13813
▁degradation	-13814
▁distraction	-13815
▁epinephrine	-13816
▁extinctions	-13817
▁interrupted	-13818
▁operational	-13819
▁pollination	-13820
▁qualitative	-13821
▁submersible	-13822
▁terrestrial	-13823
▁uncondition	-13824
▁variability	-13825
▁astronomical	-13826
▁constructive	-13827
▁gamification	-13828
▁incidentally	-13829
▁neurological	-13830
▁participated	-13831
▁similarities	-13832
▁unimaginable	-13833
▁complications	-13834
▁concentrating	-13835
▁contraception	-13836
▁differentiate	-13837
▁effectiveness	-13838
▁instinctively	-13839
▁manifestation	-13840
▁proliferation	-13841
▁industrialized	-13842
▁microorganisms	-13843
▁recommendation	-13844
▁accomplishments	-13845
90	-13846
ju	-13847
rr	-13848
zs	-13849
án	-13850
ali	-13851
cro	-13852
cup	-13853
eur	-13854
fol	-13855
gal	-13856
kee	-13857
uba	-13858
ulu	-13859
uma	-13860
urp	-13861
▁76	-13862
▁eh	-13863
▁gm	-13864
▁iw	-13865
▁jd	-13866
▁ln	-13867
▁rd	-13868
▁sj	-13869
▁vc	-13870
atin	-13871
atma	-13872
bags	-13873
bish	-13874
bour	-13875
coma	-13876
egal	-13877
erus	-13878
etah	-13879
held	-13880
hrir	-13881
ihil	-13882
iler	-13883
iner	-13884
inos	-13885
itri	-13886
onst	-13887
rifu	-13888
rose	-13889
stri	-13890
sumé	-13891
uish	-13892
ymph	-13893
▁ace	-13894
▁ald	-13895
▁ark	-13896
▁ecu	-13897
▁hou	-13898
▁jay	-13899
▁jum	-13900
▁nag	-13901
▁nim	-13902
▁paj	-13903
▁pam	-13904
▁tet	-13905
▁vod	-13906
aders	-13907
aunch	-13908
awatt	-13909
bolic	-13910
check	-13911
dling	-13912
etery	-13913
ggles	-13914
gling	-13915
icist	-13916
ieval	-13917
ipper	-13918
isure	-13919
ivate	-13920
otive	-13921
overs	-13922
thals	-13923
▁1968	-13924
▁1985	-13925
▁1986	-13926
▁1987	-13927
▁9000	-13928
▁anas	-13929
▁bait	-13930
▁bart	-13931
▁brib	-13932
▁bulk	-13933
▁cray	-13934
▁crux	-13935
▁fats	-13936
▁foxo	-13937
▁gast	-13938
▁glor	-13939
▁haul	-13940
▁hive	-13941
▁knot	-13942
▁lamb	-13943
▁lied	-13944
▁magg	-13945
▁mahm	-13946
▁marg	-13947
▁mong	-13948
▁muff	-13949
▁navy	-13950
▁outd	-13951
▁pest	-13952
▁pies	-13953
▁plag	-13954
▁redd	-13955
▁saus	-13956
▁shir	-13957
▁spar	-13958
▁subl	-13959
▁symb	-13960
▁taxp	-13961
▁wasp	-13962
▁whip	-13963
anship	-13964
nessee	-13965
ocated	-13966
ochond	-13967
reated	-13968
roduct	-13969
rophys	-13970
timore	-13971
umatic	-13972
ursday	-13973
wright	-13974
▁antis	-13975
▁birch	-13976
▁bumps	-13977
▁corps	-13978
▁cuban	-13979
▁dalai	-13980
▁degen	-13981
▁denom	-13982
▁desks	-13983
▁enact	-13984
▁exile	-13985
▁germs	-13986
▁groom	-13987
▁hitch	-13988
▁hurry	-13989
▁inuit	-13990
▁irrit	-13991
▁kyoto	-13992
▁libya	-13993
▁nudge	-13994
▁optic	-13995
▁overr	-13996
▁prone	-13997
▁puppy	-13998
▁rabbi	-13999
▁reads	-14000
▁rosie	-14001
▁sandy	-14002
▁shelt	-14003
▁soils	-14004
▁stark	-14005
▁swell	-14006
▁tapir	-14007
▁theor	-14008
▁uncon	-14009
▁vague	-14010
▁vegas	-14011
▁venom	-14012
▁widow	-14013
artheid	-14014
aterial	-14015
berries	-14016
cussion	-14017
lection	-14018
ulously	-14019
▁anesth	-14020
▁autobi	-14021
▁barren	-14022
▁bassem	-14023
▁blamed	-14024
▁brakes	-14025
▁bricks	-14026
▁cellul	-14027
▁cleans	-14028
▁crappy	-14029
▁decode	-14030
▁decomp	-14031
▁diseng	-14032
▁embark	-14033
▁framed	-14034
▁galois	-14035
▁glance	-14036
▁graham	-14037
▁incons	-14038
▁johnny	-14039
▁larvae	-14040
▁lasers	-14041
▁liters	-14042
▁locker	-14043
▁messed	-14044
▁microc	-14045
▁philip	-14046
▁pickle	-14047
▁plaque	-14048
▁proust	-14049
▁rabbit	-14050
▁ranges	-14051
▁rotten	-14052
▁résumé	-14053
▁serial	-14054
▁sorted	-14055
▁sprint	-14056
▁stance	-14057
▁starch	-14058
▁sunset	-14059
▁swings	-14060
▁tahrir	-14061
▁takers	-14062
▁taylor	-14063
▁ultras	-14064
▁uterus	-14065
▁vector	-14066
▁venice	-14067
▁walter	-14068
chemical	-14069
▁alleged	-14070
▁arrival	-14071
▁aspirin	-14072
▁assumes	-14073
▁behaved	-14074
▁blanket	-14075
▁bullets	-14076
▁cheetah	-14077
▁crafted	-14078
▁critics	-14079
▁darkest	-14080
▁deconst	-14081
▁dispers	-14082
▁ecuador	-14083
▁flatten	-14084
▁focuses	-14085
▁funders	-14086
▁geology	-14087
▁handing	-14088
▁harming	-14089
▁impover	-14090
▁invites	-14091
▁janitor	-14092
▁legitim	-14093
▁leisure	-14094
▁mahatma	-14095
▁marimba	-14096
▁matthew	-14097
▁mcgowan	-14098
▁mercury	-14099
▁motions	-14100
▁ovarian	-14101
▁peanuts	-14102
▁photons	-14103
▁pioneer	-14104
▁pitches	-14105
▁predisp	-14106
▁readily	-14107
▁rosling	-14108
▁senegal	-14109
▁stunned	-14110
▁tradies	-14111
▁trickle	-14112
▁turbine	-14113
▁upgrade	-14114
▁urgency	-14115
antically	-14116
odynamics	-14117
▁animated	-14118
▁aviation	-14119
▁belonged	-14120
▁brighter	-14121
▁coherent	-14122
▁crushing	-14123
▁daunting	-14124
▁defenses	-14125
▁destined	-14126
▁doorstep	-14127
▁emphasis	-14128
▁escaping	-14129
▁franklin	-14130
▁freedoms	-14131
▁geoffrey	-14132
▁governed	-14133
▁homicide	-14134
▁ignoring	-14135
▁imprison	-14136
▁incentiv	-14137
▁inconven	-14138
▁infinity	-14139
▁inspires	-14140
▁judicial	-14141
▁lawrence	-14142
▁mandarin	-14143
▁maryland	-14144
▁maternal	-14145
▁miracles	-14146
▁mismatch	-14147
▁monopoly	-14148
▁obtained	-14149
▁passport	-14150
▁penguins	-14151
▁persever	-14152
▁portland	-14153
▁province	-14154
▁relaunch	-14155
▁relieved	-14156
▁resonate	-14157
▁seasonal	-14158
▁semester	-14159
▁settlers	-14160
▁simplify	-14161
▁strictly	-14162
▁stumbled	-14163
▁suitable	-14164
▁switches	-14165
▁thermost	-14166
▁thursday	-14167
▁transist	-14168
▁treaties	-14169
unications	-14170
▁aggregate	-14171
▁anonymity	-14172
▁apartheid	-14173
▁arthritis	-14174
▁baltimore	-14175
▁brightest	-14176
▁butterfly	-14177
▁champagne	-14178
▁classical	-14179
▁commander	-14180
▁decreases	-14181
▁degrading	-14182
▁delighted	-14183
▁detectors	-14184
▁developer	-14185
▁directing	-14186
▁disparate	-14187
▁divisions	-14188
▁endlessly	-14189
▁europeans	-14190
▁influenza	-14191
▁intermedi	-14192
▁inventing	-14193
▁limestone	-14194
▁memorized	-14195
▁necessity	-14196
▁nonverbal	-14197
▁occasions	-14198
▁offensive	-14199
▁paperwork	-14200
▁poisoning	-14201
▁regulated	-14202
▁rendering	-14203
▁reporters	-14204
▁stabilize	-14205
▁subsidies	-14206
▁teammates	-14207
▁tennessee	-14208
▁underlies	-14209
▁wealthier	-14210
▁accidental	-14211
▁activation	-14212
▁biomimicry	-14213
▁brilliance	-14214
▁childbirth	-14215
▁controller	-14216
▁downstairs	-14217
▁fingertips	-14218
▁forgetting	-14219
▁illiterate	-14220
▁lesterland	-14221
▁lightbulbs	-14222
▁officially	-14223
▁outrageous	-14224
▁persistent	-14225
▁respecting	-14226
▁subsurface	-14227
▁certificate	-14228
▁ineffective	-14229
▁influential	-14230
▁manipulated	-14231
▁neurologist	-14232
▁persistence	-14233
▁pollinators	-14234
▁pornography	-14235
▁recommended	-14236
▁reinventing	-14237
▁specialists	-14238
▁stimulating	-14239
▁associations	-14240
▁demographics	-14241
▁hopelessness	-14242
▁hypertension	-14243
▁impoverished	-14244
▁neanderthals	-14245
▁negotiations	-14246
▁perpetrators	-14247
▁photographic	-14248
▁supermarkets	-14249
▁acidification	-14250
▁characterized	-14251
▁extracellular	-14252
▁gratification	-14253
▁inspirational	-14254
▁participatory	-14255
▁substantially	-14256
▁contradictions	-14257
▁internationally	-14258
▁twentysomething	-14259
hs	-14260
ml	-14261
sm	-14262
yt	-14263
ça	-14264
arn	-14265
bec	-14266
cca	-14267
ibo	-14268
irk	-14269
lic	-14270
nee	-14271
phy	-14272
sen	-14273
▁62	-14274
▁73	-14275
▁79	-14276
▁88	-14277
▁92	-14278
▁ct	-14279
▁ft	-14280
▁hr	-14281
▁mb	-14282
▁uc	-14283
aker	-14284
bone	-14285
cium	-14286
ench	-14287
feld	-14288
heit	-14289
hren	-14290
idth	-14291
ikes	-14292
imen	-14293
itre	-14294
obic	-14295
olit	-14296
othy	-14297
pace	-14298
pora	-14299
rend	-14300
ribe	-14301
seud	-14302
vals	-14303
zona	-14304
▁170	-14305
▁alf	-14306
▁amu	-14307
▁bun	-14308
▁dye	-14309
▁enl	-14310
▁gag	-14311
▁kal	-14312
▁mao	-14313
▁mck	-14314
▁nas	-14315
▁omn	-14316
▁rsw	-14317
▁sip	-14318
▁tig	-14319
▁tol	-14320
▁tru	-14321
▁upr	-14322
aches	-14323
amese	-14324
atile	-14325
ayers	-14326
corrh	-14327
ergio	-14328
essim	-14329
etine	-14330
guard	-14331
illas	-14332
insky	-14333
iotic	-14334
onics	-14335
[...]
